#version: 0.2 - Trained by `huggingface/tokenizers`
▁ t
h e
▁ a
i n
▁t he
e r
o n
▁ ,
r e
▁ s
e d
▁ w
▁ o
n d
a t
▁ .
o r
e n
▁ c
i t
▁ f
i s
e s
a r
▁ b
▁o f
a n
▁ in
a l
in g
▁ p
a s
▁a nd
▁t o
i c
r o
▁ m
▁ d
▁ h
i on
l e
o u
▁ T
▁ re
▁ =
▁ S
i l
▁ A
en t
▁ "
▁ 1
▁t h
s t
e l
▁ C
▁ l
▁ @
o m
▁ e
a m
▁ n
a d
a c
▁w as
▁ M
▁ B
e c
▁ on
▁T he
l y
u r
▁ '
e t
i d
o l
▁ g
i m
▁ I
- @
▁@ -@
▁f or
i r
i g
i v
o t
t er
▁ H
u t
▁a s
u s
o w
it h
a y
▁ 2
▁ P
▁s t
▁' s
▁ he
v er
at ion
▁w ith
▁b e
▁ R
▁th at
▁ D
c e
u n
e m
▁ W
▁w h
▁ F
c h
▁b y
t h
▁a l
▁ )
▁ (
▁ L
u l
▁ G
▁ is
▁c on
er s
▁a t
c t
▁ N
r a
o s
▁1 9
▁a n
▁ it
he r
ro m
a nd
u m
▁ J
es t
0 0
▁h is
▁ E
a g
a v
a in
r i
o d
▁f rom
▁ O
is t
▁c om
▁ v
▁p ro
o p
il l
o re
i f
l d
u p
▁ r
e w
er e
re s
ig h
▁I n
i es
▁d e
b er
ar t
ar d
or t
▁s e
ic h
▁w ere
at e
al l
a k
an t
o c
u d
a p
▁e x
q u
on g
a b
▁c h
▁o r
▁ K
g h
e ar
es s
at ed
▁p l
▁s h
it y
i p
iv e
am e
▁ U
▁h ad
ec t
ac k
▁S t
▁s u
as t
s e
re d
▁ k
g e
▁wh ich
ou r
m ent
▁ le
u nd
▁a re
o v
i an
i al
▁n ot
el l
▁s p
o st
▁ y
igh t
i a
or d
u st
ar y
in e
t her
p t
r it
▁ 3
ou n
p p
ic al
▁C h
av e
▁ un
▁2 00
c c
▁in c
f ter
ou ld
▁ V
▁b ut
ir st
is h
ou s
t e
f f
ion s
s o
▁com p
▁2 0
id e
▁ ro
u re
▁w he
u b
▁a r
▁con t
i e
▁ ;
o g
ig n
▁f irst
▁c l
w o
▁he r
r y
u e
▁it s
as s
▁the ir
or m
▁ –
o k
or k
▁in t
▁re s
▁H e
▁ :
at er
▁al so
▁a b
on d
▁a d
om e
ou t
r an
m er
i re
he d
r u
▁ us
ag e
d u
▁ 4
im e
l ow
▁p er
p er
▁wh o
▁ 5
▁T h
▁on e
▁h ave
▁s c
p l
al ly
ow n
i le
▁re c
▁1 8
t ed
. @
▁@ .@
▁t wo
it ion
u gh
i z
re e
en ce
t s
ur ing
p ort
▁be en
▁p art
▁b ec
ic e
▁h as
▁A l
▁a g
▁a pp
▁20 1
ou gh
, @
▁@ ,@
▁ j
▁ en
▁d is
l ud
k e
▁o ver
▁s er
▁th is
or y
el y
▁y ear
ation s
em ber
re n
ct ion
ou nd
ac h
▁of f
▁a fter
r ic
▁ up
l and
▁pl ay
▁d es
ac e
▁I t
ar k
o ver
an ce
▁o ut
▁the y
▁m an
ad e
▁t e
ac t
▁o ther
i b
m an
ul t
▁ im
▁ Y
p h
res s
▁inc lud
c ed
en s
ur n
w n
▁w ould
in d
▁t ime
on e
▁p re
▁int o
v el
▁O n
▁U n
w ard
w e
▁w e
▁h im
it e
o in
at es
▁ 6
▁s he
l es
▁e v
il m
▁at t
as ed
▁n e
it ed
ab le
e nd
i ed
as e
am p
▁com m
or s
▁in ter
a re
ro ugh
o y
on s
oun t
e p
f orm
▁al l
os e
o od
an g
▁m ore
c es
▁w ork
▁ 7
a il
ol d
a w
er ed
ing s
v e
il d
▁A n
▁n ew
▁s ec
▁b et
▁whe n
in al
▁f e
▁f ilm
ic k
v i
ent s
▁S e
w ay
at t
f t
is s
a us
f er
▁ 8
g an
▁M ar
re at
ri b
▁con s
▁A r
ro und
ak e
▁re m
v ed
▁t r
▁d ec
as on
an s
▁d uring
▁ und
or th
ub l
▁ 9
h ip
▁ag ain
▁A s
▁m ost
▁g ame
ot h
▁the m
▁19 9
▁on ly
▁p r
at h
we en
i x
▁e ar
ol low
▁th an
o b
ro p
▁s up
ation al
f ore
▁N ew
▁ab out
▁pro du
u g
▁c ent
ter n
▁k n
▁re t
e y
▁ch ar
▁s ong
▁c an
ou th
▁bet ween
▁l ater
or n
▁re le
▁und er
ic t
▁th ree
h n
t on
▁c ol
r on
▁a ct
▁ 00
al s
▁ qu
▁th rough
▁E n
or ld
o ok
▁n um
▁s o
▁m e
▁a cc
▁re l
▁wh ile
▁ ra
▁e nd
mer ic
▁L e
le ct
▁A meric
▁f l
ter s
oc k
▁p os
r al
▁su b
e ver
ul ar
▁as s
at ing
▁whe re
▁ ver
▁d ay
c k
▁re g
▁sec ond
en er
a id
▁b u
▁C om
▁m ade
am es
is ion
iv ed
▁R e
▁p e
he s
▁rec ord
s on
▁de f
b um
▁f our
▁g ro
▁f ollow
▁se ason
▁00 0
▁e p
▁for m
▁s ome
▁su ch
▁a m
o ol
is hed
▁m ov
▁be fore
▁t ra
▁m us
▁S p
▁the re
▁w rit
he n
ic s
▁J o
i o
▁sp ec
i el
▁1 0
i ke
▁s y
▁year s
▁te am
▁A t
od e
u al
▁Th is
id ent
▁ /
▁l ar
▁al bum
▁S h
▁in d
ro s
il y
ow ever
▁ ent
n ing
▁us ed
▁c all
an k
▁s ur
if ic
▁a c
▁h igh
ur y
▁p ubl
▁be ing
▁ep is
ain ed
▁the n
l ed
t en
vel op
a j
▁d o
▁l oc
▁ex p
if e
r is
▁1 7
▁again st
▁in v
▁ 0
▁b l
▁p res
▁sh ow
ot her
▁num ber
▁A fter
▁char ac
i ous
▁se ver
▁ad d
▁c o
▁s et
e k
in ce
j ect
ar s
▁bec ame
▁re ce
▁B rit
aus e
▁le ad
▁per form
▁n o
▁includ ing
▁s ing
at her
in s
▁ —
in es
▁f ound
▁Un ited
ran s
a ir
▁w ell
al e
▁m on
▁re p
▁S c
▁p ol
▁b ack
▁b oth
i er
▁c ap
▁19 8
▁ser ies
▁1 5
▁1 2
o ber
r am
▁C on
i k
ow er
▁sh ip
em ent
it s
er t
i red
u res
le y
▁W h
▁S he
iv ers
▁m ain
p en
▁19 4
▁m in
i et
d er
over n
▁d id
v en
▁g o
▁c re
el f
ol og
▁im p
▁de velop
▁m et
a z
it ies
▁En g
▁l ong
iv er
an y
l l
is ed
er m
t ing
u ch
a red
an n
an e
ir d
▁e m
▁Jo hn
▁m ill
f ul
▁a ir
▁m at
▁epis ode
te nd
ire ct
▁s aid
▁st ud
▁man y
ut e
▁b ro
as h
at ive
▁de p
▁c ar
▁1 6
▁c ould
▁or ig
▁w ar
▁cont in
▁C l
▁sever al
▁Americ an
th ough
▁d if
▁I nd
iel d
a h
▁in st
▁p op
ou se
is e
em b
▁kn own
▁19 7
t y
u ally
▁19 6
▁A ust
▁1 1
▁con c
t il
i am
▁W ar
vi ew
ers on
▁o b
u ed
▁G er
▁s m
▁ret urn
▁an y
▁be gan
▁ Z
er n
▁comp le
▁des ign
▁D e
▁des c
▁s ign
op le
ch ool
ros s
m y
is m
o ot
▁ est
0 s
▁t rans
cc ess
▁pro v
ak ing
▁fe at
▁B l
id ed
▁in f
an c
▁r un
▁ear ly
▁ar t
iz ed
▁d ist
▁mus ic
▁o wn
▁n ear
▁rele ased
▁un til
▁call ed
▁e ff
▁C ol
im es
▁U S
r id
ist s
▁res p
un e
▁b el
en n
▁p ass
st em
u red
▁f in
ial ly
▁M ay
▁p h
ut ion
▁d own
▁dis c
ment s
▁c rit
os ed
x t
▁d irect
▁g ener
▁al ong
i um
▁in s
▁mill ion
g er
ul l
▁Brit ish
a x
▁gro up
▁off ic
v ent
▁Ger man
▁1 3
▁f am
e b
▁the se
aj or
▁m od
▁m ay
▁ $
ce pt
▁A d
▁o pen
an ge
▁m il
▁B e
▁p oin
u c
g g
▁l and
▁s im
▁his t
▁A ug
▁g overn
▁Se pt
▁su ccess
▁Sept ember
▁Aug ust
et s
▁A p
▁W orld
▁St ates
ib le
in k
er v
▁g u
▁o per
▁c ount
▁att ack
▁us e
▁s ame
y s
ward s
▁desc rib
▁pe ople
▁I s
▁F or
ac ed
▁charac ter
y p
am ed
▁bec ause
▁Al l
el s
▁v i
▁1 4
▁l ike
▁ser v
▁J u
▁F ran
g ed
▁a round
▁st art
▁th ough
▁ ed
▁19 5
▁P l
▁ Q
n er
▁w in
▁k m
▁con st
u es
r ing
▁to ok
▁o cc
ru ct
av ing
▁Aust ral
▁b att
▁O ct
▁an n
▁sup port
ov e
▁N ov
▁follow ing
▁s ix
▁n orth
▁e le
▁C ar
▁19 3
▁H owever
▁sy stem
▁app ear
us s
▁f inal
▁rece ived
▁cl ass
in ed
▁Oct ober
▁he ad
iv es
▁p rom
▁cons id
en e
ant s
r ad
l ing
il ity
ical ly
▁D ec
▁P ro
▁19 1
▁e ver
▁st ate
▁bu ild
re t
▁e ach
an u
▁ex t
▁f ive
r ist
▁a ut
ro l
▁Y ork
▁cent ury
in a
▁v ar
▁b o
▁w ill
▁are a
▁The y
at ely
▁sm all
g et
os s
▁part ic
▁l ife
▁N orth
iv ing
r il
▁re port
▁ ]
▁M e
▁ [
t le
ore d
▁B y
▁J une
ian s
ord ing
▁c ity
g in
▁m ar
p ed
▁K ing
▁m ajor
▁we ek
▁publ ic
▁Ju ly
▁ %
iss ion
▁con f
▁H ar
▁b and
ect ion
▁re f
m ed
▁Nov ember
in c
ur ch
▁re st
▁Com m
▁W ill
▁w orld
▁P h
▁m ed
▁s ince
es p
▁sing le
ra ft
ra ph
p or
▁Ap ril
b le
▁M c
ain s
ri ed
l ish
▁d et
▁Mar ch
om et
▁j ust
▁l ast
ect ed
ur al
. .
ion al
he st
▁E d
a im
▁t urn
iv ely
▁he l
il t
▁al low
▁p o
▁C an
c l
i ent
▁3 0
vi ous
▁G e
▁le ft
▁lar ge
▁l ine
at s
▁dif fer
al es
▁S outh
▁c are
▁s outh
▁ad v
if ied
▁D uring
▁. ..
▁d r
▁st r
▁b ook
▁ver s
em pt
▁s chool
▁s l
ag ue
▁Dec ember
▁th ird
av y
▁inc re
▁2 5
▁mon th
▁d ue
▁app ro
▁play ed
▁m uch
▁ev ent
ro w
▁P r
▁ if
ro te
▁an other
▁J anu
▁19 2
▁Janu ary
▁includ ed
▁wh at
▁pl ace
▁b ased
▁sh ort
n e
▁I I
on y
▁ex pl
▁govern ment
▁p erson
b all
▁w rote
▁W hen
▁tr ack
ap an
▁c amp
▁t it
▁o ld
▁E u
▁b re
al f
▁n ame
▁de ath
▁p ort
▁e lect
ent ly
p le
ren t
▁J apan
i ence
▁en g
▁w on
b y
▁O r
▁ch ild
▁pro t
▁l it
▁k ill
▁pro g
o ad
▁st ory
ide o
ag es
▁p ower
▁B ro
▁re view
▁T e
od y
▁v is
it al
▁h ome
ot t
▁l ed
p s
▁describ ed
en g
▁re qu
om an
▁pre vious
▁fam ily
▁g un
ra nd
t ain
▁w ay
y l
▁n amed
▁r ight
▁n ow
▁M us
▁d em
ur ther
i od
iv en
▁m en
il ar
▁ev en
▁m ake
emb ers
▁or gan
▁G u
re en
is ter
on t
c y
ivers ity
om in
▁att empt
▁b est
it ions
▁1 00
▁c our
▁re pl
iv ision
▁o pp
▁le g
ren ch
▁g ames
i or
ac hed
▁t erm
▁A nd
▁comm and
iv al
▁h and
▁F l
▁pos s
m p
▁' t
▁bel ie
▁d am
▁ver y
o x
▁H is
▁th ose
▁F eb
▁Eu rop
▁p ar
▁Feb ru
▁Febru ary
s h
▁is s
▁st ill
▁to p
▁ne xt
▁spec ies
▁Ch rist
▁eff ect
ri end
▁vi ew
c hed
▁The re
▁N ational
oc i
▁orig inal
ak en
▁W e
at ure
en ces
▁sp e
l u
▁w ater
n ess
▁add ition
▁j oin
▁B ar
▁Europ e
▁l ist
a u
▁per iod
▁with in
al k
▁m embers
▁m ark
et er
▁de b
▁he ld
▁bu ilt
▁F rench
▁ex per
h or
a f
▁A m
▁rele ase
▁P ar
▁l ate
▁al though
▁for mer
re w
▁mat ch
▁g reat
a ugh
rid ge
n ey
▁c ur
▁d est
▁s old
ut ed
▁201 0
tend ed
▁v ideo
▁2 1
ard s
▁c aus
▁W est
l ine
▁st orm
▁c over
▁ X
v es
ec h
▁in it
▁ro le
rop ical
▁t ri
▁Will iam
s elf
▁c ame
▁est ab
he l
▁H er
▁day s
an ces
▁res ult
▁m id
▁pres ent
n a
le v
▁cont rol
ag ed
pt ion
o on
ul ation
▁st and
▁re al
▁pol it
▁h owever
▁M in
it ary
as ter
h am
▁200 8
▁pro p
le t
en se
▁200 9
▁M an
at ic
id es
▁f ew
▁to wn
▁2 4
▁w ind
▁Ge or
om b
▁y ou
og raph
▁t w
▁s ide
▁s k
▁contin ued
▁of ten
▁e qu
▁p ost
▁E ar
ay s
▁loc al
▁201 1
el t
▁Ch ar
at or
▁am ong
▁A ir
▁sim ilar
ru ction
e ad
c hes
▁M ich
r act
▁h um
▁a v
▁cl aim
▁N o
es tern
om en
▁ &
un g
▁Eng land
re et
re ad
ak es
▁differ ent
s ide
es e
op s
▁m y
▁d el
l er
▁be h
▁R ec
olog y
p ar
▁t yp
▁2 2
▁f urther
▁s ent
es c
▁D av
ot s
est ed
▁le vel
ur s
▁f re
▁consid ered
▁t ake
▁l aw
er y
▁E l
▁to t
▁200 7
g y
▁care er
▁On e
ron t
▁produ ction
ar m
m e
▁h alf
ic es
▁P ark
▁C o
▁an t
. S
▁C ity
▁h aving
amp ions
b o
▁A cc
▁Eng lish
▁m ag
▁ro ad
▁e ast
▁mov ed
▁d ra
er ing
.S .
▁ever y
▁w est
▁with out
▁Al though
ro du
▁c r
▁C ent
▁app e
▁pl an
▁play er
▁201 2
in ing
▁pos ition
▁c or
▁bec ome
▁ar r
▁hist ory
▁vers ion
ver s
▁t ro
▁C al
f ord
▁An g
ond on
on es
▁c ast
▁C ount
▁ el
▁inf lu
iz e
▁ar m
▁2 3
▁L ondon
▁h ouse
y le
▁s ound
r ig
▁f ore
▁comm un
res ent
ir c
ap p
▁B att
▁g r
▁cl ub
▁su gg
ro y
a ul
at ter
▁str ong
▁inv ol
a i
▁writ ten
ain ing
▁19 0
▁W ith
▁b as
▁st at
▁l ess
oun g
ut es
▁ann oun
re st
▁f oot
▁R iver
i qu
al d
▁or der
▁re fer
iet y
im ent
▁U .S.
g es
▁pro f
c raft
▁Can ad
a e
▁a ff
▁poin t
se qu
▁t em
▁g iven
▁r ad
▁l ow
▁tr ad
▁h ig
▁w ant
▁G ener
▁Un iversity
il le
▁k e
▁g ave
▁p at
u ck
is c
▁im port
▁P ol
▁ne ver
a ff
▁Wh ile
▁ch ang
▁def e
or ies
▁s oc
▁return ed
r ation
▁A b
▁v ict
▁tot al
▁f act
▁H igh
▁g ood
ent ion
▁T r
▁comp any
▁f ire
ail ed
▁count ry
s p
▁w ent
is on
▁com b
c ess
▁f riend
our s
ric k
▁E x
▁cap t
▁publ ished
a un
▁produ ced
lev ision
▁f ind
ay ing
c on
▁report ed
▁orig in
▁S m
▁200 6
a ign
▁l ost
▁st ated
▁comm on
▁prog ram
ing ton
▁l ight
y n
▁partic ular
ap e
▁or d
ec hn
▁ad m
▁includ e
est s
▁Acc ording
▁lar g
ab ly
ur ric
▁comp et
▁ er
us ed
▁record ed
ie f
▁build ing
▁p ress
▁St e
▁ne ed
▁N e
▁b us
▁pro ject
h ing
▁for ces
um ent
▁n ort
▁2 7
▁ship s
▁sh ould
▁us ing
▁e ight
▁2 8
▁perform ance
in ess
▁S w
▁serv ice
b s
▁pop ular
▁ ide
pl oy
▁The se
▁t imes
▁5 0
os p
▁m aking
▁t en
▁air craft
▁him self
oy al
▁f un
▁aut hor
▁201 3
▁f ather
at ch
▁mil itary
▁Austral ia
▁S ec
▁an im
le ar
▁batt le
ampions hip
▁J ack
n ed
▁As s
▁s it
▁l im
▁song s
▁s omet
▁re ad
▁A f
ou ther
▁crit ic
ens ive
it her
ord s
▁develop ment
▁s w
▁h ow
▁g l
▁Gener al
al th
et h
▁s ol
it ive
ed er
as es
qu ad
▁2 6
▁4 0
▁St ate
ol l
▁C or
outher n
▁J ames
▁c ross
c er
▁18 9
am b
▁rep resent
▁S y
▁g round
▁dest roy
ac y
▁st ar
▁f t
▁rem ained
as tern
▁st e
k s
ri e
▁charac ters
▁Ar my
▁n ational
▁P res
▁g et
ri es
w ork
▁month s
▁su ff
▁g en
▁B o
▁d ied
a ur
▁t er
▁G l
▁Com p
ubl ic
▁develop ed
▁tit le
d om
▁s um
▁ch art
f ic
▁camp aign
re am
urric ane
▁for ce
▁Le ague
▁child ren
▁int rodu
land s
en cy
▁p ra
▁to ur
▁prom ot
it ted
ist ed
a el
▁s on
▁sign ific
▁re d
▁ac ross
▁a way
ress ion
her n
▁rel ations
▁ob s
▁hist or
▁f ield
▁offic ial
▁D ivision
▁f av
▁f elt
o le
le ge
▁Americ a
▁not ed
▁f ac
▁S im
▁n ight
al t
▁announ ced
m ost
▁re ached
▁R uss
▁inter n
▁S up
▁cre ated
▁Count y
▁are as
c om
▁R ep
▁M on
▁te levision
▁c oun
▁200 5
▁R oad
▁Japan ese
▁st ation
he m
ress ed
▁success ful
▁M ad
▁ro ck
im ately
▁v al
▁G r
▁Re g
is ing
▁var ious
▁ ’
▁b ar
▁St reet
▁polit ical
▁se en
▁follow ed
▁a ver
f ield
i ber
it ing
▁to o
▁2 9
▁r ank
et t
▁E ast
op e
▁perform ed
c ast
▁R ober
▁c ult
iz ation
▁ser ved
▁201 4
▁play ers
▁f ront
re g
▁re v
al ity
▁Geor ge
▁con d
▁f ull
▁pr im
▁dec l
▁bl ack
in ation
ell ing
▁be gin
du ct
▁f le
▁p ut
▁S er
▁c irc
▁con v
▁ear l
▁P er
ol ution
▁T o
▁H en
▁c ost
ab or
id ence
▁se e
▁pro cess
▁n on
▁d iv
▁st yle
y ing
▁l ook
▁Ph il
▁se ven
▁v ol
▁a ud
▁kill ed
▁E m
▁c y
▁hel p
ric t
▁le t
l ished
pl ay
▁through out
▁B ill
▁t aken
▁t ropical
▁ab le
an a
▁f ight
▁disc over
▁ag re
ec ut
ert ain
▁lit tle
▁w id
▁bec om
▁f em
▁a ge
ur g
▁signific ant
▁S ch
▁h it
▁me et
▁ ident
▁Th om
way s
ir l
▁t echn
▁spec ial
▁c op
o ice
▁writ ing
▁st ruct
▁Dav id
▁though t
▁estab lished
▁P art
▁bro ad
▁A ct
en ced
▁M or
▁m m
▁appe ared
▁do es
▁col l
▁ent ire
▁Austral ian
av al
c il
ep end
▁ !
▁y oung
▁co ast
▁poin ts
▁mil es
i us
▁b ody
▁a ward
l ess
▁imp ro
▁R ich
▁ro ute
▁m ember
od es
ough t
▁M ed
g round
ri pt
▁w omen
▁act iv
▁r ange
st er
as k
▁P e
iv il
▁Y ou
▁caus ed
▁start ed
▁dec ided
i ers
ble m
▁feat ures
lect ed
d ay
▁Af ric
▁gener al
▁p ain
▁Q u
▁event ually
at ors
ir on
i ec
in t
um b
m en
con om
op h
og n
u k
d en
▁R oyal
▁r ace
▁ar ch
▁v ot
he re
it ar
▁gro w
▁man ag
▁fe et
pp ed
ris on
▁to get
▁toget her
us h
▁add ed
▁H ist
▁H ouse
▁t re
▁h old
ber t
▁c ut
iv id
▁18 8
▁wh ite
▁on ce
▁n ov
amp le
am ent
▁form ed
▁ar g
▁loc ated
▁st ri
ree k
ur b
▁con n
▁mod ern
o ff
▁Bl ack
▁en c
▁inst ead
d le
▁P ort
he ad
rough t
ac es
▁ro und
▁ esc
▁3 1
▁b all
ar a
▁m ix
em y
▁In tern
e e
▁import ant
▁p ri
c ing
▁cre w
▁s aw
▁a ction
▁comple ted
▁re du
▁It al
▁play ing
ect s
▁Ind ian
id s
one y
c ent
r ated
▁O ther
ell s
▁200 4
at a
▁ins p
▁b ase
▁m ater
▁pop ulation
▁M y
▁m ot
▁sur v
▁Mich ael
▁v oc
▁as k
▁r ather
▁occ ur
▁open ed
▁st age
▁beh ind
▁other s
▁18 6
r ay
▁f all
▁re n
▁gun s
as ing
ce ed
▁bro ther
wo od
em ents
ign ed
▁com ment
l in
▁l ik
st it
▁b orn
▁f if
▁201 5
▁s ite
▁l ive
▁work s
▁l oss
▁Fran ce
▁b omb
▁work ed
fic ult
▁he avy
▁m iss
▁p red
▁S chool
med i
ra p
▁sub sequ
▁l ack
▁part y
▁pro blem
nd er
le ction
▁dif ficult
▁cl ose
▁W ash
▁const ruction
▁kn ow
▁N or
▁S ome
▁relations hip
▁h ost
▁week s
ist ic
▁S an
▁origin ally
▁se par
▁ass oci
ar ch
c o
▁up on
▁pr act
▁re b
▁Hen ry
▁lead ing
▁app oin
▁acc om
▁v ill
▁al most
▁m er
▁Rober t
ort s
▁pe ak
▁A le
▁in j
▁dam age
l ic
un k
▁sc ored
▁four th
os ition
▁in form
▁re ve
▁Mus ic
ap s
▁prov ided
▁B est
m ing
▁c ase
▁V ir
▁St ar
▁go al
▁cl os
▁Batt le
bo ard
▁eng ine
▁c reat
▁R ed
▁ac cept
▁m i
▁inv est
ic a
or ing
▁sc ene
ell ow
▁D esp
▁hum an
ang u
u le
in o
olog ical
▁b rought
▁5 00
▁f ree
▁ind ivid
▁18 7
▁P aul
▁feat ured
ul a
▁m other
▁Pres ident
▁R ou
▁k ing
▁le ast
am a
▁work ing
a ut
▁allow ed
▁l aun
▁res ul
▁M il
▁aver age
▁C ap
▁to wards
▁want ed
▁m ult
▁ind ust
▁trad ition
av es
▁reg ion
▁bus iness
▁Wash ington
▁H ol
id ing
az ine
▁A g
▁Q ue
▁v e
▁qu ick
▁tro ops
▁pl aced
▁e ither
▁c e
▁resp ect
v ing
▁off ice
▁crit ics
k y
▁B el
▁av ail
▁h on
ant ic
▁re ach
▁prof ess
▁ex ample
▁run s
▁mater ial
▁e conom
▁rec ogn
▁f ar
en ed
▁w ife
z e
g o
ear ch
ch ie
▁ne g
t o
▁est im
ent ial
▁ar my
▁f oc
r ight
▁Desp ite
▁se x
▁200 3
▁inter est
▁F ollow
▁C our
▁s our
eng th
▁gener ally
▁m ass
r .
▁join ed
▁d ou
▁ra il
quad ron
▁H am
▁pro per
ill s
▁Ang el
u ff
en es
▁cur rent
▁de v
our n
▁H all
▁C up
▁ev ents
▁belie ved
▁G ame
it ch
o f
▁partic ip
▁3 5
re y
b e
▁f ig
▁Follow ing
▁K e
v ille
▁F irst
▁M ary
▁ z
▁vict ory
▁repl aced
▁L ou
▁G reat
art ment
▁design ed
▁m ph
ict ion
▁g rad
▁J e
▁r ul
it te
▁so on
▁n omin
s c
▁is land
▁G ro
▁f und
x ic
▁L a
er ous
o or
▁h ours
▁Europe an
▁T wo
▁em ploy
▁pres ident
▁M al
▁ro om
ific ation
▁invol ved
al ed
u el
▁sur f
v al
ap er
▁fin ished
mer c
▁st ru
▁Ch ampionship
in n
in ist
as ion
w est
▁M art
in f
▁Pl ay
▁bre ak
r ac
▁R oman
▁h or
ra in
a ren
if f
▁s aying
ar n
em or
▁cour t
▁sh ot
▁th reat
▁B er
▁sc ore
▁open ing
▁reg ular
▁D an
B C
▁des p
▁direct or
▁l ength
▁M et
▁200 0
▁M ac
▁D on
▁ind ic
ad es
le g
c her
▁Sc ott
▁con duct
▁larg est
▁cont rib
▁tra vel
▁h om
ou l
k i
▁poss ible
ecut ive
▁ ill
ud e
n ow
▁min utes
▁high way
▁Rou te
▁s outhern
ish ing
▁d ro
▁C ro
▁h y
▁V al
ic le
▁hig hest
▁rem ov
▁F rom
▁earl ier
▁200 1
▁t est
▁At l
▁init ially
▁S ing
ag o
▁l y
▁avail able
▁particular ly
▁per cent
and er
ant ry
▁h ard
▁W il
ann ed
▁se qu
▁tra ining
▁Rep ublic
▁for ced
▁m ust
▁ex ist
p ly
▁M id
ip p
h ib
▁M ag
▁King dom
▁Char les
▁N avy
ograph y
as y
▁ °
▁p ark
ri an
b or
ate g
▁resp ons
▁No .
▁end ed
▁qu ar
▁Mc C
▁O ff
▁turn ed
▁w all
▁Thom as
▁ex c
▁soc ial
▁Intern ational
ut ure
▁B ut
▁stud io
▁P al
em s
if orn
▁R es
ra g
▁D ep
i os
▁ch ange
▁Wh ite
▁l angu
▁Vir gin
▁pra ised
▁pass ed
▁sup er
▁pr iv
r up
▁b ill
at ural
▁p iec
▁incre ased
▁ob ject
▁Bro wn
▁ed uc
▁h urricane
▁reg ard
▁nort hern
he ast
▁200 2
▁ke ep
▁ph ys
▁cent ral
ight s
▁Ch urch
it or
▁nov el
▁rel ig
▁Canad a
s el
▁spe ed
▁appear ance
▁Cal iforn
▁un its
▁p ast
re m
ers hip
▁R ock
▁S l
ke y
▁st op
▁ch urch
▁S en
end ed
▁c ou
▁im medi
▁B ay
u ter
▁sy m
st on
▁M o
▁Sm ith
oc r
▁dis p
▁me as
▁ord ered
augh ter
▁M er
▁t reat
iqu e
▁S am
▁t aking
fer ence
▁Rich ard
ry ing
itte e
▁ind epend
▁l ove
▁Ale x
▁sign ed
▁mov e
il ities
▁Californ ia
▁a chie
et work
▁bet ter
▁p ers
um p
▁Un ion
it z
ak er
▁G od
▁a p
▁G overn
ec ess
ar ily
▁in n
▁wind s
▁Is land
▁com merc
▁en ough
▁w at
▁pos itive
ear s
n el
um e
▁Cour t
▁acc ording
▁h ous
▁sp ent
ell ed
▁go ing
▁p ot
▁ab ove
▁B ra
▁s low
ank s
▁out side
▁film s
ap t
▁T om
▁V ict
▁U p
▁C ong
▁fe el
▁to ld
▁foot ball
m a
▁A ward
ber g
qu are
▁c lear
▁previous ly
u ation
▁qu est
▁st ates
▁record ing
▁me an
and ing
▁Ass oci
▁A c
▁n ine
he t
▁p ur
us ion
▁sub ject
▁Ar t
▁f ailed
at in
ow s
▁ass ist
▁com e
▁Comp any
▁requ ired
os ing
▁4 5
ren g
▁ele ments
▁pro b
v an
▁e y
id a
▁St ud
▁c ru
al ion
▁Ind ia
▁l ower
▁German y
▁review s
▁inter view
ed y
▁ph ot
▁part s
▁M ark
▁P eter
▁G old
▁its elf
▁Christ ian
▁s il
▁n ar
▁th ink
n es
ran ch
s hip
▁direct ed
▁ab s
is l
▁ esp
▁f low
ib ility
▁desp ite
▁c red
am er
▁cont ract
▁18 5
ok e
▁N Y
▁6 0
▁Th at
▁deb ut
▁ ?
▁T imes
▁ £
▁P at
er ved
▁acc ess
read y
le b
▁C ast
▁begin ning
o id
▁b i
▁group s
▁Col lege
▁vi ol
on na
▁H ill
▁s ection
▁U K
▁S ov
ab ility
hest er
▁wh ose
▁B r
as ons
▁claim ed
▁W estern
▁intern ational
▁ask ed
▁l ines
▁trans fer
▁pre vent
▁D em
▁st reng
▁sc reen
▁g ive
air s
▁c he
▁Sov iet
on se
rie f
▁un c
▁be g
▁k ey
▁addition al
▁f uture
▁F ilm
m ar
▁G rand
▁Me xic
▁le ague
▁wh om
▁Fran k
▁o p
▁D o
▁g old
▁Sp an
▁po or
▁B en
▁A wards
▁for t
ly ing
▁introdu ced
▁ev idence
▁d on
▁pre m
it es
on st
▁se a
▁ide a
e x
▁quick ly
▁c al
at ory
▁al ready
▁S oc
▁3 2
▁cent er
▁b ridge
▁fre qu
▁For ce
us p
▁M ost
▁ele ction
▁produ ct
▁occ up
ec k
▁p il
▁ex cept
▁C oun
b ack
un t
▁de al
ir th
e um
ec ially
▁p en
▁us ually
▁mus ical
▁em b
▁w estern
▁arr ived
ar ing
▁R ob
▁bl ock
e al
▁rad io
▁St .
▁Brit ain
▁c ivil
l iam
▁cy cl
er gy
ul ly
▁O ver
▁fem ale
▁somet imes
▁D ay
▁stud y
▁f ood
▁resp onse
▁dec ision
▁m oney
▁P ac
▁mag azine
▁esp ecially
▁H ot
▁iss ue
▁L ater
as c
liam ent
▁Vict or
▁I m
▁l ab
▁surf ace
▁ -
▁lit er
g en
r ack
▁fl ood
▁m ight
ain t
▁Ch ic
▁en v
▁T ra
▁gu itar
▁car ried
▁B ur
▁show s
▁commun ity
▁const ruct
en a
it er
▁estim ated
▁ar ran
▁rem ain
ar ies
▁M ill
▁199 9
▁rem aining
▁e astern
h a
▁min or
▁defe ated
▁det erm
▁R h
in ent
ess ion
▁Virgin ia
▁Ear ly
▁appro x
ig an
▁lar ger
ra w
ul f
▁becom ing
▁ra p
▁w ood
▁comple te
▁M ount
▁3 6
ra b
r or
▁pol ice
▁sugg ested
por ary
▁med ia
▁press ure
▁ent ered
▁sh oot
▁team s
ric s
▁L os
▁J ust
▁commerc ial
▁an al
▁In f
▁d oc
▁l atter
and s
N A
▁mark et
er ve
▁l o
▁consid er
▁stud ents
is es
▁sur round
▁invest ig
▁b rief
▁conc ern
▁person al
▁Sec ond
in ct
▁b ur
▁I f
▁Te x
▁c ertain
▁pr ison
▁ac qu
▁disc uss
▁F le
▁Jack son
▁effect s
▁comple t
▁h op
▁appoin ted
all ed
▁d er
▁sum mer
▁epis odes
▁Con t
▁pri or
eder al
inc ip
▁Fl or
▁s at
▁t ar
ch ange
▁e mer
▁st aff
ent h
ly mp
▁s ize
▁Lou is
ore s
▁chang es
ul ated
▁comm ission
s y
om m
t t
im ate
▁win ning
▁lim ited
▁sc enes
▁O lymp
▁r iver
▁fle et
▁le aving
▁destroy ed
is er
▁de g
▁dra w
▁p ay
I I
▁Cl ub
▁d en
▁r id
l o
qu e
▁Span ish
▁7 5
▁s elf
g a
s u
▁right s
ourn al
▁prov ide
▁writ er
i res
rig ade
▁pol ic
s en
▁typ e
id ents
▁f ail
ar i
ens ion
▁d ate
▁t rib
▁ter rit
om s
▁K h
▁g irl
▁prop osed
r d
▁influ ence
t ies
▁G reen
▁Part y
▁over all
▁t ax
▁18 4
▁k il
▁trans port
▁struct ure
▁T er
▁cont ro
▁equ ip
▁D u
▁3 00
▁d ivision
▁sc ript
▁b r
ir al
ines e
▁Associ ation
▁agre ed
▁ant i
▁in tended
▁P ri
▁j ud
▁b ow
▁Ed ward
▁8 0
▁run ning
if t
end ing
ic les
▁Chic ago
▁d aughter
▁b ig
▁broad cast
▁p urch
▁near ly
▁support ed
▁M any
at ives
A F
▁Ad m
▁de ep
▁d i
▁res earch
▁w ide
im um
▁estab lish
▁R o
▁hel ped
▁mar ried
▁199 8
▁mov ement
▁Ch inese
▁award ed
▁mult ip
▁S ong
▁I r
▁Coun cil
il i
▁O per
il es
at ively
ac ing
ir m
▁cre ate
▁fav or
▁int ens
▁dis s
▁b ird
▁S al
▁En ter
▁d ark
▁s usp
p ris
om er
n y
te en
▁st ars
c he
▁long er
▁langu age
▁hig her
▁c at
▁E v
▁pl anned
m on
▁comp ared
▁capt ured
▁incre asing
▁f ans
▁A .
▁conc lud
▁cour se
u z
▁chang ed
▁S erv
▁Sup er
▁E mp
▁John son
▁3 3
ound s
▁exper ience
▁approx imately
▁rel ated
sel ves
▁d one
▁feat ure
▁fif th
▁l iving
ent y
▁K ore
▁them selves
ab it
▁Hist ory
▁produ cer
b ers
it t
t ained
a rent
▁tem per
▁sp ace
▁track s
▁most ly
▁Pac ific
is ions
▁with d
s s
▁In ter
▁B ack
ut h
an ced
ol ic
▁Bill board
i j
▁th us
▁A pp
▁B et
▁N ot
c an
▁w oman
▁de ad
um n
▁M ont
▁oper ations
▁im m
▁rem ains
▁sy n
▁b ring
▁quar ter
th ing
▁o ur
▁n atural
▁whe ther
im in
v in
▁ ult
oin t
▁con cept
▁we ap
▁d ram
▁F inal
▁Sc ot
and ed
▁prob ably
▁sold iers
▁r an
r ast
▁cop ies
▁S un
b our
▁build ings
▁lead er
▁v oice
▁199 7
▁f ace
▁b oy
▁ex tended
▁S ince
▁ly rics
▁for ward
▁dep art
▁K n
▁comple x
▁bo ard
▁Atl antic
▁re act
ir ing
▁batt les
ve y
▁iss ued
▁he av
▁ch all
ri age
g ing
▁re ally
▁count ries
osp ital
▁3 7
r ate
▁suff ered
▁L ake
▁Cong ress
▁c m
▁L ove
▁F ort
▁Fran c
▁go als
▁Flor ida
ur t
▁Se ver
▁includ es
▁immedi ately
▁met h
▁B oth
▁at tend
▁B ig
h ood
▁bre ed
▁cap ital
▁manag er
▁7 0
▁mix ed
▁priv ate
i ant
▁J im
▁J ew
▁offic ers
▁lik ely
▁O ld
▁can n
▁dist rib
h old
▁An t
i en
▁m ach
▁Que en
d e
b ury
▁remov ed
▁Tex as
▁pl ant
▁init ial
▁ce leb
▁Se a
▁incre ase
ven ue
▁T own
▁he alth
▁subsequ ently
▁D ist
▁le ave
▁pl ans
ri a
▁al ways
▁foc us
▁c oin
▁L aw
▁n etwork
ect ions
▁serv ices
▁m ount
▁v ia
▁stat us
▁comp an
▁T rans
▁T or
ri al
▁P et
▁Ch ina
▁vis it
▁loc ation
ord er
am s
▁An other
i ation
▁fl ag
▁problem s
▁L ord
▁C amp
▁H ow
▁Ear th
▁off ered
▁inst r
w ell
ous ly
ail y
▁mod el
▁term s
▁n orm
et ic
▁m ur
▁Con st
▁col on
▁appro ach
▁somet hing
▁vill age
▁adm inist
▁t ons
▁f ell
oun ted
▁W ood
w er
▁B oy
ct or
▁O l
▁t or
iron ment
▁s ch
▁major ity
▁T ur
▁profess ional
orn ing
▁coun ter
▁18 3
▁Canad ian
▁I ts
ad ium
▁R ail
▁g ot
ib r
▁Afric a
▁c ause
▁M ur
▁cons ist
b urg
ac hes
ur ies
▁inter s
▁dam aged
▁meet ing
▁G re
▁j ob
▁appear s
▁ad op
▁min ute
▁rank ed
ol k
▁l ay
▁Cent er
u f
▁individ ual
o es
▁comp osed
ce an
▁reve aled
▁S quadron
▁High way
if y
▁an g
st e
▁fl ight
▁attack s
▁Russ ian
it ect
▁pl ot
▁discover ed
▁ra ised
l or
re ak
um ed
▁fin anc
▁R ad
▁M el
▁respect ively
▁m akes
p an
▁K ent
▁Car ol
▁Mart in
▁Cent ral
▁S ir
▁num erous
▁II I
▁199 5
▁associ ated
▁al tern
g ar
▁t akes
▁Angel es
▁d omin
▁need ed
▁insp ired
▁B ow
▁an c
▁l ived
▁3 4
o e
a ult
▁g rand
▁laun ched
▁y et
ri ption
▁c and
▁n ature
▁p ow
▁am b
▁d ig
▁co ach
▁occur red
▁cont ains
▁D V
▁ve h
est ival
▁b ene
▁sh own
▁attempt ed
u als
▁attack ed
▁D es
um ents
▁mov ing
▁cond itions
▁up per
▁h our
▁T V
k a
i est
d own
im b
k en
▁s ales
▁g ra
ect ive
▁3 8
▁Gro up
▁M iss
j oy
▁Y ear
▁col lect
▁201 6
▁D el
augh t
▁T our
▁199 6
or ce
▁iss ues
▁b irth
▁Re v
▁who le
▁ i
▁s al
iz ing
▁ex am
▁c er
▁inform ation
▁y ards
▁f arm
▁sl ight
▁Emp ire
▁O ut
▁bo x
ur ity
▁m om
w in
ver t
▁refer red
u ing
▁crit ical
o ly
▁19 th
▁inc or
re me
▁U nder
▁P enn
▁G ar
▁num bers
▁fin ally
▁small er
▁elect ed
▁se lected
▁defe at
▁resul ted
▁s en
▁sc ient
▁st ay
▁b ad
▁gr ant
▁qu al
▁act ive
▁pr incip
▁sing er
k in
▁stand ard
▁sec ret
▁p it
it ation
▁Ital ian
u ated
▁m ission
▁indust ry
▁9 0
▁199 4
en ant
▁larg ely
▁en s
▁oper ation
▁s em
and on
▁J ose
▁pre c
▁l ink
ort un
on ic
ou ra
▁ass igned
us e
▁s af
▁leg isl
▁ear ned
▁th r
▁comment ed
it ude
▁J .
▁m ale
▁exp ected
▁DV D
▁Cor ps
il ed
▁D is
▁ro y
▁aud ience
▁list ed
▁sugg est
▁g re
ou d
▁C rit
▁Ar m
▁cover ed
▁pur p
▁un able
ire ction
▁sc hed
▁he art
▁tradition al
▁C r
▁educ ation
▁tr ade
g r
▁art ist
▁new sp
y a
▁dou ble
▁friend s
▁cl osed
▁V iet
▁under st
▁ref used
▁a w
ag on
▁rec over
▁att ention
oun ts
▁meth od
▁prim ary
igh ter
▁s ister
og ue
▁k ind
▁t alk
▁Mich igan
▁P re
ter ed
▁re ason
ff ic
▁offic er
▁pl at
▁bel ow
▁cont em
hip s
▁W ales
▁en joy
▁ab ility
▁dep ression
▁me ant
▁M ass
▁perform ances
▁decl ared
o o
▁w alk
▁N ort
▁4 9
▁bl ood
is her
▁M ore
▁g iving
▁C ath
▁let ter
▁comp l
▁w ord
und red
pl es
▁fight ing
▁18 0
▁mid dle
▁C le
▁command er
▁relig ious
▁book s
▁the at
▁m ax
▁h ot
▁set t
▁r ate
▁O x
▁Ar ch
▁St ep
▁L ong
▁record s
il s
▁mat ches
▁const it
▁Ac ad
▁n ames
on a
ap ed
▁B ec
▁T est
▁Dem ocr
▁produ ce
▁quest ion
▁F er
▁C are
ant asy
▁compet ition
ut ch
▁cent re
▁ser ious
▁un it
u x
▁Te am
od ies
▁dis app
▁to uch
▁voc als
im s
▁Min ister
ir t
▁Sever al
i ences
▁m ention
▁Z eal
os h
ound ed
▁199 2
▁ ri
▁M ajor
ect or
▁C ons
▁4 1
▁acc ount
▁doc ument
▁ab andon
▁W al
ro ad
ic ted
▁rap id
▁en ergy
▁n ecess
a res
▁m or
qu ar
▁kil omet
▁K enn
erv ation
ech an
▁F ore
▁d ut
▁construct ed
en ing
▁them e
▁r is
ru g
os es
▁1 st
ri er
▁F ox
▁S um
▁T ime
et te
▁roy al
▁p ick
ish op
▁st ra
▁near by
▁high ly
▁separ ate
▁Zeal and
y r
▁E r
▁contin ue
vent ion
▁pre p
▁S o
▁ch ief
▁dr um
ail s
▁eff ort
▁c as
▁present ed
ed ic
▁H aw
▁t ur
▁S ar
▁comb at
▁Mexic o
op er
▁pos itions
▁Afric an
▁redu ced
▁ann ual
▁B u
et her
▁4 00
ib ly
▁contro vers
▁Ch ris
▁M att
▁direct ly
ie ut
▁M a
▁F our
▁level s
c el
▁me ans
▁c le
▁ne igh
▁W all
▁not es
▁at tended
▁se vent
▁pract ice
▁t ried
sh ire
▁comp os
▁fore st
u it
emor ial
▁5 5
▁f ast
▁h ar
▁n uc
▁ed ition
▁tra in
▁L it
▁B rad
▁D ar
ac her
ad o
▁Ch art
▁T re
▁B ob
aren ts
▁tw enty
v ement
▁met al
▁199 3
▁Mad onna
▁accept ed
os en
▁w atch
▁20 th
▁st ating
▁199 1
▁mov ie
▁arch itect
▁te xt
r ical
▁H el
▁rep e
▁cand id
is ation
t rack
▁conc ert
▁Scot land
▁adv ance
stit ute
▁17 9
▁p air
▁J ones
▁port ray
▁d irection
ir med
h ouse
▁f r
ers ey
▁se em
▁dis m
▁The ir
▁school s
▁leg al
▁An n
an i
▁re ject
ew ay
l ict
in em
i h
w ide
▁as p
▁M anc
ic ip
f all
▁g e
▁hor se
▁C ross
▁th ick
▁mar riage
ill ery
▁ +
ag ing
▁rec omm
▁G reek
▁Dep artment
l ight
▁eff orts
▁man aged
▁col lege
▁D ou
a wn
▁3 9
▁p urs
l ike
ic ient
▁G o
▁w ing
ut ions
h y
▁result ing
▁end ing
ir it
ieut enant
▁Th ree
b and
▁show ed
▁dro pped
▁respons ible
▁M ic
▁P ost
M S
▁Inf antry
▁18 2
▁n ation
▁dis play
▁ins ide
ill ed
▁F oot
it a
▁c ases
▁ke pt
▁c ust
▁env ironment
▁L ad
▁B ost
▁4 8
▁cult ure
▁ra re
▁mean ing
▁r at
▁Le g
▁cycl one
ol f
▁d om
▁incor por
▁beg ins
▁4 2
▁var iety
ceed ed
▁m orning
p e
▁sub st
▁cer em
p ass
▁hous es
▁St one
▁form s
▁ch ampionship
▁Serv ice
▁w ords
ran e
▁ar rest
▁sch ol
▁C reek
▁y ard
per or
▁William s
▁H ung
▁o il
▁B .
▁Rec ords
▁Sec ret
▁mark ed
▁inc hes
ce nd
▁contin ues
▁sp l
in i
▁sc ience
▁B C
▁per m
▁18 1
▁sym b
g l
▁New s
gy pt
ect ing
ol s
▁b ank
▁H al
▁St an
▁Par liament
▁us es
▁econom ic
▁S ur
w rit
c le
▁sour ce
▁G ames
t hel
b ed
r as
▁F in
▁T ro
▁qu ality
▁def end
▁P an
▁T ri
ul ations
▁le ar
▁h undred
▁C .
▁set tle
▁imp act
▁start ing
▁conduct ed
▁B ook
th ur
▁spec ific
w h
▁stru gg
▁allow ing
▁E gypt
▁D r
▁Soc iety
▁be at
▁194 2
▁pres ence
▁S ol
▁am ount
▁d u
▁J er
▁s ides
▁O h
▁view ers
▁cap tain
sy ch
e en
▁d ance
▁met res
ing u
▁ch ap
▁un ivers
▁sup pl
▁L u
▁ex hib
▁r ule
▁p le
▁Pr ince
▁S outhern
▁V er
▁Step hen
▁dist inct
▁multip le
▁Geor g
▁S at
d ing
▁transfer red
▁pot ential
▁Comm ittee
▁fore ign
▁4 7
▁L atin
▁cont rast
▁Ox ford
▁6 5
▁peak ed
in et
it iz
▁en emy
▁y our
ar ian
▁S il
▁tra ffic
▁becom es
▁m ess
▁Sp ec
p ing
▁D .
▁own ed
▁th ings
▁found ed
▁gre ater
▁Jose ph
▁L ike
▁voc al
▁Adm iral
▁o pt
▁conclud ed
▁port ion
ver y
▁cast le
▁sc oring
▁C amb
id er
▁resp ond
y m
▁st ories
▁proper ty
ian ce
▁attempt s
▁enc oun
▁Bost on
r ong
an es
▁rel atively
k n
▁T w
▁Ch ief
▁Manc hester
▁prim arily
▁dem onst
▁Har rison
▁Je ff
▁financ ial
▁f ederal
og rap
▁Cl ass
ress ive
ell ig
▁F orm
▁Cap tain
▁Bec ause
▁Be fore
▁act ually
▁anim als
▁Sw ed
▁obs erved
▁H urricane
▁to urn
▁l if
▁W in
▁col lection
▁T im
▁opp ortun
f ect
▁Viet n
▁B at
▁tit led
▁5 2
▁D en
▁feat uring
ist ics
▁writ ers
▁4 6
▁writ e
▁194 4
▁De f
▁j ournal
ed s
▁w a
▁B ridge
e es
▁F red
▁streng th
▁w or
um ber
▁in ch
▁m echan
▁we aken
▁sit uation
▁O tt
▁sp ot
▁p aid
▁dist ance
▁prem i
▁p arents
▁Comm ission
▁independ ent
▁Batt alion
▁fig ure
▁sh are
m as
re l
▁m el
▁act or
▁6 4
▁act ing
▁compan ies
▁div ided
▁Lit tle
▁Par is
▁m ind
▁4 3
ste in
▁on to
▁Pro du
ast ic
▁L uc
▁coll abor
▁L ife
▁Col umb
▁Car l
▁tar get
ann a
▁slight ly
▁fun ction
▁piec e
▁Ser ies
▁re form
▁M od
▁s elling
▁4 4
per ial
▁Enter tain
a ud
rick et
▁power ful
▁G ra
▁tor ped
▁conc ent
c hest
▁inn ings
▁r ating
▁M ax
th let
or ation
▁B BC
▁play s
ist ry
▁ro ugh
▁l ot
▁to day
l am
▁bro ke
u ge
▁ch o
▁er a
os aur
▁P op
ann el
▁199 0
▁Cro at
▁act ions
▁wat ers
▁ult imately
▁O s
▁Hist or
▁tri al
▁s quare
▁max imum
ro wn
ad a
▁dis e
▁te nd
it an
▁pil ot
l oad
▁b ound
▁l og
ill a
▁inter p
rup t
▁complet ely
▁Acad emy
▁bl ue
und er
▁s ought
▁g ar
ot i
▁194 5
▁S .
m ond
▁' m
▁sc ale
m ark
▁soc iety
▁L ine
▁ ess
▁beh av
▁h us
▁Mus eum
▁S aint
▁main ly
▁S k
ot a
al le
▁design ated
▁194 1
z a
▁H or
om y
▁con ver
▁official s
▁V an
▁stru ck
▁trans l
c ers
▁15 0
yl van
▁activ ity
▁polic y
▁comb ined
▁s ay
▁W ay
▁influ enced
▁w ear
ol ved
▁c orn
ian o
▁se arch
A S
▁Entertain ment
▁A rab
▁v ess
▁Ital y
ent ed
▁th ous
▁call ing
rac ted
▁along side
▁nort heast
▁second s
▁b atter
al a
▁B rigade
▁s out
▁W ind
ors es
wh ile
▁Americ ans
▁win ter
▁Con f
▁sour ces
▁Le e
▁se g
▁back ground
ph y
▁I re
▁we bs
ain e
▁ ice
▁new s
ud d
▁th ir
▁T od
▁the ory
r ative
▁rec ent
▁Al b
▁su c
T V
▁m em
▁c row
▁g ained
▁nomin ated
▁plat form
H L
on n
▁art ists
ad el
▁Reg iment
▁wid ely
▁n aval
quar ters
▁system s
▁promot ed
▁elect ric
▁conf irmed
ub e
▁Ire land
p son
▁reach ing
▁pro ved
▁resul ts
▁A venue
▁pass ing
ibr ary
▁Fle et
▁album s
▁G ood
▁E ll
▁expl ained
▁subsequ ent
▁conf lict
▁great est
er o
▁2 nd
▁w ick
▁cont ent
▁inv asion
▁ ir
▁s n
▁A ut
▁R ay
▁198 9
▁com ing
▁char ge
▁he ro
▁pe ace
▁res ist
▁six th
he w
▁north west
▁we ather
ou red
▁count y
▁ad j
▁Or ig
▁short ly
g rad
▁194 3
t own
ag a
▁B us
▁vers ions
▁S ub
▁p ath
al ing
▁ser ve
▁caus ing
▁s ays
▁su st
▁L o
▁5 1
▁exp ressed
ic ed
▁rece ption
▁se ek
▁Victor ia
▁S ant
▁b urn
it ness
▁Cath olic
▁res idents
▁em ot
b on
▁b order
▁N orm
▁Char l
▁T ropical
▁W ork
▁c hem
▁sound track
ans ion
▁Val ley
▁c ities
▁Ad d
▁M at
ip s
▁g reen
▁se asons
▁M .
t ation
▁N in
ateg ory
▁appear ances
▁s ense
▁D i
▁L ight
▁sex ual
▁h ospital
▁requ ire
A A
▁D r.
inf all
▁Mid dle
▁p un
▁phys ical
▁ident ified
▁old er
igh th
▁hand s
▁L ive
ard en
▁ iron
▁R am
▁D un
▁Th ough
▁tr ue
▁t ells
▁off er
▁L iber
▁d edic
▁' re
▁k g
▁R y
un ction
▁Comm un
ys is
▁art illery
anc y
▁Sh ow
▁represent ed
▁T op
▁weap ons
▁V ol
▁ext ra
▁g as
▁Foot ball
▁a head
▁Th rough
e ption
▁p al
ad ed
▁M en
ron ic
ylvan ia
▁e as
▁K ar
▁J ul
▁heav ily
▁B ey
▁Up on
▁Y oung
▁sup p
▁D irect
ab eth
▁198 0s
it able
▁T ay
▁194 0
▁av oid
▁D utch
l ers
▁def ense
▁chall en
▁stud ent
▁ag g
▁We ek
▁al one
▁im age
▁sp read
▁app arent
▁stud ies
▁offic ially
▁El iz
▁hus band
kn own
▁dist rict
▁I ll
▁ex ecutive
▁b it
▁inst it
▁Al bert
▁F re
b ur
ess ions
▁deb uted
▁w ild
▁prom inent
▁capt ure
▁p ack
▁se nd
▁cons isted
▁instr ument
▁inj ury
▁f ired
▁organ ization
▁equip ment
▁R og
port s
▁res c
▁st one
p ool
▁pat tern
▁F ar
▁pre par
▁B re
▁arg ued
▁D am
▁a ired
▁fig ures
▁B ond
▁sur pris
▁exp ed
urb an
▁grow th
▁e th
▁p ict
ac ity
▁C ivil
▁H omer
▁b ud
▁h un
▁cou ple
▁g raph
▁do ing
▁return ing
▁mag n
▁r ing
▁contem porary
us hed
▁po et
▁c ert
l ines
ro g
▁p an
▁we ight
▁197 0s
▁o x
▁l aid
▁dou b
▁h abit
▁ear th
▁lead ers
▁st ep
▁fl oor
▁mat ter
▁aff ected
▁Nort hern
▁G al
▁piec es
▁t un
▁6 00
ap pen
am ber
▁prop os
▁St orm
i as
▁main tained
▁196 0s
in son
▁r ang
▁occ asion
▁she ll
▁H ard
▁he re
if ying
▁vis ited
▁H a
▁main tain
ent al
▁commun ic
▁Dan iel
▁com es
▁spe ech
▁term in
▁critic ized
em ic
▁hy d
▁activ ities
st one
▁ra in
r at
▁J on
▁Carol ina
oc key
▁ex ec
▁att ract
ac ement
▁h all
ol a
▁c itiz
▁tourn ament
▁re ign
▁em ph
▁to ward
ock ed
▁sing les
ul s
▁d rug
▁tre es
e ed
▁refer ence
n ers
▁Scott ish
▁crow d
▁T em
▁sen ior
▁form ation
el ve
▁5 3
▁ad apt
▁198 7
▁sur re
▁R om
▁Mar sh
▁set ting
▁med ical
iv ity
▁world wide
▁Sy stem
▁territ ory
▁t rying
▁Govern ment
est ic
▁Hol ly
▁198 8
u ct
▁app l
▁st ations
orn e
ru it
▁d og
▁b ul
▁neg oti
▁bird s
▁W rit
▁F antasy
▁g od
▁O cean
g ian
▁Oper ation
ell er
▁d oll
▁Back ground
▁F ield
▁mach ine
▁f ellow
▁Govern or
▁mur der
emb ly
▁R od
▁claim s
▁Dist rict
▁H ome
▁c ell
▁dis pl
▁8 5
▁De v
▁histor ian
▁Gu ard
▁ra infall
▁ris k
▁C he
om ers
▁acc ident
▁Penn s
▁f ully
▁Col on
▁l oad
ul ed
▁val ue
▁there fore
ot e
▁spl it
b it
res h
▁Du ke
▁ch osen
▁treat ment
▁un iversity
▁gu est
▁Sh ort
velop ment
ra el
▁s ens
▁tw ice
▁Stud ios
▁frequ ently
▁G irl
▁sup ply
ag n
▁Pol ish
▁L ew
▁report s
ord in
stit ution
▁le aves
▁Be at
▁govern or
il ly
ay er
▁p aper
g u
▁ ut
▁Sen ate
▁rem ark
al y
▁H .
▁d yn
amp ion
▁E astern
led ge
▁lab el
iz es
▁f aced
▁M D
az z
▁op in
▁wall s
▁follow s
▁C orn
▁bill ion
▁oper ated
▁B art
▁g rew
ant ine
▁R os
uf act
▁surround ing
▁plan et
▁Me an
▁s we
re ct
▁And rew
or ter
ant ly
▁cont ained
on ents
ge nd
▁cond ition
res p
▁deg ree
▁b al
▁her self
▁h orses
m in
▁man ufact
▁Christ mas
▁N ight
et y
▁col or
isc o
▁J ud
▁s le
▁accom pan
▁w ounded
ran ce
▁typ ically
▁esc ape
▁All ied
▁5 4
▁pass es
▁un f
▁m aster
▁sim ply
▁Wil son
▁bro wn
▁f uel
is ters
▁re inf
ut ation
▁rail way
▁In st
▁ele ment
▁d raft
▁d ang
▁Tay lor
am ing
▁ed itor
▁l ives
l a
▁198 6
▁ord ers
▁arm s
▁Eliz abeth
▁ph il
ful ly
m it
m ore
▁serv ing
▁not hing
ograp her
▁c amer
▁H um
▁Alex ander
u ous
▁author ity
▁ch ose
▁M ike
▁opp osed
▁work ers
▁vot e
▁mom ent
▁G i
▁cons ecutive
▁cann ot
ric ult
▁P en
▁E ach
▁new ly
▁9 5
▁Jo e
t ar
▁O f
▁n ative
▁J ac
▁5 6
▁f an
▁exper iment
uck y
▁un known
▁9 7
is f
▁particip ated
ag er
r ich
▁grow ing
▁P ers
▁webs ite
▁cas ual
▁emph as
▁p sych
▁att rib
anc ing
▁D et
▁produ cers
▁b ass
e f
▁newsp aper
▁f air
▁Cast le
▁bene f
▁l osing
▁Ex p
▁F estival
▁L and
▁adv anced
▁adop ted
il ies
▁film ing
im ens
▁S ound
▁he ard
▁sp irit
▁fe ed
▁sever e
▁Penns ylvania
pt on
▁off ensive
▁f irm
▁opp osition
t hen
▁f iction
yp e
▁R et
▁ex tend
▁Wh at
▁gu ard
▁W at
▁cap acity
▁ rom
▁He ad
ors hip
▁Is lands
▁bas is
▁coun cil
▁sequ ence
▁act ors
▁C ard
▁W W
z y
▁end s
▁17 7
▁a st
▁Rec eption
▁H y
T C
and a
▁we ak
▁s quadron
us es
▁G all
▁Bl ue
▁pr in
▁comp ar
▁adv ant
▁re ar
▁abandon ed
ur a
av en
▁Ir ish
▁F urther
▁r ival
is ers
▁T ech
▁S S
ab les
i ated
▁prom pt
▁B ab
▁k ick
▁hon or
▁f lying
le ment
▁ele v
▁ent er
▁co al
▁M r.
▁be y
▁creat ing
oc ated
▁F am
▁J ersey
on c
▁Sp ain
▁laun ch
▁film ed
▁Har ry
▁pol l
B A
▁regard ed
▁h appen
▁norm al
▁exp ansion
▁P .
▁critic ism
▁individ uals
▁hom es
▁199 0s
▁C at
▁agre ement
▁bey ond
el d
oun ger
▁U s
▁inc ident
▁17 8
▁sp ect
▁7 6
F A
▁sp ring
▁S quare
▁del ay
▁fail ure
ap ers
▁C a
▁l iber
▁Co ast
▁ev ac
▁de ploy
▁ey e
▁dism iss
▁ch air
▁sp orts
▁L ind
▁fam ous
in er
▁in te
▁v o
▁s ail
▁F e
▁meas ure
▁193 9
▁A re
▁S and
▁poss ibly
▁bo at
im et
▁histor ical
▁neg ative
▁R .
▁b odies
▁C D
im a
▁' ve
▁U l
▁achie ved
▁m ob
▁cont act
▁B ul
▁W ild
▁prog ress
▁stri ke
▁sil ver
ific ations
▁belie ve
ic o
▁M ul
▁P ublic
▁E nd
▁E lect
▁ro les
▁Bro ad
▁ ur
in y
▁Produ ction
▁nar row
▁C y
▁kill ing
▁V en
▁ret ired
▁ide as
▁In stitute
▁L y
▁Is rael
i enced
▁dr ive
on ent
▁dise ase
m osp
ian a
h ol
▁p et
▁torped o
w ar
▁im ag
▁brief ly
k ins
▁6 1
▁d iam
▁Ar thur
▁L iver
▁Rev olution
im al
▁D ue
▁196 8
▁198 5
▁t ask
▁effect ive
▁t ree
▁ar med
▁app lic
▁arran g
ed om
▁to wer
▁As h
▁6 6
▁C ub
▁bud get
▁per man
▁rece ive
▁repe ated
▁administ ration
▁grant ed
▁necess ary
▁person nel
▁road s
▁S und
ock s
▁reject ed
▁Mean while
en ger
▁t able
▁P erson
▁Republic an
▁tw elve
▁Cl ark
▁kilomet res
▁in h
▁Do ctor
▁gro ss
▁impro ved
▁lead ership
k es
▁Al bum
▁col umn
w orth
▁inter change
▁y ellow
aval ry
▁ext ensive
av ed
▁d ata
▁197 0
▁M ir
▁Oh io
▁T y
im ents
our ney
▁stra ight
▁turn s
▁land s
▁pl ants
▁inf antry
▁purp ose
z il
▁par alle
▁L es
▁manag ement
▁B ell
▁exp ress
▁def in
▁Bo ard
i ć
▁se at
▁land ing
o ch
ol n
▁describ es
▁exp anded
▁Secret ary
▁sol o
▁f ranch
om a
▁ch oice
▁successful ly
l usion
▁m ile
▁bro ken
adel ph
▁le arn
s et
▁t ru
▁cross ing
▁did n
▁int ellig
▁anim al
u ate
▁198 4
▁del iver
▁S a
▁E p
▁expl os
▁Phil adelph
▁f ought
g ers
▁ch or
▁ex cl
▁Pro t
▁B ru
▁R A
▁organ ized
▁c aught
▁E .
▁8 00
er c
▁veh icles
▁commission ed
▁sugg ests
▁B urn
▁ro of
▁gl ob
▁E ven
▁acqu ired
h aps
st ream
et ball
▁pl aces
▁comm ittee
▁N ever
ri f
▁anc ient
▁dram a
e v
▁I S
▁H it
▁Georg ia
▁cre ation
▁S her
▁M ov
▁Camb ridge
▁typ es
▁f at
app y
▁5 7
▁g ives
▁L ar
▁Philadelph ia
▁art icle
▁com edy
▁sevent h
▁pre fer
▁nuc lear
ak ers
▁so ft
z er
▁un su
▁w ave
i i
m s
▁12 0
a ith
et ts
▁S R
▁W .
▁author ities
▁cont ain
▁head quarters
▁R el
▁Al so
▁196 7
▁cent uries
▁common ly
▁determ ined
r in
▁is lands
▁gen us
n s
▁ro ll
▁Add ition
▁mention ed
att le
▁Russ ia
▁M ah
▁b ott
▁rec ently
▁st reet
▁tra v
ot ed
um es
▁W ars
▁be aut
▁enc oura
▁look ing
▁G il
▁control led
am in
▁fav our
ip l
rest ling
u an
▁Comm on
▁198 0
art s
ol es
▁Ar g
▁set s
▁fam ilies
▁Am ong
▁house hold
▁sec urity
▁Liver pool
▁a im
▁find s
▁6 2
▁ad vert
▁s and
▁dec re
▁Nin tend
▁d rop
▁sup por
▁ac ad
▁stand ing
v a
▁l a
▁ill ust
is hes
▁L inc
▁un p
ut ing
▁Nintend o
out s
g n
▁Ch ap
▁sing ing
▁withd raw
▁K a
▁Ear l
▁f ish
▁H ay
▁d ial
▁v en
▁batt alion
▁ref lect
▁J enn
▁Pr ime
▁Columb ia
▁s ac
▁B ad
▁un ique
it led
▁dec k
▁he ight
▁cont aining
▁cult ural
▁entire ly
▁or chest
▁prot ect
w ater
▁fin ish
▁Linc oln
o h
▁touch down
▁m ist
▁Sing ap
ill ing
▁contrib uted
▁As ia
▁t ry
▁them es
▁De velopment
▁Kore an
▁y ounger
▁prov ides
▁def ence
▁flood ing
▁L ieutenant
▁Bra zil
▁198 3
pp ing
▁at mosp
▁5 8
▁Ch ild
▁7 4
▁a wards
ro om
▁tit les
▁m is
ul ate
▁purch ased
. com
▁Jew ish
▁pow ers
in ity
▁arr ival
▁H un
▁con vers
▁sched uled
▁def ensive
▁Franc isco
resp ond
▁res emb
▁R ol
▁Singap ore
▁th ing
▁accompan ied
w all
▁cerem ony
ic ial
▁un us
▁qu ite
▁per fect
▁196 4
▁exped ition
▁Pe ople
▁w orth
▁S ix
w ick
▁196 9
at ures
▁loc ations
▁exist ing
▁D ark
▁H on
▁inter act
▁advant age
▁perform ing
▁P ot
▁Care y
▁phil os
▁Off ice
r ons
▁dedic ated
▁comp uter
▁L is
▁7 2
▁b at
ac ted
k er
▁B or
▁Dis ney
▁ext rem
▁requ est
C .
l aim
▁intens ity
S tation
▁T am
▁K ey
▁st ore
▁occup ied
▁191 4
d y
ag an
▁wh y
▁s quad
▁191 8
▁Play Station
▁f resh
▁H MS
▁car ry
▁m ounted
il ing
▁Or der
us c
▁K el
ash ion
▁n ob
▁198 2
▁T urn
t a
▁f ix
▁t ail
▁197 1
▁m outh
▁And erson
▁Bro ok
▁B alt
▁c ricket
▁m ic
f ort
▁M ot
▁Ste ve
▁clos ely
r ations
▁cons ists
▁current ly
▁Lew is
man n
▁Mill er
▁l ic
▁s ession
▁196 6
hen s
▁By z
▁197 2
▁Rad io
▁D ie
▁Con ference
y les
▁t im
▁197 9
▁indust rial
m outh
▁e gg
▁B as
▁sim ple
av a
▁5 9
▁el imin
pp er
▁var i
▁p iano
▁On ce
▁fac ilities
▁c old
il ton
▁support ing
▁dra wn
▁Gr ant
▁Olymp ic
▁t y
w are
▁tra ins
▁Con n
▁bel ong
▁P u
▁Sh ak
▁prot ection
▁bo ats
▁B rian
▁r ated
▁r ise
▁def ined
▁se lection
▁ste am
▁h arm
▁ro w
ot ic
▁196 5
▁reg ions
i ro
▁S u
aw a
▁Bar b
▁sub mar
▁Rail way
▁prot ected
▁call s
▁pro s
▁h air
▁N HL
▁ #
▁com ic
▁Em peror
▁mot ion
g est
ver se
▁struct ures
▁th row
▁l ap
▁a id
▁sh ark
▁At t
▁l abor
▁M u
▁foc used
▁opportun ity
▁9 9
▁197 5
▁eng aged
▁rece iving
ing ly
ir ation
▁cor respond
▁shoot ing
▁anal ysis
▁sp ort
▁citiz ens
▁mot or
b a
▁obs erv
▁streng then
▁G ulf
os a
▁not able
▁3 rd
se y
▁ad ap
▁A v
▁Sum mer
uz z
▁P ress
▁W ater
▁exper ienced
▁German s
▁Holly wood
ul ts
▁Ser b
u a
▁con ference
▁prov iding
▁hold ing
▁Wal ter
▁In c
ing er
▁vis ual
▁mount ain
▁ey es
▁H an
▁On ly
▁197 4
▁res ident
ol id
▁18 th
▁Dav is
ad ing
▁sout heast
▁m ut
▁L ab
▁h ired
▁chart s
un ior
▁view ed
F L
▁mer ch
▁b ranch
he im
if ically
in th
▁rapid ly
bur gh
▁ro b
▁recogn ized
il er
▁197 3
▁G ib
▁vol ume
▁v ac
op her
▁trans form
▁al le
▁Democr atic
▁Re view
▁pro te
▁schol ars
▁6 3
▁sit es
ess ed
▁g ain
▁7 7
▁Spec ial
▁L .
▁casual ties
▁te ach
▁h yp
▁sh ared
▁conc er
▁paralle l
▁U N
▁7 3
▁Je an
▁Bet ween
▁public ation
▁D own
▁c art
▁temper ature
▁dig ital
▁F all
▁197 6
▁mod er
▁econom y
▁R ome
▁B ank
▁K ir
▁develop ing
▁ste el
▁react ion
▁ed ge
b ox
f riend
st anding
▁c ool
ro ll
▁Pr inc
▁inters ection
▁symb ol
al i
z en
▁Lad y
y er
▁appro ved
onc é
▁second ary
▁ch ance
▁N ap
▁Pro v
▁G ord
▁O b
▁v on
▁hyd ro
om ew
▁loss es
▁my th
▁cont est
r ant
▁r ac
ren ce
▁prep ared
▁subst ant
▁M as
▁belie f
it ors
▁D aily
▁T en
▁en l
▁Mus l
if ul
▁let ters
á n
olog ist
s .
ograph ic
▁W omen
▁significant ly
▁w itness
▁band s
▁s ort
ond er
▁c ard
▁s ave
▁N az
▁dom estic
▁Sy d
▁25 0
▁franch ise
▁kn ew
ry st
▁go es
▁liter ature
▁Bey oncé
er al
▁unsu ccess
▁inst ruct
▁head s
ach us
▁south west
▁act ress
▁techn ology
▁sem i
▁6 7
▁ad vent
b reak
▁des cend
▁rough ly
or a
ran ge
▁ urban
▁c ab
ast y
▁Comm and
▁B ern
ak a
un te
▁Pl an
thel ess
▁pain ting
▁ad ult
▁l b
▁M ain
▁any thing
▁c ars
▁p itch
en c
▁project s
▁ass ault
▁Ind ust
▁Colon el
▁ex act
ell a
▁brother s
i ents
▁resist ance
▁game play
▁P oint
▁c ore
▁N ick
▁sh ape
▁story line
▁Wh it
▁Sup reme
▁re asons
▁F air
▁rul es
im inal
▁ ign
▁employ ed
▁t ank
▁I V
rop ri
▁V ar
▁Kent ucky
▁d aily
▁St ation
▁sh all
▁inj ured
▁194 6
▁Sp ring
▁wat ched
▁198 1
at i
▁ag ent
ony m
▁popular ity
▁comp osition
▁ −
▁9 6
ir a
▁C ur
▁per haps
▁f it
▁is ol
▁add ing
▁enjoy ed
▁ren amed
▁opin ion
▁195 0s
▁Ind epend
▁get ting
om ic
▁decl ined
▁cal c
▁Nor way
o z
ag ement
▁R oss
▁comp ris
▁6 8
▁rep utation
▁8 2
▁l ov
▁n or
os l
ink ing
▁The at
▁P rem
▁sh aped
▁est ate
▁conn ected
▁under t
▁re nd
▁ret ire
▁d rew
▁191 7
▁mus eum
▁po em
▁regard ing
b ound
▁Olymp ics
o ir
▁M os
▁st ages
ul pt
▁Phil ipp
▁conver ted
▁view s
▁d ry
ce ived
am m
▁Gold en
▁Mass achus
g al
h an
▁W alk
if orm
▁B ase
▁ag ricult
▁allow s
▁s un
▁S el
▁dist ingu
▁n ick
ad s
▁altern ative
▁Massachus etts
▁B all
v est
▁Ab b
re ts
▁b ed
▁I mp
▁head ed
ig g
▁j ourney
▁8 7
▁S us
▁D ream
ath an
▁dep th
ul es
▁miss ing
▁c ited
at o
▁increasing ly
▁F .
e per
k o
▁L et
os is
▁st adium
▁R on
▁appro ached
▁16 0
▁Air port
▁turn ing
▁H art
▁respond ed
▁plan ning
▁know ledge
▁ex erc
▁V i
▁eas ily
▁we alth
▁194 8
▁over l
▁c ells
ild ing
▁f ashion
▁equ al
▁esc ort
ol t
▁7 00
▁fl u
▁Ab out
▁196 0
▁col lected
▁suc ceeded
ps ons
▁constit ution
m od
em an
▁K en
▁saf ety
▁B al
▁reb u
▁exist ence
un icip
▁tri p
▁p ul
▁R un
w ise
ign ment
▁Sim psons
▁introdu ction
▁occ as
▁aut h
▁mod els
▁lear ned
▁In it
▁col le
▁sust ained
ret t
h i
▁t all
▁promot ion
▁oper ating
▁6 9
▁197 8
ur ation
m itted
▁Mc G
▁base ball
▁car rying
▁lim it
▁Song s
▁ex change
▁show ing
ig er
▁y outh
on ia
▁Im perial
▁bur ied
eng ers
▁Vietn am
▁9 1
▁hum ans
e g
▁cred ited
▁7 8
c ome
▁dep end
le ton
▁arran ged
▁Ott oman
▁L oc
▁impro ve
▁im pl
▁se ems
▁J ay
▁weaken ed
▁C ape
▁design s
▁191 5
in ary
▁v an
▁join t
▁Short ly
▁pain t
▁a thlet
st ate
ist an
▁r hy
▁produ cing
▁pro ceed
▁Pol and
el er
ac ts
▁she l
▁Syd ney
▁fre eway
▁Mo ore
ol i
▁197 7
▁earl iest
▁fl at
▁Wh o
▁last ed
▁Mary land
▁land fall
▁settle ment
p ut
▁P ict
▁not e
▁R oy
▁desc ription
▁ret ained
▁ac res
▁t on
▁b rand
▁St ew
▁9 4
▁195 0
▁R em
▁N aval
▁M TV
▁A D
▁law s
▁appoin t
▁C ra
ival ent
▁gen re
▁program s
▁cons c
our ces
▁assist ant
re ll
▁play off
iv ered
▁J es
▁repl ace
ad er
▁inst all
b ell
▁res erve
iss ance
▁stat ement
▁v irt
▁appl ied
▁c atch
▁tr ust
▁196 3
▁viol ence
▁ne ut
▁scient ific
ins ula
▁8 1
▁Ar ts
▁ent rance
▁coast al
ot hes
▁P ass
▁t ick
ie ge
▁h its
t ical
▁con sequ
av ig
▁9 8
▁excl us
▁syn t
▁G reg
▁sc ulpt
▁pat rol
▁batter y
▁F ire
m ath
▁it ems
▁A ri
▁candid ate
▁town s
le e
▁indic ated
▁Bow l
▁un s
▁grad ually
▁distrib ution
t ime
▁191 6
▁E du
▁polit ics
l an
▁R id
▁del ivered
o ard
▁stop ped
▁f illed
▁b an
▁independ ence
▁t act
iz ations
e ke
▁s ections
▁det ails
p et
▁J an
▁I G
▁Conf eder
▁Mul der
el ess
▁c inem
▁se lect
▁comb ination
▁7 1
▁em p
▁suppl ies
▁way s
▁gl ass
▁part ies
end er
▁st ream
▁eng ines
us hing
▁prison ers
▁camer a
▁Gord on
▁appe al
▁St adium
▁A C
▁B and
▁191 9
▁reg ister
▁Rh odes
▁camp us
▁bas k
em ies
▁W ell
▁196 2
▁act s
▁m ig
▁B on
▁extrem ely
▁8 9
▁ent itled
▁sec ure
re ets
re c
el a
▁R a
▁find ing
A T
▁on line
▁dec ade
ino is
▁Un ivers
▁t al
▁Pro f
por ation
iqu es
▁Theat re
ac ter
▁win ner
▁St aff
ivers ary
▁ar c
rop ol
▁even ing
▁C op
▁reg iment
▁193 8
▁K im
▁investig ation
▁8 8
▁threat ened
▁b ought
▁mess age
▁adap ted
j a
▁s omew
▁surv ived
▁kn ots
▁cons um
▁stud ied
▁B ir
▁An th
▁propos al
ad or
▁writ es
▁add ress
as hed
▁V ill
▁death s
▁Just ice
i at
▁ro utes
▁w ars
▁down load
▁rul ed
▁f ear
▁N ic
▁Inst ead
▁rel ief
▁relig ion
▁m ales
▁redu ce
▁vot ed
B S
igh ters
ie val
an o
▁rev olution
▁spec ifically
▁sp ons
▁c rown
▁ph ase
▁dut y
m et
▁f ict
ph oon
▁king dom
▁A ge
▁rec alled
bour ne
▁e c
▁portray ed
▁s oul
▁imp lement
ct ions
▁C irc
▁controvers y
▁emer g
▁H ere
▁M emorial
h at
▁e t
▁caus es
B N
▁A st
erv ative
▁b le
m un
▁195 6
▁every thing
▁breed ing
ap es
ad ow
cher s
a ug
▁s ell
▁st ret
▁refer ences
▁17 5
ic ian
▁bott om
▁ag o
▁cap able
▁T .
▁T ony
▁conv in
▁te acher
▁import ance
▁P o
▁Col l
▁ent ry
▁met ers
▁Mc K
▁off ers
▁Sing les
▁I d
▁N el
▁K ong
▁t anks
▁O d
▁7 9
sen al
▁P ower
▁193 0s
b ro
▁U r
▁suff icient
▁Direct or
ent ially
▁own er
▁intern al
▁arrest ed
▁oper a
rid ges
▁Ad ams
▁adm itted
▁nomin ation
ar p
▁O k
▁corn er
▁b or
▁J ord
▁M oon
▁cop y
▁Al an
▁193 6
▁F A
▁cross ed
▁cl imb
▁product s
▁Dou gl
w ich
u ro
▁Crit ical
b ar
▁inst alled
▁equip ped
▁Be ach
▁Al f
▁IG N
▁pre ced
▁concern s
ak i
▁m ort
▁over se
▁aut om
▁Ham ilton
▁inv ited
▁Sim on
▁Mar ia
▁Eng ine
▁conv oy
▁on es
▁con qu
▁inter ested
▁f ly
▁Ad am
▁start s
▁cr ime
▁princip al
▁G ram
h r
▁ac id
▁13 0
rane an
▁t ell
▁Y our
▁recomm ended
▁al t
and y
▁J ane
▁un l
ruct ure
▁Pl ot
▁remain der
▁med al
▁sh ut
ans as
▁act ual
c a
▁s now
▁ret reat
▁U TC
▁9 2
▁st ock
▁v ent
▁up grad
esp read
▁192 0
▁char ged
▁V II
▁sol id
▁ap art
▁B os
▁pr ice
▁object s
▁C art
▁fund s
▁do or
▁Tr ack
▁196 1
▁Fore st
osaur us
il ation
▁compos er
v is
▁8 4
▁fem ales
▁V ideo
▁consist ing
▁g all
ak ed
▁promot e
▁De ath
▁p age
▁mil it
i y
▁N BA
▁Ind ones
▁consider able
m b
▁F ound
▁Pro g
▁d ates
▁po ly
▁In t
ill er
h us
▁N ether
▁G en
▁195 3
▁typ ical
▁ground s
▁Kenn edy
er ted
▁G un
▁cor rect
▁Tod ay
▁dut ies
▁ext ension
▁b low
ck s
re te
▁ev olution
▁9 3
▁some one
▁Trans port
▁con g
▁r ural
▁pen al
▁' d
▁Mil itary
▁Sund ay
▁e ighth
B I
v ements
▁Indian a
▁sp in
▁so le
▁Pro ject
▁hot el
▁How ard
os ite
▁dec ades
▁Nor we
k ing
▁im ages
▁P it
▁dr iving
▁read ing
▁ident ity
▁Sc ully
▁H ou
▁z one
▁Mar c
ad d
▁occ urs
▁193 0
het ic
▁Le on
▁man ner
▁B ry
▁sub s
▁sk in
▁challen ge
▁Hit ler
▁l ane
▁rem ix
▁to w
▁K at
▁asp ects
▁perman ent
▁a er
▁T ar
▁17 th
▁b rigade
▁T a
▁f rag
▁194 7
▁vol can
▁d ated
▁h am
▁195 8
▁C ult
▁F ive
▁G ill
▁v ir
▁Port ug
▁not ing
▁rest aur
e z
▁B rist
▁col our
a fter
ion e
▁D rag
ub b
▁suppor ters
▁WW E
▁slow ly
▁cle an
▁B a
▁post ed
▁P ear
▁8 6
ens us
▁Tur k
iv als
▁R ose
ile y
▁195 7
vel and
ck now
▁Sc ience
▁describ ing
▁Res earch
▁G .
▁invol ving
▁spe ak
▁vess els
▁ent ering
▁en emies
▁193 7
▁Ass embly
▁d ress
▁equ ivalent
▁M r
aw are
▁Ry an
▁H ug
▁class es
▁b ra
▁deb ate
▁sett led
n ic
▁d in
▁A k
▁dep artment
▁ob tained
▁Con stitution
reg on
▁acc ur
▁arm or
▁par liament
▁Rol ling
▁D isc
ert o
▁Mag azine
▁te le
▁Mount ain
▁Arg ent
▁song writ
▁bas ic
ris is
▁purch ase
ag ues
f l
▁p up
▁f olk
▁n est
▁old est
▁Cle veland
▁f aith
▁Sp ace
▁P ier
▁L enn
▁concern ed
▁depart ure
▁wid espread
▁dec line
▁form al
▁conn ection
▁Ill inois
c ation
oph y
▁inc ome
▁att ached
he red
▁recogn ition
▁N ow
▁inte g
▁Dougl as
▁m emorial
▁o uter
▁Through out
▁cert ified
he astern
▁de leg
▁acc used
▁ <
▁sequ el
orn ey
▁Week ly
▁der ived
▁dec or
▁S av
r ates
▁m ode
▁I ra
▁h a
▁St and
▁Re le
are t
▁And y
▁wear ing
▁Jord an
ic it
▁h ip
▁ass umed
▁dist urb
▁sw im
w estern
▁w ed
▁O regon
▁195 9
▁a cknow
▁4 th
▁Stan ley
▁t orn
▁Fred er
▁ ”
▁acc laim
▁11 0
o oth
▁sur vey
▁comm itted
i ot
▁f oss
▁Ar senal
▁Med ia
▁F eder
▁host ed
R A
▁Th ird
▁return s
▁val ley
▁seg ment
▁Rog er
▁s essions
eke nd
▁D al
▁pop ulations
▁Phil ip
agon ist
▁den ied
▁f ine
▁Med iter
▁T reat
▁Rec ording
▁tem ple
▁Fam ily
▁h ang
w an
▁ch ampion
▁fl o
▁Beat les
▁char ges
▁T enn
▁L ow
▁liter ary
▁Bru ce
▁Ke vin
▁can c
▁reg ional
▁thous ands
▁Norwe gian
▁195 4
▁termin us
▁trans ition
▁195 5
▁Mediter ranean
▁circ um
iv a
▁supp osed
▁war m
▁wick ets
▁Brist ol
▁ “
▁dem and
▁E s
▁A z
▁D ig
▁an s
▁sh ots
hed ral
▁IS BN
▁R ain
ud den
▁strong ly
he me
ac hel
▁circ ulation
▁B ush
▁intellig ence
▁s ailed
▁pass engers
▁poss ibility
▁gener ation
I A
▁h ope
▁fict ional
em ed
▁anim ated
▁thir ty
▁fre edom
▁down town
▁Ch annel
or gan
▁H o
▁F ederal
e ing
it o
▁h ill
▁r ich
▁min ister
▁behav ior
▁cl oud
▁Mexic an
ra ge
▁ ×
C A
▁assist ance
▁repl acement
▁beg un
▁P ur
▁f ruit
am i
▁command ed
▁W eb
▁dest ruction
atin um
▁mov es
m es
▁B ol
▁cr iminal
ch ar
▁miss ed
▁miss ions
▁Con c
▁except ion
▁cost s
▁D er
▁cr ash
or ced
▁R ow
up t
▁high light
▁bring ing
▁t ied
▁M aster
▁C as
l ig
▁E ric
▁comm it
ism s
▁Kore a
▁With in
▁int ention
▁feel ing
▁B ah
ont o
▁spe aking
▁unus ual
▁Lis a
or al
els h
▁Addition ally
▁F ame
▁inter cept
▁fin ishing
▁alle ged
le ts
▁N ar
▁dem ol
▁proper ties
▁incorpor ated
▁opp osite
▁stay ed
▁S ab
▁attrib uted
▁sh op
▁Ph ill
▁vol unte
▁recover ed
b orne
▁s ons
▁Col or
▁bre aking
▁emer ged
▁8 3
▁serv es
▁195 2
▁atmosp here
▁Mor gan
▁Mor ris
▁d ipl
▁chor us
▁theat re
▁Norm an
▁occasion ally
r ating
▁dr iven
oth ing
ole c
▁Sc ient
a ire
▁E le
▁str ateg
▁Rob inson
▁K r
ens es
um in
▁E ver
ri ers
▁class ic
▁sp ok
▁read y
▁Pri or
▁effect ively
▁regular ly
az a
▁c avalry
▁establish ment
▁S ky
▁pre y
▁cour ts
▁R aj
▁method s
th m
▁v ary
▁193 3
▁sound s
osl av
▁Haw ai
▁d ivers
og en
▁Te levision
▁sup erv
▁Sim ilar
▁17 6
p ective
▁d ream
▁A round
▁complet ion
d on
▁sh ore
▁Un like
▁material s
▁C E
▁Const ruction
▁G h
ut y
▁respons ibility
▁diss ip
▁war ning
▁US A
▁accom mod
w en
▁C ab
▁F inn
▁he at
▁att racted
▁field s
▁surv iving
▁prov ince
▁ent ertain
▁pers u
▁Nel son
▁I ron
r im
▁glob al
n old
ec e
▁N ich
▁Franc is
▁m o
▁qu ant
▁class ified
▁k id
so le
▁differ ences
▁Prem ier
▁D E
▁L anc
ick s
▁div isions
▁techn ical
v ens
▁Swed en
▁interp ret
▁b rain
▁193 5
b an
▁F ord
▁T echn
▁191 0
▁cru iser
▁Pat rick
▁B udd
ip e
▁pass age
em eter
ab led
▁An ton
▁ab oard
▁n one
▁M it
in ton
▁s am
oy d
▁P A
▁Tem ple
we ight
▁club s
▁st ood
▁associ ation
▁rat ings
▁ne ither
▁ele ven
j i
▁music ians
▁room s
n ce
▁195 1
▁194 9
▁med ic
▁reinf orce
id den
om ot
▁H ell
▁des ire
n ings
▁h al
▁separ ated
▁Tor onto
▁W elsh
▁cl imate
▁An ne
ag le
▁s qu
▁N ations
▁sh if
▁out break
▁class ification
▁anc est
▁D og
ó n
▁veh icle
▁Mar g
▁real ity
▁pred ecess
▁seem ed
▁Byz antine
▁chem ical
▁vot es
▁pict ure
te enth
▁All en
▁battles hips
▁ro se
▁Ch ron
▁3 D
▁13 th
▁mem ory
▁hop ed
ic i
▁Prof ess
▁mov ements
▁m ent
▁requ ested
▁O pen
▁Nether lands
▁J ournal
▁16 th
▁Bel g
▁S n
og y
▁ra ise
▁histor ians
▁ ille
▁E very
▁Matt hew
▁P ow
b urn
▁m ap
▁difficult y
re ck
▁bask etball
ind er
▁W he
ew here
ig e
▁exp ect
▁v ide
ab il
▁commun ities
▁rest ored
▁ra id
▁te en
▁rem ember
▁B ang
▁S ports
▁program me
▁Jew s
▁premi ere
▁p ure
▁De an
h ar
▁f al
▁delay ed
▁Jac ob
▁f er
▁rel ative
▁insp iration
▁S ax
▁discover y
▁g al
▁other wise
▁great ly
▁US S
▁ann iversary
▁inj uries
▁Des ign
▁Ag ain
▁neigh bor
▁sat isf
▁acc ounts
h ire
▁fund ing
▁surround ed
▁fl ank
▁D omin
▁dep ict
▁pra ise
▁Ul t
▁penal ty
▁sp oke
il ers
▁batt ing
▁need s
▁19 00
▁Ira q
i ate
▁d ens
▁str ate
▁d ie
▁part ner
▁c rop
▁W right
▁Mar ine
▁mass ive
▁weap on
▁phot ograph
▁I .
▁rec ru
▁claim ing
▁c ra
▁D or
▁7 th
an th
▁B ishop
▁su it
▁ass emb
▁l at
▁ast ron
▁tri es
▁form ing
▁strate gy
▁w rong
re al
▁le gend
▁O ak
▁accom pl
▁document ary
▁Ar men
▁fl ed
▁cross es
▁Gl ob
▁wor st
▁H op
▁Croat ian
▁He art
▁D a
▁stand s
g ets
▁Thom pson
▁architect ure
▁as h
▁L ast
ut her
▁tem porary
▁J am
▁girl s
ub le
▁determ ine
▁chair man
▁D ick
▁Russ ell
▁dismiss ed
a ired
▁Is lam
▁invol vement
▁St ra
▁bomb ard
▁s ale
▁c ategory
▁T rib
▁ro t
form ula
▁pl ane
▁5 th
▁Cent re
▁in ner
▁rem n
▁adapt ation
▁< formula
▁<formula >
▁Mar s
▁he ar
r um
go ing
▁ens ure
▁convin ced
ond s
▁s ight
▁en f
ly n
▁N C
▁c ul
▁we ekend
▁0 6
▁H oly
▁N FL
▁Pu erto
▁F ront
▁res ources
▁somew hat
▁res erv
▁Car ter
▁inter ests
▁Win ter
▁R ick
w ing
▁sc heme
▁med ieval
▁immedi ate
▁Kel ly
▁He nd
▁st reets
ag re
▁president ial
▁Mod ern
▁l ibrary
▁K er
▁r ay
ost er
▁car bon
▁abs or
▁cons p
▁Co oper
b ody
▁ ic
▁Sp e
itz er
p o
▁fall ing
▁colon ial
▁D ra
▁Al ong
▁techn iques
▁o ri
▁class ical
▁s ed
▁f ighter
▁n inth
▁N iel
▁R ang
▁app ropri
▁thr one
▁G ard
▁star red
▁Bro ther
▁acad emic
▁egg s
▁F ree
▁N etwork
▁r aces
▁b right
ic ide
ay a
▁ad ults
▁' ll
▁P ak
▁con vent
▁comm emor
▁pass enger
▁surv iv
▁l oyal
▁Hung arian
▁N ob
▁6 th
▁me ets
▁l ake
n ight
▁W y
▁G ri
▁review er
es ter
▁al ien
▁Th us
▁191 3
▁premi ered
▁submar ine
r ine
▁B ou
▁abs ence
▁Bat man
b ec
we alth
▁see ing
▁ren ew
▁f itted
▁L abor
▁el se
▁super ior
os ure
▁inter ior
ars h
▁favor ite
▁Park er
▁engine er
ron ze
▁d ub
P A
▁E st
▁air port
▁part n
▁T ok
▁de emed
▁attack ing
▁Har ris
om p
▁conc lusion
▁appear ing
ac ent
▁vis ible
▁192 6
▁d ating
iv an
▁synt hes
▁B i
us ing
▁character istics
▁rom antic
▁ x
▁lead s
▁elect ions
▁r um
▁oper ate
