#version: 0.2 - Trained by `huggingface/tokenizers`
▁ t
h e
▁ a
i n
▁t he
e r
o n
▁ ,
r e
▁ s
e d
▁ w
▁ o
n d
a t
▁ .
o r
e n
▁ c
i t
▁ f
i s
e s
a r
▁ b
▁o f
a n
▁ in
a l
in g
▁ p
a s
▁a nd
▁t o
i c
r o
▁ m
▁ d
▁ h
i on
l e
o u
▁ T
▁ re
▁ =
▁ S
i l
▁ A
en t
▁ "
▁ 1
▁t h
s t
e l
▁ C
▁ l
▁ @
o m
▁ e
a m
▁ n
a d
a c
▁w as
▁ M
▁ B
e c
▁ on
▁T he
l y
u r
▁ '
e t
i d
o l
▁ g
i m
▁ I
- @
▁@ -@
▁f or
i r
i g
i v
o t
t er
▁ H
u t
▁a s
u s
o w
it h
a y
▁ 2
▁ P
▁s t
▁' s
▁ he
v er
at ion
▁w ith
▁b e
▁ R
▁th at
▁ D
c e
u n
e m
▁ W
▁w h
▁ F
c h
▁b y
t h
▁a l
▁ )
▁ (
▁ L
u l
▁ G
▁ is
▁c on
er s
▁a t
c t
▁ N
r a
o s
▁1 9
▁a n
▁ it
he r
ro m
a nd
u m
▁ J
es t
0 0
▁h is
▁ E
a g
a v
a in
r i
o d
▁f rom
▁ O
is t
▁c om
▁ v
▁p ro
o p
il l
o re
i f
l d
u p
▁ r
e w
er e
re s
ig h
▁I n
i es
▁d e
b er
ar t
ar d
or t
▁s e
ic h
▁w ere
at e
al l
a k
an t
o c
u d
a p
▁e x
q u
on g
a b
▁c h
▁o r
▁ K
g h
e ar
es s
at ed
▁p l
▁s h
it y
i p
iv e
am e
▁ U
▁h ad
ec t
ac k
▁S t
▁s u
as t
s e
re d
▁ k
g e
▁wh ich
ou r
m ent
▁ le
u nd
▁a re
o v
i an
i al
▁n ot
el l
▁s p
o st
▁ y
igh t
i a
or d
u st
ar y
in e
t her
p t
r it
▁ 3
ou n
p p
ic al
▁C h
av e
▁ un
▁2 00
c c
▁in c
f ter
ou ld
▁ V
▁b ut
ir st
is h
ou s
t e
f f
ion s
s o
▁com p
▁2 0
id e
▁ ro
u re
▁w he
u b
▁a r
▁con t
i e
▁ ;
o g
ig n
▁f irst
▁c l
w o
▁he r
r y
u e
▁it s
as s
▁the ir
or m
▁ –
o k
or k
▁in t
▁re s
▁H e
▁ :
at er
▁al so
▁a b
on d
▁a d
om e
ou t
r an
m er
i re
he d
r u
▁ us
ag e
d u
▁ 4
im e
l ow
▁p er
p er
▁wh o
▁ 5
▁T h
▁on e
▁h ave
▁s c
p l
al ly
ow n
i le
▁re c
▁1 8
t ed
. @
▁@ .@
▁t wo
it ion
u gh
i z
re e
en ce
t s
ur ing
p ort
▁be en
▁p art
▁b ec
ic e
▁h as
▁A l
▁a g
▁a pp
▁20 1
ou gh
, @
▁@ ,@
▁ j
▁ en
▁d is
l ud
k e
▁o ver
▁s er
▁th is
or y
el y
▁y ear
ation s
em ber
re n
ct ion
ou nd
ac h
▁of f
▁a fter
r ic
▁ up
l and
▁pl ay
▁d es
ac e
▁I t
ar k
o ver
an ce
▁o ut
▁the y
▁m an
ad e
▁t e
ac t
▁o ther
i b
m an
ul t
▁ im
▁ Y
p h
res s
▁inc lud
c ed
en s
ur n
w n
▁w ould
in d
▁t ime
on e
▁p re
▁int o
v el
▁O n
▁U n
w ard
w e
▁w e
▁h im
it e
o in
at es
▁ 6
▁s he
l es
▁e v
il m
▁at t
as ed
▁n e
it ed
ab le
e nd
i ed
as e
am p
▁com m
or s
▁in ter
a re
ro ugh
o y
on s
oun t
e p
f orm
▁al l
os e
o od
an g
▁m ore
c es
▁w ork
▁ 7
a il
ol d
a w
er ed
ing s
v e
il d
▁A n
▁n ew
▁s ec
▁b et
▁whe n
in al
▁f e
▁f ilm
ic k
v i
ent s
▁S e
w ay
at t
f t
is s
a us
f er
▁ 8
g an
▁M ar
re at
ri b
▁con s
▁A r
ro und
ak e
▁re m
v ed
▁t r
▁d ec
as on
an s
▁d uring
▁ und
or th
ub l
▁ 9
h ip
▁ag ain
▁A s
▁m ost
▁g ame
ot h
▁the m
▁19 9
▁on ly
▁p r
at h
we en
i x
▁e ar
ol low
▁th an
o b
ro p
▁s up
ation al
f ore
▁N ew
▁ab out
▁pro du
u g
▁c ent
ter n
▁k n
▁re t
e y
▁ch ar
▁s ong
▁c an
ou th
▁bet ween
▁l ater
or n
▁re le
▁und er
ic t
▁th ree
h n
t on
▁c ol
r on
▁a ct
▁ 00
al s
▁ qu
▁th rough
▁E n
or ld
o ok
▁n um
▁s o
▁m e
▁a cc
▁re l
▁wh ile
▁ ra
▁e nd
mer ic
▁L e
le ct
▁A meric
▁f l
ter s
oc k
▁p os
r al
▁su b
e ver
ul ar
▁as s
at ing
▁whe re
▁ ver
▁d ay
c k
▁re g
▁sec ond
en er
a id
▁b u
▁C om
▁m ade
am es
is ion
iv ed
▁R e
▁p e
he s
▁rec ord
s on
▁de f
b um
▁f our
▁g ro
▁f ollow
▁se ason
▁00 0
▁e p
▁for m
▁s ome
▁su ch
▁a m
o ol
is hed
▁m ov
▁be fore
▁t ra
▁m us
▁S p
▁the re
▁w rit
he n
ic s
▁J o
i o
▁sp ec
i el
▁1 0
i ke
▁s y
▁year s
▁te am
▁A t
od e
u al
▁Th is
id ent
▁ /
▁l ar
▁al bum
▁S h
▁in d
ro s
il y
ow ever
▁ ent
n ing
▁us ed
▁c all
an k
▁s ur
if ic
▁a c
▁h igh
ur y
▁p ubl
▁be ing
▁ep is
ain ed
▁the n
l ed
t en
vel op
a j
▁d o
▁l oc
▁ex p
if e
r is
▁1 7
▁again st
▁in v
▁ 0
▁b l
▁p res
▁sh ow
ot her
▁num ber
▁A fter
▁char ac
i ous
▁se ver
▁ad d
▁c o
▁s et
e k
in ce
j ect
ar s
▁bec ame
▁re ce
▁B rit
aus e
▁le ad
▁per form
▁n o
▁includ ing
▁s ing
at her
in s
▁ —
in es
▁f ound
▁Un ited
ran s
a ir
▁w ell
al e
▁m on
▁re p
▁S c
▁p ol
▁b ack
▁b oth
i er
▁c ap
▁19 8
▁ser ies
▁1 5
▁1 2
o ber
r am
▁C on
i k
ow er
▁sh ip
em ent
it s
er t
i red
u res
le y
▁W h
▁S he
iv ers
▁m ain
p en
▁19 4
▁m in
i et
d er
over n
▁d id
v en
▁g o
▁c re
el f
ol og
▁im p
▁de velop
▁m et
a z
it ies
▁En g
▁l ong
iv er
an y
l l
is ed
er m
t ing
u ch
a red
an n
an e
ir d
▁e m
▁Jo hn
▁m ill
f ul
▁a ir
▁m at
▁epis ode
te nd
ire ct
▁s aid
▁st ud
▁man y
ut e
▁b ro
as h
at ive
▁de p
▁c ar
▁1 6
▁c ould
▁or ig
▁w ar
▁cont in
▁C l
▁sever al
▁Americ an
th ough
▁d if
▁I nd
iel d
a h
▁in st
▁p op
ou se
is e
em b
▁kn own
▁19 7
t y
u ally
▁19 6
▁A ust
▁1 1
▁con c
t il
i am
▁W ar
vi ew
ers on
▁o b
u ed
▁G er
▁s m
▁ret urn
▁an y
▁be gan
▁ Z
er n
▁comp le
▁des ign
▁D e
▁des c
▁s ign
op le
ch ool
ros s
m y
is m
o ot
▁ est
0 s
▁t rans
cc ess
▁pro v
ak ing
▁fe at
▁B l
id ed
▁in f
an c
▁r un
▁ear ly
▁ar t
iz ed
▁d ist
▁mus ic
▁o wn
▁n ear
▁rele ased
▁un til
▁call ed
▁e ff
▁C ol
im es
▁U S
r id
ist s
▁res p
un e
▁b el
en n
▁p ass
st em
u red
▁f in
ial ly
▁M ay
▁p h
ut ion
▁d own
▁dis c
ment s
▁c rit
os ed
x t
▁d irect
▁g ener
▁al ong
i um
▁in s
▁mill ion
g er
ul l
▁Brit ish
a x
▁gro up
▁off ic
v ent
▁Ger man
▁1 3
▁f am
e b
▁the se
aj or
▁m od
▁m ay
▁ $
ce pt
▁A d
▁o pen
an ge
▁m il
▁B e
▁p oin
u c
g g
▁l and
▁s im
▁his t
▁A ug
▁g overn
▁Se pt
▁su ccess
▁Sept ember
▁Aug ust
et s
▁A p
▁W orld
▁St ates
ib le
in k
er v
▁g u
▁o per
▁c ount
▁att ack
▁us e
▁s ame
y s
ward s
▁desc rib
▁pe ople
▁I s
▁F or
ac ed
▁charac ter
y p
am ed
▁bec ause
▁Al l
el s
▁v i
▁1 4
▁l ike
▁ser v
▁J u
▁F ran
g ed
▁a round
▁st art
▁th ough
▁ ed
▁19 5
▁P l
▁ Q
n er
▁w in
▁k m
▁con st
u es
r ing
▁to ok
▁o cc
ru ct
av ing
▁Aust ral
▁b att
▁O ct
▁an n
▁sup port
ov e
▁N ov
▁follow ing
▁s ix
▁n orth
▁e le
▁C ar
▁19 3
▁H owever
▁sy stem
▁app ear
us s
▁f inal
▁rece ived
▁cl ass
in ed
▁Oct ober
▁he ad
iv es
▁p rom
▁cons id
en e
ant s
r ad
l ing
il ity
ical ly
▁D ec
▁P ro
▁19 1
▁e ver
▁st ate
▁bu ild
re t
▁e ach
an u
▁ex t
▁f ive
r ist
▁a ut
ro l
▁Y ork
▁cent ury
in a
▁v ar
▁b o
▁w ill
▁are a
▁The y
at ely
▁sm all
g et
os s
▁part ic
▁l ife
▁N orth
iv ing
r il
▁re port
▁ ]
▁M e
▁ [
t le
ore d
▁B y
▁J une
ian s
ord ing
▁c ity
g in
▁m ar
p ed
▁K ing
▁m ajor
▁we ek
▁publ ic
▁Ju ly
▁ %
iss ion
▁con f
▁H ar
▁b and
ect ion
▁re f
m ed
▁Nov ember
in c
ur ch
▁re st
▁Com m
▁W ill
▁w orld
▁P h
▁m ed
▁s ince
es p
▁sing le
ra ft
ra ph
p or
▁Ap ril
b le
▁M c
ain s
ri ed
l ish
▁d et
▁Mar ch
om et
▁j ust
▁l ast
ect ed
ur al
. .
ion al
he st
▁E d
a im
▁t urn
iv ely
▁he l
il t
▁al low
▁p o
▁C an
c l
i ent
▁3 0
vi ous
▁G e
▁le ft
▁lar ge
▁l ine
at s
▁dif fer
al es
▁S outh
▁c are
▁s outh
▁ad v
if ied
▁D uring
▁. ..
▁d r
▁st r
▁b ook
▁ver s
em pt
▁s chool
▁s l
ag ue
▁Dec ember
▁th ird
av y
▁inc re
▁2 5
▁mon th
▁d ue
▁app ro
▁play ed
▁m uch
▁ev ent
ro w
▁P r
▁ if
ro te
▁an other
▁J anu
▁19 2
▁Janu ary
▁includ ed
▁wh at
▁pl ace
▁b ased
▁sh ort
n e
▁I I
on y
▁ex pl
▁govern ment
▁p erson
b all
▁w rote
▁W hen
▁tr ack
ap an
▁c amp
▁t it
▁o ld
▁E u
▁b re
al f
▁n ame
▁de ath
▁p ort
▁e lect
ent ly
p le
ren t
▁J apan
i ence
▁en g
▁w on
b y
▁O r
▁ch ild
▁pro t
▁l it
▁k ill
▁pro g
o ad
▁st ory
ide o
ag es
▁p ower
▁B ro
▁re view
▁T e
od y
▁v is
it al
▁h ome
ot t
▁l ed
p s
▁describ ed
en g
▁re qu
om an
▁pre vious
▁fam ily
▁g un
ra nd
t ain
▁w ay
y l
▁n amed
▁r ight
▁n ow
▁M us
▁d em
ur ther
i od
iv en
▁m en
il ar
▁ev en
▁m ake
emb ers
▁or gan
▁G u
re en
is ter
on t
c y
ivers ity
om in
▁att empt
▁b est
it ions
▁1 00
▁c our
▁re pl
iv ision
▁o pp
▁le g
ren ch
▁g ames
i or
ac hed
▁t erm
▁A nd
▁comm and
iv al
▁h and
▁F l
▁pos s
m p
▁' t
▁bel ie
▁d am
▁ver y
o x
▁H is
▁th ose
▁F eb
▁Eu rop
▁p ar
▁Feb ru
▁Febru ary
s h
▁is s
▁st ill
▁to p
▁ne xt
▁spec ies
▁Ch rist
▁eff ect
ri end
▁vi ew
c hed
▁The re
▁N ational
oc i
▁orig inal
ak en
▁W e
at ure
en ces
▁sp e
l u
▁w ater
n ess
▁add ition
▁j oin
▁B ar
▁Europ e
▁l ist
a u
▁per iod
▁with in
al k
▁m embers
▁m ark
et er
▁de b
▁he ld
▁bu ilt
▁F rench
▁ex per
h or
a f
▁A m
▁rele ase
▁P ar
▁l ate
▁al though
▁for mer
re w
▁mat ch
▁g reat
a ugh
rid ge
n ey
▁c ur
▁d est
▁s old
ut ed
▁201 0
tend ed
▁v ideo
▁2 1
ard s
▁c aus
▁W est
l ine
▁st orm
▁c over
▁ X
v es
ec h
▁in it
▁ro le
rop ical
▁t ri
▁Will iam
s elf
▁c ame
▁est ab
he l
▁H er
▁day s
an ces
▁res ult
▁m id
▁pres ent
n a
le v
▁cont rol
ag ed
pt ion
o on
ul ation
▁st and
▁re al
▁pol it
▁h owever
▁M in
it ary
as ter
h am
▁200 8
▁pro p
le t
en se
▁200 9
▁M an
at ic
id es
▁f ew
▁to wn
▁2 4
▁w ind
▁Ge or
om b
▁y ou
og raph
▁t w
▁s ide
▁s k
▁contin ued
▁of ten
▁e qu
▁p ost
▁E ar
ay s
▁loc al
▁201 1
el t
▁Ch ar
at or
▁am ong
▁A ir
▁sim ilar
ru ction
e ad
c hes
▁M ich
r act
▁h um
▁a v
▁cl aim
▁N o
es tern
om en
▁ &
un g
▁Eng land
re et
re ad
ak es
▁differ ent
s ide
es e
op s
▁m y
▁d el
l er
▁be h
▁R ec
olog y
p ar
▁t yp
▁2 2
▁f urther
▁s ent
es c
▁D av
ot s
est ed
▁le vel
ur s
▁f re
▁consid ered
▁t ake
▁l aw
er y
▁E l
▁to t
▁200 7
g y
▁care er
▁On e
ron t
▁produ ction
ar m
m e
▁h alf
ic es
▁P ark
▁C o
▁an t
. S
▁C ity
▁h aving
amp ions
b o
▁A cc
▁Eng lish
▁m ag
▁ro ad
▁e ast
▁mov ed
▁d ra
er ing
.S .
▁ever y
▁w est
▁with out
▁Al though
ro du
▁c r
▁C ent
▁app e
▁pl an
▁play er
▁201 2
in ing
▁pos ition
▁c or
▁bec ome
▁ar r
▁hist ory
▁vers ion
ver s
▁t ro
▁C al
f ord
▁An g
ond on
on es
▁c ast
▁C ount
▁ el
▁inf lu
iz e
▁ar m
▁2 3
▁L ondon
▁h ouse
y le
▁s ound
r ig
▁f ore
▁comm un
res ent
ir c
ap p
▁B att
▁g r
▁cl ub
▁su gg
ro y
a ul
at ter
▁str ong
▁inv ol
a i
▁writ ten
ain ing
▁19 0
▁W ith
▁b as
▁st at
▁l ess
oun g
ut es
▁ann oun
re st
▁f oot
▁R iver
i qu
al d
▁or der
▁re fer
iet y
im ent
▁U .S.
g es
▁pro f
c raft
▁Can ad
a e
▁a ff
▁poin t
se qu
▁t em
▁g iven
▁r ad
▁l ow
▁tr ad
▁h ig
▁w ant
▁G ener
▁Un iversity
il le
▁k e
▁g ave
▁p at
u ck
is c
▁im port
▁P ol
▁ne ver
a ff
▁Wh ile
▁ch ang
▁def e
or ies
▁s oc
▁return ed
r ation
▁A b
▁v ict
▁tot al
▁f act
▁H igh
▁g ood
ent ion
▁T r
▁comp any
▁f ire
ail ed
▁count ry
s p
▁w ent
is on
▁com b
c ess
▁f riend
our s
ric k
▁E x
▁cap t
▁publ ished
a un
▁produ ced
lev ision
▁f ind
ay ing
c on
▁report ed
▁orig in
▁S m
▁200 6
a ign
▁l ost
▁st ated
▁comm on
▁prog ram
ing ton
▁l ight
y n
▁partic ular
ap e
▁or d
ec hn
▁ad m
▁includ e
est s
▁Acc ording
▁lar g
ab ly
ur ric
▁comp et
▁ er
us ed
▁record ed
ie f
▁build ing
▁p ress
▁St e
▁ne ed
▁N e
▁b us
▁pro ject
h ing
▁for ces
um ent
▁n ort
▁2 7
▁ship s
▁sh ould
▁us ing
▁e ight
▁2 8
▁perform ance
in ess
▁S w
▁serv ice
b s
▁pop ular
▁ ide
pl oy
▁The se
▁t imes
▁5 0
os p
▁m aking
▁t en
▁air craft
▁him self
oy al
▁f un
▁aut hor
▁201 3
▁f ather
at ch
▁mil itary
▁Austral ia
▁S ec
▁an im
le ar
▁batt le
ampions hip
▁J ack
n ed
▁As s
▁s it
▁l im
▁song s
▁s omet
▁re ad
▁A f
ou ther
▁crit ic
ens ive
it her
ord s
▁develop ment
▁s w
▁h ow
▁g l
▁Gener al
al th
et h
▁s ol
it ive
ed er
as es
qu ad
▁2 6
▁4 0
▁St ate
ol l
▁C or
outher n
▁J ames
▁c ross
c er
▁18 9
am b
▁rep resent
▁S y
▁g round
▁dest roy
ac y
▁st ar
▁f t
▁rem ained
as tern
▁st e
k s
ri e
▁charac ters
▁Ar my
▁n ational
▁P res
▁g et
ri es
w ork
▁month s
▁su ff
▁g en
▁B o
▁d ied
a ur
▁t er
▁G l
▁Com p
ubl ic
▁develop ed
▁tit le
d om
▁s um
▁ch art
f ic
▁camp aign
re am
urric ane
▁for ce
▁Le ague
▁child ren
▁int rodu
land s
en cy
▁p ra
▁to ur
▁prom ot
it ted
ist ed
a el
▁s on
▁sign ific
▁re d
▁ac ross
▁a way
ress ion
her n
▁rel ations
▁ob s
▁hist or
▁f ield
▁offic ial
▁D ivision
▁f av
▁f elt
o le
le ge
▁Americ a
▁not ed
▁f ac
▁S im
▁n ight
al t
▁announ ced
m ost
▁re ached
▁R uss
▁inter n
▁S up
▁cre ated
▁Count y
▁are as
c om
▁R ep
▁M on
▁te levision
▁c oun
▁200 5
▁R oad
▁Japan ese
▁st ation
he m
ress ed
▁success ful
▁M ad
▁ro ck
im ately
▁v al
▁G r
▁Re g
is ing
▁var ious
▁ ’
▁b ar
▁St reet
▁polit ical
▁se en
▁follow ed
▁a ver
f ield
i ber
it ing
▁to o
▁2 9
▁r ank
et t
▁E ast
op e
▁perform ed
c ast
▁R ober
▁c ult
iz ation
▁ser ved
▁201 4
▁play ers
▁f ront
re g
▁re v
al ity
▁Geor ge
▁con d
▁f ull
▁pr im
▁dec l
▁bl ack
in ation
ell ing
▁be gin
du ct
▁f le
▁p ut
▁S er
▁c irc
▁con v
▁ear l
▁P er
ol ution
▁T o
▁H en
▁c ost
ab or
id ence
▁se e
▁pro cess
▁n on
▁d iv
▁st yle
y ing
▁l ook
▁Ph il
▁se ven
▁v ol
▁a ud
▁kill ed
▁E m
▁c y
▁hel p
ric t
▁le t
l ished
pl ay
▁through out
▁B ill
▁t aken
▁t ropical
▁ab le
an a
▁f ight
▁disc over
▁ag re
ec ut
ert ain
▁lit tle
▁w id
▁bec om
▁f em
▁a ge
ur g
▁signific ant
▁S ch
▁h it
▁me et
▁ ident
▁Th om
way s
ir l
▁t echn
▁spec ial
▁c op
o ice
▁writ ing
▁st ruct
▁Dav id
▁though t
▁estab lished
▁P art
▁bro ad
▁A ct
en ced
▁M or
▁m m
▁appe ared
▁do es
▁col l
▁ent ire
▁Austral ian
av al
c il
ep end
▁ !
▁y oung
▁co ast
▁poin ts
▁mil es
i us
▁b ody
▁a ward
l ess
▁imp ro
▁R ich
▁ro ute
▁m ember
od es
ough t
▁M ed
g round
ri pt
▁w omen
▁act iv
▁r ange
st er
as k
▁P e
iv il
▁Y ou
▁caus ed
▁start ed
▁dec ided
i ers
ble m
▁feat ures
lect ed
d ay
▁Af ric
▁gener al
▁p ain
▁Q u
▁event ually
at ors
ir on
i ec
in t
um b
m en
con om
op h
og n
u k
d en
▁R oyal
▁r ace
▁ar ch
▁v ot
he re
it ar
▁gro w
▁man ag
▁fe et
pp ed
ris on
▁to get
▁toget her
us h
▁add ed
▁H ist
▁H ouse
▁t re
▁h old
ber t
▁c ut
iv id
▁18 8
▁wh ite
▁on ce
▁n ov
amp le
am ent
▁form ed
▁ar g
▁loc ated
▁st ri
ree k
ur b
▁con n
▁mod ern
o ff
▁Bl ack
▁en c
▁inst ead
d le
▁P ort
he ad
rough t
ac es
▁ro und
▁ esc
▁3 1
▁b all
ar a
▁m ix
em y
▁In tern
e e
▁import ant
▁p ri
c ing
▁cre w
▁s aw
▁a ction
▁comple ted
▁re du
▁It al
▁play ing
ect s
▁Ind ian
id s
one y
c ent
r ated
▁O ther
ell s
▁200 4
at a
▁ins p
▁b ase
▁m ater
▁pop ulation
▁M y
▁m ot
▁sur v
▁Mich ael
▁v oc
▁as k
▁r ather
▁occ ur
▁open ed
▁st age
▁beh ind
▁other s
▁18 6
r ay
▁f all
▁re n
▁gun s
as ing
ce ed
▁bro ther
wo od
em ents
ign ed
▁com ment
l in
▁l ik
st it
▁b orn
▁f if
▁201 5
▁s ite
▁l ive
▁work s
▁l oss
▁Fran ce
▁b omb
▁work ed
fic ult
▁he avy
▁m iss
▁p red
▁S chool
med i
ra p
▁sub sequ
▁l ack
▁part y
▁pro blem
nd er
le ction
▁dif ficult
▁cl ose
▁W ash
▁const ruction
▁kn ow
▁N or
▁S ome
▁relations hip
▁h ost
▁week s
ist ic
▁S an
▁origin ally
▁se par
▁ass oci
ar ch
c o
▁up on
▁pr act
▁re b
▁Hen ry
▁lead ing
▁app oin
▁acc om
▁v ill
▁al most
▁m er
▁Rober t
ort s
▁pe ak
▁A le
▁in j
▁dam age
l ic
un k
▁sc ored
▁four th
os ition
▁in form
▁re ve
▁Mus ic
ap s
▁prov ided
▁B est
m ing
▁c ase
▁V ir
▁St ar
▁go al
▁cl os
▁Batt le
bo ard
▁eng ine
▁c reat
▁R ed
▁ac cept
▁m i
▁inv est
ic a
or ing
▁sc ene
ell ow
▁D esp
▁hum an
ang u
u le
in o
olog ical
▁b rought
▁5 00
▁f ree
▁ind ivid
▁18 7
▁P aul
▁feat ured
ul a
▁m other
▁Pres ident
▁R ou
▁k ing
▁le ast
am a
▁work ing
a ut
▁allow ed
▁l aun
▁res ul
▁M il
▁aver age
▁C ap
▁to wards
▁want ed
▁m ult
▁ind ust
▁trad ition
av es
▁reg ion
▁bus iness
▁Wash ington
▁H ol
id ing
az ine
▁A g
▁Q ue
▁v e
▁qu ick
▁tro ops
▁pl aced
▁e ither
▁c e
▁resp ect
v ing
▁off ice
▁crit ics
k y
▁B el
▁av ail
▁h on
ant ic
▁re ach
▁prof ess
▁ex ample
▁run s
▁mater ial
▁e conom
▁rec ogn
▁f ar
en ed
▁w ife
z e
g o
ear ch
ch ie
▁ne g
t o
▁est im
ent ial
▁ar my
▁f oc
r ight
▁Desp ite
▁se x
▁200 3
▁inter est
▁F ollow
▁C our
▁s our
eng th
▁gener ally
▁m ass
r .
▁join ed
▁d ou
▁ra il
quad ron
▁H am
▁pro per
ill s
▁Ang el
u ff
en es
▁cur rent
▁de v
our n
▁H all
▁C up
▁ev ents
▁belie ved
▁G ame
it ch
o f
▁partic ip
▁3 5
re y
b e
▁f ig
▁Follow ing
▁K e
v ille
▁F irst
▁M ary
▁ z
▁vict ory
▁repl aced
▁L ou
▁G reat
art ment
▁design ed
▁m ph
ict ion
▁g rad
▁J e
▁r ul
it te
▁so on
▁n omin
s c
▁is land
▁G ro
▁f und
x ic
▁L a
er ous
o or
▁h ours
▁Europe an
▁T wo
▁em ploy
▁pres ident
▁M al
▁ro om
ific ation
▁invol ved
al ed
u el
▁sur f
v al
ap er
▁fin ished
mer c
▁st ru
▁Ch ampionship
in n
in ist
as ion
w est
▁M art
in f
▁Pl ay
▁bre ak
r ac
▁R oman
▁h or
ra in
a ren
if f
▁s aying
ar n
em or
▁cour t
▁sh ot
▁th reat
▁B er
▁sc ore
▁open ing
▁reg ular
▁D an
B C
▁des p
▁direct or
▁l ength
▁M et
▁200 0
▁M ac
▁D on
▁ind ic
ad es
le g
c her
▁Sc ott
▁con duct
▁larg est
▁cont rib
▁tra vel
▁h om
ou l
k i
▁poss ible
ecut ive
▁ ill
ud e
n ow
▁min utes
▁high way
▁Rou te
▁s outhern
ish ing
▁d ro
▁C ro
▁h y
▁V al
ic le
▁hig hest
▁rem ov
▁F rom
▁earl ier
▁200 1
▁t est
▁At l
▁init ially
▁S ing
ag o
▁l y
▁avail able
▁particular ly
▁per cent
and er
ant ry
▁h ard
▁W il
ann ed
▁se qu
▁tra ining
▁Rep ublic
▁for ced
▁m ust
▁ex ist
p ly
▁M id
ip p
h ib
▁M ag
▁King dom
▁Char les
▁N avy
ograph y
as y
▁ °
▁p ark
ri an
b or
ate g
▁resp ons
▁No .
▁end ed
▁qu ar
▁Mc C
▁O ff
▁turn ed
▁w all
▁Thom as
▁ex c
▁soc ial
▁Intern ational
ut ure
▁B ut
▁stud io
▁P al
em s
if orn
▁R es
ra g
▁D ep
i os
▁ch ange
▁Wh ite
▁l angu
▁Vir gin
▁pra ised
▁pass ed
▁sup er
▁pr iv
r up
▁b ill
at ural
▁p iec
▁incre ased
▁ob ject
▁Bro wn
▁ed uc
▁h urricane
▁reg ard
▁nort hern
he ast
▁200 2
▁ke ep
▁ph ys
▁cent ral
ight s
▁Ch urch
it or
▁nov el
▁rel ig
▁Canad a
s el
▁spe ed
▁appear ance
▁Cal iforn
▁un its
▁p ast
re m
ers hip
▁R ock
▁S l
ke y
▁st op
▁ch urch
▁S en
end ed
▁c ou
▁im medi
▁B ay
u ter
▁sy m
st on
▁M o
▁Sm ith
oc r
▁dis p
▁me as
▁ord ered
augh ter
▁M er
▁t reat
iqu e
▁S am
▁t aking
fer ence
▁Rich ard
ry ing
itte e
▁ind epend
▁l ove
▁Ale x
▁sign ed
▁mov e
il ities
▁Californ ia
▁a chie
et work
▁bet ter
▁p ers
um p
▁Un ion
it z
ak er
▁G od
▁a p
▁G overn
ec ess
ar ily
▁in n
▁wind s
▁Is land
▁com merc
▁en ough
▁w at
▁pos itive
ear s
n el
um e
▁Cour t
▁acc ording
▁h ous
▁sp ent
ell ed
▁go ing
▁p ot
▁ab ove
▁B ra
▁s low
ank s
▁out side
▁film s
ap t
▁T om
▁V ict
▁U p
▁C ong
▁fe el
▁to ld
▁foot ball
m a
▁A ward
ber g
qu are
▁c lear
▁previous ly
u ation
▁qu est
▁st ates
▁record ing
▁me an
and ing
▁Ass oci
▁A c
▁n ine
he t
▁p ur
us ion
▁sub ject
▁Ar t
▁f ailed
at in
ow s
▁ass ist
▁com e
▁Comp any
▁requ ired
os ing
▁4 5
ren g
▁ele ments
▁pro b
v an
▁e y
id a
▁St ud
▁c ru
al ion
▁Ind ia
▁l ower
▁German y
▁review s
▁inter view
ed y
▁ph ot
▁part s
▁M ark
▁P eter
▁G old
▁its elf
▁Christ ian
▁s il
▁n ar
▁th ink
n es
ran ch
s hip
▁direct ed
▁ab s
is l
▁ esp
▁f low
ib ility
▁desp ite
▁c red
am er
▁cont ract
▁18 5
ok e
▁N Y
▁6 0
▁Th at
▁deb ut
▁ ?
▁T imes
▁ £
▁P at
er ved
▁acc ess
read y
le b
▁C ast
▁begin ning
o id
▁b i
▁group s
▁Col lege
▁vi ol
on na
▁H ill
▁s ection
▁U K
▁S ov
ab ility
hest er
▁wh ose
▁B r
as ons
▁claim ed
▁W estern
▁intern ational
▁ask ed
▁l ines
▁trans fer
▁pre vent
▁D em
▁st reng
▁sc reen
▁g ive
air s
▁c he
▁Sov iet
on se
rie f
▁un c
▁be g
▁k ey
▁addition al
▁f uture
▁F ilm
m ar
▁G rand
▁Me xic
▁le ague
▁wh om
▁Fran k
▁o p
▁D o
▁g old
▁Sp an
▁po or
▁B en
▁A wards
▁for t
ly ing
▁introdu ced
▁ev idence
▁d on
▁pre m
it es
on st
▁se a
▁ide a
e x
▁quick ly
▁c al
at ory
▁al ready
▁S oc
▁3 2
▁cent er
▁b ridge
▁fre qu
▁For ce
us p
▁M ost
▁ele ction
▁produ ct
▁occ up
ec k
▁p il
▁ex cept
▁C oun
b ack
un t
▁de al
ir th
e um
ec ially
▁p en
▁us ually
▁mus ical
▁em b
▁w estern
▁arr ived
ar ing
▁R ob
▁bl ock
e al
▁rad io
▁St .
▁Brit ain
▁c ivil
l iam
▁cy cl
er gy
ul ly
▁O ver
▁fem ale
▁somet imes
▁D ay
▁stud y
▁f ood
▁resp onse
▁dec ision
▁m oney
▁P ac
▁mag azine
▁esp ecially
▁H ot
▁iss ue
▁L ater
as c
liam ent
▁Vict or
▁I m
▁l ab
▁surf ace
▁ -
▁lit er
g en
r ack
▁fl ood
▁m ight
ain t
▁Ch ic
▁en v
▁T ra
▁gu itar
▁car ried
▁B ur
▁show s
▁commun ity
▁const ruct
en a
it er
▁estim ated
▁ar ran
▁rem ain
ar ies
▁M ill
▁199 9
▁rem aining
▁e astern
h a
▁min or
▁defe ated
▁det erm
▁R h
in ent
ess ion
▁Virgin ia
▁Ear ly
▁appro x
ig an
▁lar ger
ra w
ul f
▁becom ing
▁ra p
▁w ood
▁comple te
▁M ount
▁3 6
ra b
r or
▁pol ice
▁sugg ested
por ary
▁med ia
▁press ure
▁ent ered
▁sh oot
▁team s
ric s
▁L os
▁J ust
▁commerc ial
▁an al
▁In f
▁d oc
▁l atter
and s
N A
▁mark et
er ve
▁l o
▁consid er
▁stud ents
is es
▁sur round
▁invest ig
▁b rief
▁conc ern
▁person al
▁Sec ond
in ct
▁b ur
▁I f
▁Te x
▁c ertain
▁pr ison
▁ac qu
▁disc uss
▁F le
▁Jack son
▁effect s
▁comple t
▁h op
▁appoin ted
all ed
▁d er
▁sum mer
▁epis odes
▁Con t
▁pri or
eder al
inc ip
▁Fl or
▁s at
▁t ar
ch ange
▁e mer
▁st aff
ent h
ly mp
▁s ize
▁Lou is
ore s
▁chang es
ul ated
▁comm ission
s y
om m
t t
im ate
▁win ning
▁lim ited
▁sc enes
▁O lymp
▁r iver
▁fle et
▁le aving
▁destroy ed
is er
▁de g
▁dra w
▁p ay
I I
▁Cl ub
▁d en
▁r id
l o
qu e
▁Span ish
▁7 5
▁s elf
g a
s u
▁right s
ourn al
▁prov ide
▁writ er
i res
rig ade
▁pol ic
s en
▁typ e
id ents
▁f ail
ar i
ens ion
▁d ate
▁t rib
▁ter rit
om s
▁K h
▁g irl
▁prop osed
r d
▁influ ence
t ies
▁G reen
▁Part y
▁over all
▁t ax
▁18 4
▁k il
▁trans port
▁struct ure
▁T er
▁cont ro
▁equ ip
▁D u
▁3 00
▁d ivision
▁sc ript
▁b r
ir al
ines e
▁Associ ation
▁agre ed
▁ant i
▁in tended
▁P ri
▁j ud
▁b ow
▁Ed ward
▁8 0
▁run ning
if t
end ing
ic les
▁Chic ago
▁d aughter
▁b ig
▁broad cast
▁p urch
▁near ly
▁support ed
▁M any
at ives
A F
▁Ad m
▁de ep
▁d i
▁res earch
▁w ide
im um
▁estab lish
▁R o
▁hel ped
▁mar ried
▁199 8
▁mov ement
▁Ch inese
▁award ed
▁mult ip
▁S ong
▁I r
▁Coun cil
il i
▁O per
il es
at ively
ac ing
ir m
▁cre ate
▁fav or
▁int ens
▁dis s
▁b ird
▁S al
▁En ter
▁d ark
▁s usp
p ris
om er
n y
te en
▁st ars
c he
▁long er
▁langu age
▁hig her
▁c at
▁E v
▁pl anned
m on
▁comp ared
▁capt ured
▁incre asing
▁f ans
▁A .
▁conc lud
▁cour se
u z
▁chang ed
▁S erv
▁Sup er
▁E mp
▁John son
▁3 3
ound s
▁exper ience
▁approx imately
▁rel ated
sel ves
▁d one
▁feat ure
▁fif th
▁l iving
ent y
▁K ore
▁them selves
ab it
▁Hist ory
▁produ cer
b ers
it t
t ained
a rent
▁tem per
▁sp ace
▁track s
▁most ly
▁Pac ific
is ions
▁with d
s s
▁In ter
▁B ack
ut h
an ced
ol ic
▁Bill board
i j
▁th us
▁A pp
▁B et
▁N ot
c an
▁w oman
▁de ad
um n
▁M ont
▁oper ations
▁im m
▁rem ains
▁sy n
▁b ring
▁quar ter
th ing
▁o ur
▁n atural
▁whe ther
im in
v in
▁ ult
oin t
▁con cept
▁we ap
▁d ram
▁F inal
▁Sc ot
and ed
▁prob ably
▁sold iers
▁r an
r ast
▁cop ies
▁S un
b our
▁build ings
▁lead er
▁v oice
▁199 7
▁f ace
▁b oy
▁ex tended
▁S ince
▁ly rics
▁for ward
▁dep art
▁K n
▁comple x
▁bo ard
▁Atl antic
▁re act
ir ing
▁batt les
ve y
▁iss ued
▁he av
▁ch all
ri age
g ing
▁re ally
▁count ries
osp ital
▁3 7
r ate
▁suff ered
▁L ake
▁Cong ress
▁c m
▁L ove
▁F ort
▁Fran c
▁go als
▁Flor ida
ur t
▁Se ver
▁includ es
▁immedi ately
▁met h
▁B oth
▁at tend
▁B ig
h ood
▁bre ed
▁cap ital
▁manag er
▁7 0
▁mix ed
▁priv ate
i ant
▁J im
▁J ew
▁offic ers
▁lik ely
▁O ld
▁can n
▁dist rib
h old
▁An t
i en
▁m ach
▁Que en
d e
b ury
▁remov ed
▁Tex as
▁pl ant
▁init ial
▁ce leb
▁Se a
▁incre ase
ven ue
▁T own
▁he alth
▁subsequ ently
▁D ist
▁le ave
▁pl ans
ri a
▁al ways
▁foc us
▁c oin
▁L aw
▁n etwork
ect ions
▁serv ices
▁m ount
▁v ia
▁stat us
▁comp an
▁T rans
▁T or
ri al
▁P et
▁Ch ina
▁vis it
▁loc ation
ord er
am s
▁An other
i ation
▁fl ag
▁problem s
▁L ord
▁C amp
▁H ow
▁Ear th
▁off ered
▁inst r
w ell
ous ly
ail y
▁mod el
▁term s
▁n orm
et ic
▁m ur
▁Con st
▁col on
▁appro ach
▁somet hing
▁vill age
▁adm inist
▁t ons
▁f ell
oun ted
▁W ood
w er
▁B oy
ct or
▁O l
▁t or
iron ment
▁s ch
▁major ity
▁T ur
▁profess ional
orn ing
▁coun ter
▁18 3
▁Canad ian
▁I ts
ad ium
▁R ail
▁g ot
ib r
▁Afric a
▁c ause
▁M ur
▁cons ist
b urg
ac hes
ur ies
▁inter s
▁dam aged
▁meet ing
▁G re
▁j ob
▁appear s
▁ad op
▁min ute
▁rank ed
ol k
▁l ay
▁Cent er
u f
▁individ ual
o es
▁comp osed
ce an
▁reve aled
▁S quadron
▁High way
if y
▁an g
st e
▁fl ight
▁attack s
▁Russ ian
it ect
▁pl ot
▁discover ed
▁ra ised
l or
re ak
um ed
▁fin anc
▁R ad
▁M el
▁respect ively
▁m akes
p an
▁K ent
▁Car ol
▁Mart in
▁Cent ral
▁S ir
▁num erous
▁II I
▁199 5
▁associ ated
▁al tern
g ar
▁t akes
▁Angel es
▁d omin
▁need ed
▁insp ired
▁B ow
▁an c
▁l ived
▁3 4
o e
a ult
▁g rand
▁laun ched
▁y et
ri ption
▁c and
▁n ature
▁p ow
▁am b
▁d ig
▁co ach
▁occur red
▁cont ains
▁D V
▁ve h
est ival
▁b ene
▁sh own
▁attempt ed
u als
▁attack ed
▁D es
um ents
▁mov ing
▁cond itions
▁up per
▁h our
▁T V
k a
i est
d own
im b
k en
▁s ales
▁g ra
ect ive
▁3 8
▁Gro up
▁M iss
j oy
▁Y ear
▁col lect
▁201 6
▁D el
augh t
▁T our
▁199 6
or ce
▁iss ues
▁b irth
▁Re v
▁who le
▁ i
▁s al
iz ing
▁ex am
▁c er
▁inform ation
▁y ards
▁f arm
▁sl ight
▁Emp ire
▁O ut
▁bo x
ur ity
▁m om
w in
ver t
▁refer red
u ing
▁crit ical
o ly
▁19 th
▁inc or
re me
▁U nder
▁P enn
▁G ar
▁num bers
▁fin ally
▁small er
▁elect ed
▁se lected
▁defe at
▁resul ted
▁s en
▁sc ient
▁st ay
▁b ad
▁gr ant
▁qu al
▁act ive
▁pr incip
▁sing er
k in
▁stand ard
▁sec ret
▁p it
it ation
▁Ital ian
u ated
▁m ission
▁indust ry
▁9 0
▁199 4
en ant
▁larg ely
▁en s
▁oper ation
▁s em
and on
▁J ose
▁pre c
▁l ink
ort un
on ic
ou ra
▁ass igned
us e
▁s af
▁leg isl
▁ear ned
▁th r
▁comment ed
it ude
▁J .
▁m ale
▁exp ected
▁DV D
▁Cor ps
il ed
▁D is
▁ro y
▁aud ience
▁list ed
▁sugg est
▁g re
ou d
▁C rit
▁Ar m
▁cover ed
▁pur p
▁un able
ire ction
▁sc hed
▁he art
▁tradition al
▁C r
▁educ ation
▁tr ade
g r
▁art ist
▁new sp
y a
▁dou ble
▁friend s
▁cl osed
▁V iet
▁under st
▁ref used
▁a w
ag on
▁rec over
▁att ention
oun ts
▁meth od
▁prim ary
igh ter
▁s ister
og ue
▁k ind
▁t alk
▁Mich igan
▁P re
ter ed
▁re ason
ff ic
▁offic er
▁pl at
▁bel ow
▁cont em
hip s
▁W ales
▁en joy
▁ab ility
▁dep ression
▁me ant
▁M ass
▁perform ances
▁decl ared
o o
▁w alk
▁N ort
▁4 9
▁bl ood
is her
▁M ore
▁g iving
▁C ath
▁let ter
▁comp l
▁w ord
und red
pl es
▁fight ing
▁18 0
▁mid dle
▁C le
▁command er
▁relig ious
▁book s
▁the at
▁m ax
▁h ot
▁set t
▁r ate
▁O x
▁Ar ch
▁St ep
▁L ong
▁record s
il s
▁mat ches
▁const it
▁Ac ad
▁n ames
on a
ap ed
▁B ec
▁T est
▁Dem ocr
▁produ ce
▁quest ion
▁F er
▁C are
ant asy
▁compet ition
ut ch
▁cent re
▁ser ious
▁un it
u x
▁Te am
od ies
▁dis app
▁to uch
▁voc als
im s
▁Min ister
ir t
▁Sever al
i ences
▁m ention
▁Z eal
os h
ound ed
▁199 2
▁ ri
▁M ajor
ect or
▁C ons
▁4 1
▁acc ount
▁doc ument
▁ab andon
▁W al
ro ad
ic ted
▁rap id
▁en ergy
▁n ecess
a res
▁m or
qu ar
▁kil omet
▁K enn
erv ation
ech an
▁F ore
▁d ut
▁construct ed
en ing
▁them e
▁r is
ru g
os es
▁1 st
ri er
▁F ox
▁S um
▁T ime
et te
▁roy al
▁p ick
ish op
▁st ra
▁near by
▁high ly
▁separ ate
▁Zeal and
y r
▁E r
▁contin ue
vent ion
▁pre p
▁S o
▁ch ief
▁dr um
ail s
▁eff ort
▁c as
▁present ed
ed ic
▁H aw
▁t ur
▁S ar
▁comb at
▁Mexic o
op er
▁pos itions
▁Afric an
▁redu ced
▁ann ual
▁B u
et her
▁4 00
ib ly
▁contro vers
▁Ch ris
▁M att
▁direct ly
ie ut
▁M a
▁F our
▁level s
c el
▁me ans
▁c le
▁ne igh
▁W all
▁not es
▁at tended
▁se vent
▁pract ice
▁t ried
sh ire
▁comp os
▁fore st
u it
emor ial
▁5 5
▁f ast
▁h ar
▁n uc
▁ed ition
▁tra in
▁L it
▁B rad
▁D ar
ac her
ad o
▁Ch art
▁T re
▁B ob
aren ts
▁tw enty
v ement
▁met al
▁199 3
▁Mad onna
▁accept ed
os en
▁w atch
▁20 th
▁st ating
▁199 1
▁mov ie
▁arch itect
▁te xt
r ical
▁H el
▁rep e
▁cand id
is ation
t rack
▁conc ert
▁Scot land
▁adv ance
stit ute
▁17 9
▁p air
▁J ones
▁port ray
▁d irection
ir med
h ouse
▁f r
ers ey
▁se em
▁dis m
▁The ir
▁school s
▁leg al
▁An n
an i
▁re ject
ew ay
l ict
in em
i h
w ide
▁as p
▁M anc
ic ip
f all
▁g e
▁hor se
▁C ross
▁th ick
▁mar riage
ill ery
▁ +
ag ing
▁rec omm
▁G reek
▁Dep artment
l ight
▁eff orts
▁man aged
▁col lege
▁D ou
a wn
▁3 9
▁p urs
l ike
ic ient
▁G o
▁w ing
ut ions
h y
▁result ing
▁end ing
ir it
ieut enant
▁Th ree
b and
▁show ed
▁dro pped
▁respons ible
▁M ic
▁P ost
M S
▁Inf antry
▁18 2
▁n ation
▁dis play
▁ins ide
ill ed
▁F oot
it a
▁c ases
▁ke pt
▁c ust
▁env ironment
▁L ad
▁B ost
▁4 8
▁cult ure
▁ra re
▁mean ing
▁r at
▁Le g
▁cycl one
ol f
▁d om
▁incor por
▁beg ins
▁4 2
▁var iety
ceed ed
▁m orning
p e
▁sub st
▁cer em
p ass
▁hous es
▁St one
▁form s
▁ch ampionship
▁Serv ice
▁w ords
ran e
▁ar rest
▁sch ol
▁C reek
▁y ard
per or
▁William s
▁H ung
▁o il
▁B .
▁Rec ords
▁Sec ret
▁mark ed
▁inc hes
ce nd
▁contin ues
▁sp l
in i
▁sc ience
▁B C
▁per m
▁18 1
▁sym b
g l
▁New s
gy pt
ect ing
ol s
▁b ank
▁H al
▁St an
▁Par liament
▁us es
▁econom ic
▁S ur
w rit
c le
▁sour ce
▁G ames
t hel
b ed
r as
▁F in
▁T ro
▁qu ality
▁def end
▁P an
▁T ri
ul ations
▁le ar
▁h undred
▁C .
▁set tle
▁imp act
▁start ing
▁conduct ed
▁B ook
th ur
▁spec ific
w h
▁stru gg
▁allow ing
▁E gypt
▁D r
▁Soc iety
▁be at
▁194 2
▁pres ence
▁S ol
▁am ount
▁d u
▁J er
▁s ides
▁O h
▁view ers
▁cap tain
sy ch
e en
▁d ance
▁met res
ing u
▁ch ap
▁un ivers
▁sup pl
▁L u
▁ex hib
▁r ule
▁p le
▁Pr ince
▁S outhern
▁V er
▁Step hen
▁dist inct
▁multip le
▁Geor g
▁S at
d ing
▁transfer red
▁pot ential
▁Comm ittee
▁fore ign
▁4 7
▁L atin
▁cont rast
▁Ox ford
▁6 5
▁peak ed
in et
it iz
▁en emy
▁y our
ar ian
▁S il
▁tra ffic
▁becom es
▁m ess
▁Sp ec
p ing
▁D .
▁own ed
▁th ings
▁found ed
▁gre ater
▁Jose ph
▁L ike
▁voc al
▁Adm iral
▁o pt
▁conclud ed
▁port ion
ver y
▁cast le
▁sc oring
▁C amb
id er
▁resp ond
y m
▁st ories
▁proper ty
ian ce
▁attempt s
▁enc oun
▁Bost on
r ong
an es
▁rel atively
k n
▁T w
▁Ch ief
▁Manc hester
▁prim arily
▁dem onst
▁Har rison
▁Je ff
▁financ ial
▁f ederal
og rap
▁Cl ass
ress ive
ell ig
▁F orm
▁Cap tain
▁Bec ause
▁Be fore
▁act ually
▁anim als
▁Sw ed
▁obs erved
▁H urricane
▁to urn
▁l if
▁W in
▁col lection
▁T im
▁opp ortun
f ect
▁Viet n
▁B at
▁tit led
▁5 2
▁D en
▁feat uring
ist ics
▁writ ers
▁4 6
▁writ e
▁194 4
▁De f
▁j ournal
ed s
▁w a
▁B ridge
e es
▁F red
▁streng th
▁w or
um ber
▁in ch
▁m echan
▁we aken
▁sit uation
▁O tt
▁sp ot
▁p aid
▁dist ance
▁prem i
▁p arents
▁Comm ission
▁independ ent
▁Batt alion
▁fig ure
▁sh are
m as
re l
▁m el
▁act or
▁6 4
▁act ing
▁compan ies
▁div ided
▁Lit tle
▁Par is
▁m ind
▁4 3
ste in
▁on to
▁Pro du
ast ic
▁L uc
▁coll abor
▁L ife
▁Col umb
▁Car l
▁tar get
ann a
▁slight ly
▁fun ction
▁piec e
▁Ser ies
▁re form
▁M od
▁s elling
▁4 4
per ial
▁Enter tain
a ud
rick et
▁power ful
▁G ra
▁tor ped
▁conc ent
c hest
▁inn ings
▁r ating
▁M ax
th let
or ation
▁B BC
▁play s
ist ry
▁ro ugh
▁l ot
▁to day
l am
▁bro ke
u ge
▁ch o
▁er a
os aur
▁P op
ann el
▁199 0
▁Cro at
▁act ions
▁wat ers
▁ult imately
▁O s
▁Hist or
▁tri al
▁s quare
▁max imum
ro wn
ad a
▁dis e
▁te nd
it an
▁pil ot
l oad
▁b ound
▁l og
ill a
▁inter p
rup t
▁complet ely
▁Acad emy
▁bl ue
und er
▁s ought
▁g ar
ot i
▁194 5
▁S .
m ond
▁' m
▁sc ale
m ark
▁soc iety
▁L ine
▁ ess
▁beh av
▁h us
▁Mus eum
▁S aint
▁main ly
▁S k
ot a
al le
▁design ated
▁194 1
z a
▁H or
om y
▁con ver
▁official s
▁V an
▁stru ck
▁trans l
c ers
▁15 0
yl van
▁activ ity
▁polic y
▁comb ined
▁s ay
▁W ay
▁influ enced
▁w ear
ol ved
▁c orn
ian o
▁se arch
A S
▁Entertain ment
▁A rab
▁v ess
▁Ital y
ent ed
▁th ous
▁call ing
rac ted
▁along side
▁nort heast
▁second s
▁b atter
al a
▁B rigade
▁s out
▁W ind
ors es
wh ile
▁Americ ans
▁win ter
▁Con f
▁sour ces
▁Le e
▁se g
▁back ground
ph y
▁I re
▁we bs
ain e
▁ ice
▁new s
ud d
▁th ir
▁T od
▁the ory
r ative
▁rec ent
▁Al b
▁su c
T V
▁m em
▁c row
▁g ained
▁nomin ated
▁plat form
H L
on n
▁art ists
ad el
▁Reg iment
▁wid ely
▁n aval
quar ters
▁system s
▁promot ed
▁elect ric
▁conf irmed
ub e
▁Ire land
p son
▁reach ing
▁pro ved
▁resul ts
▁A venue
▁pass ing
ibr ary
▁Fle et
▁album s
▁G ood
▁E ll
▁expl ained
▁subsequ ent
▁conf lict
▁great est
er o
▁2 nd
▁w ick
▁cont ent
▁inv asion
▁ ir
▁s n
▁A ut
▁R ay
▁198 9
▁com ing
▁char ge
▁he ro
▁pe ace
▁res ist
▁six th
he w
▁north west
▁we ather
ou red
▁count y
▁ad j
▁Or ig
▁short ly
g rad
▁194 3
t own
ag a
▁B us
▁vers ions
▁S ub
▁p ath
al ing
▁ser ve
▁caus ing
▁s ays
▁su st
▁L o
▁5 1
▁exp ressed
ic ed
▁rece ption
▁se ek
▁Victor ia
▁S ant
▁b urn
it ness
▁Cath olic
▁res idents
▁em ot
b on
▁b order
▁N orm
▁Char l
▁T ropical
▁W ork
▁c hem
▁sound track
ans ion
▁Val ley
▁c ities
▁Ad d
▁M at
ip s
▁g reen
▁se asons
▁M .
t ation
▁N in
ateg ory
▁appear ances
▁s ense
▁D i
▁L ight
▁sex ual
▁h ospital
▁requ ire
A A
▁D r.
inf all
▁Mid dle
▁p un
▁phys ical
▁ident ified
▁old er
igh th
▁hand s
▁L ive
ard en
▁ iron
▁R am
▁D un
▁Th ough
▁tr ue
▁t ells
▁off er
▁L iber
▁d edic
▁' re
▁k g
▁R y
un ction
▁Comm un
ys is
▁art illery
anc y
▁Sh ow
▁represent ed
▁T op
▁weap ons
▁V ol
▁ext ra
▁g as
▁Foot ball
▁a head
▁Th rough
e ption
▁p al
ad ed
▁M en
ron ic
ylvan ia
▁e as
▁K ar
▁J ul
▁heav ily
▁B ey
▁Up on
▁Y oung
▁sup p
▁D irect
ab eth
▁198 0s
it able
▁T ay
▁194 0
▁av oid
▁D utch
l ers
▁def ense
▁chall en
▁stud ent
▁ag g
▁We ek
▁al one
▁im age
▁sp read
▁app arent
▁stud ies
▁offic ially
▁El iz
▁hus band
kn own
▁dist rict
▁I ll
▁ex ecutive
▁b it
▁inst it
▁Al bert
▁F re
b ur
ess ions
▁deb uted
▁w ild
▁prom inent
▁capt ure
▁p ack
▁se nd
▁cons isted
▁instr ument
▁inj ury
▁f ired
▁organ ization
▁equip ment
▁R og
port s
▁res c
▁st one
p ool
▁pat tern
▁F ar
▁pre par
▁B re
▁arg ued
▁D am
▁a ired
▁fig ures
▁B ond
▁sur pris
▁exp ed
urb an
▁grow th
▁e th
▁p ict
ac ity
▁C ivil
▁H omer
▁b ud
▁h un
▁cou ple
▁g raph
▁do ing
▁return ing
▁mag n
▁r ing
▁contem porary
us hed
▁po et
▁c ert
l ines
ro g
▁p an
▁we ight
▁197 0s
▁o x
▁l aid
▁dou b
▁h abit
▁ear th
▁lead ers
▁st ep
▁fl oor
▁mat ter
▁aff ected
▁Nort hern
▁G al
▁piec es
▁t un
▁6 00
ap pen
am ber
▁prop os
▁St orm
i as
▁main tained
▁196 0s
in son
▁r ang
▁occ asion
▁she ll
▁H ard
▁he re
if ying
▁vis ited
▁H a
▁main tain
ent al
▁commun ic
▁Dan iel
▁com es
▁spe ech
▁term in
▁critic ized
em ic
▁hy d
▁activ ities
st one
▁ra in
r at
▁J on
▁Carol ina
oc key
▁ex ec
▁att ract
ac ement
▁h all
ol a
▁c itiz
▁tourn ament
▁re ign
▁em ph
▁to ward
ock ed
▁sing les
ul s
▁d rug
▁tre es
e ed
▁refer ence
n ers
▁Scott ish
▁crow d
▁T em
▁sen ior
▁form ation
el ve
▁5 3
▁ad apt
▁198 7
▁sur re
▁R om
▁Mar sh
▁set ting
▁med ical
iv ity
▁world wide
▁Sy stem
▁territ ory
▁t rying
▁Govern ment
est ic
▁Hol ly
▁198 8
u ct
▁app l
▁st ations
orn e
ru it
▁d og
▁b ul
▁neg oti
▁bird s
▁W rit
▁F antasy
▁g od
▁O cean
g ian
▁Oper ation
ell er
▁d oll
▁Back ground
▁F ield
▁mach ine
▁f ellow
▁Govern or
▁mur der
emb ly
▁R od
▁claim s
▁Dist rict
▁H ome
▁c ell
▁dis pl
▁8 5
▁De v
▁histor ian
▁Gu ard
▁ra infall
▁ris k
▁C he
om ers
▁acc ident
▁Penn s
▁f ully
▁Col on
▁l oad
ul ed
▁val ue
▁there fore
ot e
▁spl it
b it
res h
▁Du ke
▁ch osen
▁treat ment
▁un iversity
▁gu est
▁Sh ort
velop ment
ra el
▁s ens
▁tw ice
▁Stud ios
▁frequ ently
▁G irl
▁sup ply
ag n
▁Pol ish
▁L ew
▁report s
ord in
stit ution
▁le aves
▁Be at
▁govern or
il ly
ay er
▁p aper
g u
▁ ut
▁Sen ate
▁rem ark
al y
▁H .
▁d yn
amp ion
▁E astern
led ge
▁lab el
iz es
▁f aced
▁M D
az z
▁op in
▁wall s
▁follow s
▁C orn
▁bill ion
▁oper ated
▁B art
▁g rew
ant ine
▁R os
uf act
▁surround ing
▁plan et
▁Me an
▁s we
re ct
▁And rew
or ter
ant ly
▁cont ained
on ents
ge nd
▁cond ition
res p
▁deg ree
▁b al
▁her self
▁h orses
m in
▁man ufact
▁Christ mas
▁N ight
et y
▁col or
isc o
▁J ud
▁s le
▁accom pan
▁w ounded
ran ce
▁typ ically
▁esc ape
▁All ied
▁5 4
▁pass es
▁un f
▁m aster
▁sim ply
▁Wil son
▁bro wn
▁f uel
is ters
▁re inf
ut ation
▁rail way
▁In st
▁ele ment
▁d raft
▁d ang
▁Tay lor
am ing
▁ed itor
▁l ives
l a
▁198 6
▁ord ers
▁arm s
▁Eliz abeth
▁ph il
ful ly
m it
m ore
▁serv ing
▁not hing
ograp her
▁c amer
▁H um
▁Alex ander
u ous
▁author ity
▁ch ose
▁M ike
▁opp osed
▁work ers
▁vot e
▁mom ent
▁G i
▁cons ecutive
▁cann ot
ric ult
▁P en
▁E ach
▁new ly
▁9 5
▁Jo e
t ar
▁O f
▁n ative
▁J ac
▁5 6
▁f an
▁exper iment
uck y
▁un known
▁9 7
is f
▁particip ated
ag er
r ich
▁grow ing
▁P ers
▁webs ite
▁cas ual
▁emph as
▁p sych
▁att rib
anc ing
▁D et
▁produ cers
▁b ass
e f
▁newsp aper
▁f air
▁Cast le
▁bene f
▁l osing
▁Ex p
▁F estival
▁L and
▁adv anced
▁adop ted
il ies
▁film ing
im ens
▁S ound
▁he ard
▁sp irit
▁fe ed
▁sever e
▁Penns ylvania
pt on
▁off ensive
▁f irm
▁opp osition
t hen
▁f iction
yp e
▁R et
▁ex tend
▁Wh at
▁gu ard
▁W at
▁cap acity
▁ rom
▁He ad
ors hip
▁Is lands
▁bas is
▁coun cil
▁sequ ence
▁act ors
▁C ard
▁W W
z y
▁end s
▁17 7
▁a st
▁Rec eption
▁H y
T C
and a
▁we ak
▁s quadron
us es
▁G all
▁Bl ue
▁pr in
▁comp ar
▁adv ant
▁re ar
▁abandon ed
ur a
av en
▁Ir ish
▁F urther
▁r ival
is ers
▁T ech
▁S S
ab les
i ated
▁prom pt
▁B ab
▁k ick
▁hon or
▁f lying
le ment
▁ele v
▁ent er
▁co al
▁M r.
▁be y
▁creat ing
oc ated
▁F am
▁J ersey
on c
▁Sp ain
▁laun ch
▁film ed
▁Har ry
▁pol l
B A
▁regard ed
▁h appen
▁norm al
▁exp ansion
▁P .
▁critic ism
▁individ uals
▁hom es
▁199 0s
▁C at
▁agre ement
▁bey ond
el d
oun ger
▁U s
▁inc ident
▁17 8
▁sp ect
▁7 6
F A
▁sp ring
▁S quare
▁del ay
▁fail ure
ap ers
▁C a
▁l iber
▁Co ast
▁ev ac
▁de ploy
▁ey e
▁dism iss
▁ch air
▁sp orts
▁L ind
▁fam ous
in er
▁in te
▁v o
▁s ail
▁F e
▁meas ure
▁193 9
▁A re
▁S and
▁poss ibly
▁bo at
im et
▁histor ical
▁neg ative
▁R .
▁b odies
▁C D
im a
▁' ve
▁U l
▁achie ved
▁m ob
▁cont act
▁B ul
▁W ild
▁prog ress
▁stri ke
▁sil ver
ific ations
▁belie ve
ic o
▁M ul
▁P ublic
▁E nd
▁E lect
▁ro les
▁Bro ad
▁ ur
in y
▁Produ ction
▁nar row
▁C y
▁kill ing
▁V en
▁ret ired
▁ide as
▁In stitute
▁L y
▁Is rael
i enced
▁dr ive
on ent
▁dise ase
m osp
ian a
h ol
▁p et
▁torped o
w ar
▁im ag
▁brief ly
k ins
▁6 1
▁d iam
▁Ar thur
▁L iver
▁Rev olution
im al
▁D ue
▁196 8
▁198 5
▁t ask
▁effect ive
▁t ree
▁ar med
▁app lic
▁arran g
ed om
▁to wer
▁As h
▁6 6
▁C ub
▁bud get
▁per man
▁rece ive
▁repe ated
▁administ ration
▁grant ed
▁necess ary
▁person nel
▁road s
▁S und
ock s
▁reject ed
▁Mean while
en ger
▁t able
▁P erson
▁Republic an
▁tw elve
▁Cl ark
▁kilomet res
▁in h
▁Do ctor
▁gro ss
▁impro ved
▁lead ership
k es
▁Al bum
▁col umn
w orth
▁inter change
▁y ellow
aval ry
▁ext ensive
av ed
▁d ata
▁197 0
▁M ir
▁Oh io
▁T y
im ents
our ney
▁stra ight
▁turn s
▁land s
▁pl ants
▁inf antry
▁purp ose
z il
▁par alle
▁L es
▁manag ement
▁B ell
▁exp ress
▁def in
▁Bo ard
i ć
▁se at
▁land ing
o ch
ol n
▁describ es
▁exp anded
▁Secret ary
▁sol o
▁f ranch
om a
▁ch oice
▁successful ly
l usion
▁m ile
▁bro ken
adel ph
▁le arn
s et
▁t ru
▁cross ing
▁did n
▁int ellig
▁anim al
u ate
▁198 4
▁del iver
▁S a
▁E p
▁expl os
▁Phil adelph
▁f ought
g ers
▁ch or
▁ex cl
▁Pro t
▁B ru
▁R A
▁organ ized
▁c aught
▁E .
▁8 00
er c
▁veh icles
▁commission ed
▁sugg ests
▁B urn
▁ro of
▁gl ob
▁E ven
▁acqu ired
h aps
st ream
et ball
▁pl aces
▁comm ittee
▁N ever
ri f
▁anc ient
▁dram a
e v
▁I S
▁H it
▁Georg ia
▁cre ation
▁S her
▁M ov
▁Camb ridge
▁typ es
▁f at
app y
▁5 7
▁g ives
▁L ar
▁Philadelph ia
▁art icle
▁com edy
▁sevent h
▁pre fer
▁nuc lear
ak ers
▁so ft
z er
▁un su
▁w ave
i i
m s
▁12 0
a ith
et ts
▁S R
▁W .
▁author ities
▁cont ain
▁head quarters
▁R el
▁Al so
▁196 7
▁cent uries
▁common ly
▁determ ined
r in
▁is lands
▁gen us
n s
▁ro ll
▁Add ition
▁mention ed
att le
▁Russ ia
▁M ah
▁b ott
▁rec ently
▁st reet
▁tra v
ot ed
um es
▁W ars
▁be aut
▁enc oura
▁look ing
▁G il
▁control led
am in
▁fav our
ip l
rest ling
u an
▁Comm on
▁198 0
art s
ol es
▁Ar g
▁set s
▁fam ilies
▁Am ong
▁house hold
▁sec urity
▁Liver pool
▁a im
▁find s
▁6 2
▁ad vert
▁s and
▁dec re
▁Nin tend
▁d rop
▁sup por
▁ac ad
▁stand ing
v a
▁l a
▁ill ust
is hes
▁L inc
▁un p
ut ing
▁Nintend o
out s
g n
▁Ch ap
▁sing ing
▁withd raw
▁K a
▁Ear l
▁f ish
▁H ay
▁d ial
▁v en
▁batt alion
▁ref lect
▁J enn
▁Pr ime
▁Columb ia
▁s ac
▁B ad
▁un ique
it led
▁dec k
▁he ight
▁cont aining
▁cult ural
▁entire ly
▁or chest
▁prot ect
w ater
▁fin ish
▁Linc oln
o h
▁touch down
▁m ist
▁Sing ap
ill ing
▁contrib uted
▁As ia
▁t ry
▁them es
▁De velopment
▁Kore an
▁y ounger
▁prov ides
▁def ence
▁flood ing
▁L ieutenant
▁Bra zil
▁198 3
pp ing
▁at mosp
▁5 8
▁Ch ild
▁7 4
▁a wards
ro om
▁tit les
▁m is
ul ate
▁purch ased
. com
▁Jew ish
▁pow ers
in ity
▁arr ival
▁H un
▁con vers
▁sched uled
▁def ensive
▁Franc isco
resp ond
▁res emb
▁R ol
▁Singap ore
▁th ing
▁accompan ied
w all
▁cerem ony
ic ial
▁un us
▁qu ite
▁per fect
▁196 4
▁exped ition
▁Pe ople
▁w orth
▁S ix
w ick
▁196 9
at ures
▁loc ations
▁exist ing
▁D ark
▁H on
▁inter act
▁advant age
▁perform ing
▁P ot
▁Care y
▁phil os
▁Off ice
r ons
▁dedic ated
▁comp uter
▁L is
▁7 2
▁b at
ac ted
k er
▁B or
▁Dis ney
▁ext rem
▁requ est
C .
l aim
▁intens ity
S tation
▁T am
▁K ey
▁st ore
▁occup ied
▁191 4
d y
ag an
▁wh y
▁s quad
▁191 8
▁Play Station
▁f resh
▁H MS
▁car ry
▁m ounted
il ing
▁Or der
us c
▁K el
ash ion
▁n ob
▁198 2
▁T urn
t a
▁f ix
▁t ail
▁197 1
▁m outh
▁And erson
▁Bro ok
▁B alt
▁c ricket
▁m ic
f ort
▁M ot
▁Ste ve
▁clos ely
r ations
▁cons ists
▁current ly
▁Lew is
man n
▁Mill er
▁l ic
▁s ession
▁196 6
hen s
▁By z
▁197 2
▁Rad io
▁D ie
▁Con ference
y les
▁t im
▁197 9
▁indust rial
m outh
▁e gg
▁B as
▁sim ple
av a
▁5 9
▁el imin
pp er
▁var i
▁p iano
▁On ce
▁fac ilities
▁c old
il ton
▁support ing
▁dra wn
▁Gr ant
▁Olymp ic
▁t y
w are
▁tra ins
▁Con n
▁bel ong
▁P u
▁Sh ak
▁prot ection
▁bo ats
▁B rian
▁r ated
▁r ise
▁def ined
▁se lection
▁ste am
▁h arm
▁ro w
ot ic
▁196 5
▁reg ions
i ro
▁S u
aw a
▁Bar b
▁sub mar
▁Rail way
▁prot ected
▁call s
▁pro s
▁h air
▁N HL
▁ #
▁com ic
▁Em peror
▁mot ion
g est
ver se
▁struct ures
▁th row
▁l ap
▁a id
▁sh ark
▁At t
▁l abor
▁M u
▁foc used
▁opportun ity
▁9 9
▁197 5
▁eng aged
▁rece iving
ing ly
ir ation
▁cor respond
▁shoot ing
▁anal ysis
▁sp ort
▁citiz ens
▁mot or
b a
▁obs erv
▁streng then
▁G ulf
os a
▁not able
▁3 rd
se y
▁ad ap
▁A v
▁Sum mer
uz z
▁P ress
▁W ater
▁exper ienced
▁German s
▁Holly wood
ul ts
▁Ser b
u a
▁con ference
▁prov iding
▁hold ing
▁Wal ter
▁In c
ing er
▁vis ual
▁mount ain
▁ey es
▁H an
▁On ly
▁197 4
▁res ident
ol id
▁18 th
▁Dav is
ad ing
▁sout heast
▁m ut
▁L ab
▁h ired
▁chart s
un ior
▁view ed
F L
▁mer ch
▁b ranch
he im
if ically
in th
▁rapid ly
bur gh
▁ro b
▁recogn ized
il er
▁197 3
▁G ib
▁vol ume
▁v ac
op her
▁trans form
▁al le
▁Democr atic
▁Re view
▁pro te
▁schol ars
▁6 3
▁sit es
ess ed
▁g ain
▁7 7
▁Spec ial
▁L .
▁casual ties
▁te ach
▁h yp
▁sh ared
▁conc er
▁paralle l
▁U N
▁7 3
▁Je an
▁Bet ween
▁public ation
▁D own
▁c art
▁temper ature
▁dig ital
▁F all
▁197 6
▁mod er
▁econom y
▁R ome
▁B ank
▁K ir
▁develop ing
▁ste el
▁react ion
▁ed ge
b ox
f riend
st anding
▁c ool
ro ll
▁Pr inc
▁inters ection
▁symb ol
al i
z en
▁Lad y
y er
▁appro ved
onc é
▁second ary
▁ch ance
▁N ap
▁Pro v
▁G ord
▁O b
▁v on
▁hyd ro
om ew
▁loss es
▁my th
▁cont est
r ant
▁r ac
ren ce
▁prep ared
▁subst ant
▁M as
▁belie f
it ors
▁D aily
▁T en
▁en l
▁Mus l
if ul
▁let ters
á n
olog ist
s .
ograph ic
▁W omen
▁significant ly
▁w itness
▁band s
▁s ort
ond er
▁c ard
▁s ave
▁N az
▁dom estic
▁Sy d
▁25 0
▁franch ise
▁kn ew
ry st
▁go es
▁liter ature
▁Bey oncé
er al
▁unsu ccess
▁inst ruct
▁head s
ach us
▁south west
▁act ress
▁techn ology
▁sem i
▁6 7
▁ad vent
b reak
▁des cend
▁rough ly
or a
ran ge
▁ urban
▁c ab
ast y
▁Comm and
▁B ern
ak a
un te
▁Pl an
thel ess
▁pain ting
▁ad ult
▁l b
▁M ain
▁any thing
▁c ars
▁p itch
en c
▁project s
▁ass ault
▁Ind ust
▁Colon el
▁ex act
ell a
▁brother s
i ents
▁resist ance
▁game play
▁P oint
▁c ore
▁N ick
▁sh ape
▁story line
▁Wh it
▁Sup reme
▁re asons
▁F air
▁rul es
im inal
▁ ign
▁employ ed
▁t ank
▁I V
rop ri
▁V ar
▁Kent ucky
▁d aily
▁St ation
▁sh all
▁inj ured
▁194 6
▁Sp ring
▁wat ched
▁198 1
at i
▁ag ent
ony m
▁popular ity
▁comp osition
▁ −
▁9 6
ir a
▁C ur
▁per haps
▁f it
▁is ol
▁add ing
▁enjoy ed
▁ren amed
▁opin ion
▁195 0s
▁Ind epend
▁get ting
om ic
▁decl ined
▁cal c
▁Nor way
o z
ag ement
▁R oss
▁comp ris
▁6 8
▁rep utation
▁8 2
▁l ov
▁n or
os l
ink ing
▁The at
▁P rem
▁sh aped
▁est ate
▁conn ected
▁under t
▁re nd
▁ret ire
▁d rew
▁191 7
▁mus eum
▁po em
▁regard ing
b ound
▁Olymp ics
o ir
▁M os
▁st ages
ul pt
▁Phil ipp
▁conver ted
▁view s
▁d ry
ce ived
am m
▁Gold en
▁Mass achus
g al
h an
▁W alk
if orm
▁B ase
▁ag ricult
▁allow s
▁s un
▁S el
▁dist ingu
▁n ick
ad s
▁altern ative
▁Massachus etts
▁B all
v est
▁Ab b
re ts
▁b ed
▁I mp
▁head ed
ig g
▁j ourney
▁8 7
▁S us
▁D ream
ath an
▁dep th
ul es
▁miss ing
▁c ited
at o
▁increasing ly
▁F .
e per
k o
▁L et
os is
▁st adium
▁R on
▁appro ached
▁16 0
▁Air port
▁turn ing
▁H art
▁respond ed
▁plan ning
▁know ledge
▁ex erc
▁V i
▁eas ily
▁we alth
▁194 8
▁over l
▁c ells
ild ing
▁f ashion
▁equ al
▁esc ort
ol t
▁7 00
▁fl u
▁Ab out
▁196 0
▁col lected
▁suc ceeded
ps ons
▁constit ution
m od
em an
▁K en
▁saf ety
▁B al
▁reb u
▁exist ence
un icip
▁tri p
▁p ul
▁R un
w ise
ign ment
▁Sim psons
▁introdu ction
▁occ as
▁aut h
▁mod els
▁lear ned
▁In it
▁col le
▁sust ained
ret t
h i
▁t all
▁promot ion
▁oper ating
▁6 9
▁197 8
ur ation
m itted
▁Mc G
▁base ball
▁car rying
▁lim it
▁Song s
▁ex change
▁show ing
ig er
▁y outh
on ia
▁Im perial
▁bur ied
eng ers
▁Vietn am
▁9 1
▁hum ans
e g
▁cred ited
▁7 8
c ome
▁dep end
le ton
▁arran ged
▁Ott oman
▁L oc
▁impro ve
▁im pl
▁se ems
▁J ay
▁weaken ed
▁C ape
▁design s
▁191 5
in ary
▁v an
▁join t
▁Short ly
▁pain t
▁a thlet
st ate
ist an
▁r hy
▁produ cing
▁pro ceed
▁Pol and
el er
ac ts
▁she l
▁Syd ney
▁fre eway
▁Mo ore
ol i
▁197 7
▁earl iest
▁fl at
▁Wh o
▁last ed
▁Mary land
▁land fall
▁settle ment
p ut
▁P ict
▁not e
▁R oy
▁desc ription
▁ret ained
▁ac res
▁t on
▁b rand
▁St ew
▁9 4
▁195 0
▁R em
▁N aval
▁M TV
▁A D
▁law s
▁appoin t
▁C ra
ival ent
▁gen re
▁program s
▁cons c
our ces
▁assist ant
re ll
▁play off
iv ered
▁J es
▁repl ace
ad er
▁inst all
b ell
▁res erve
iss ance
▁stat ement
▁v irt
▁appl ied
▁c atch
▁tr ust
▁196 3
▁viol ence
▁ne ut
▁scient ific
ins ula
▁8 1
▁Ar ts
▁ent rance
▁coast al
ot hes
▁P ass
▁t ick
ie ge
▁h its
t ical
▁con sequ
av ig
▁9 8
▁excl us
▁syn t
▁G reg
▁sc ulpt
▁pat rol
▁batter y
▁F ire
m ath
▁it ems
▁A ri
▁candid ate
▁town s
le e
▁indic ated
▁Bow l
▁un s
▁grad ually
▁distrib ution
t ime
▁191 6
▁E du
▁polit ics
l an
▁R id
▁del ivered
o ard
▁stop ped
▁f illed
▁b an
▁independ ence
▁t act
iz ations
e ke
▁s ections
▁det ails
p et
▁J an
▁I G
▁Conf eder
▁Mul der
el ess
▁c inem
▁se lect
▁comb ination
▁7 1
▁em p
▁suppl ies
▁way s
▁gl ass
▁part ies
end er
▁st ream
▁eng ines
us hing
▁prison ers
▁camer a
▁Gord on
▁appe al
▁St adium
▁A C
▁B and
▁191 9
▁reg ister
▁Rh odes
▁camp us
▁bas k
em ies
▁W ell
▁196 2
▁act s
▁m ig
▁B on
▁extrem ely
▁8 9
▁ent itled
▁sec ure
re ets
re c
el a
▁R a
▁find ing
A T
▁on line
▁dec ade
ino is
▁Un ivers
▁t al
▁Pro f
por ation
iqu es
▁Theat re
ac ter
▁win ner
▁St aff
ivers ary
▁ar c
rop ol
▁even ing
▁C op
▁reg iment
▁193 8
▁K im
▁investig ation
▁8 8
▁threat ened
▁b ought
▁mess age
▁adap ted
j a
▁s omew
▁surv ived
▁kn ots
▁cons um
▁stud ied
▁B ir
▁An th
▁propos al
ad or
▁writ es
▁add ress
as hed
▁V ill
▁death s
▁Just ice
i at
▁ro utes
▁w ars
▁down load
▁rul ed
▁f ear
▁N ic
▁Inst ead
▁rel ief
▁relig ion
▁m ales
▁redu ce
▁vot ed
B S
igh ters
ie val
an o
▁rev olution
▁spec ifically
▁sp ons
▁c rown
▁ph ase
▁dut y
m et
▁f ict
ph oon
▁king dom
▁A ge
▁rec alled
bour ne
▁e c
▁portray ed
▁s oul
▁imp lement
ct ions
▁C irc
▁controvers y
▁emer g
▁H ere
▁M emorial
h at
▁e t
▁caus es
B N
▁A st
erv ative
▁b le
m un
▁195 6
▁every thing
▁breed ing
ap es
ad ow
cher s
a ug
▁s ell
▁st ret
▁refer ences
▁17 5
ic ian
▁bott om
▁ag o
▁cap able
▁T .
▁T ony
▁conv in
▁te acher
▁import ance
▁P o
▁Col l
▁ent ry
▁met ers
▁Mc K
▁off ers
▁Sing les
▁I d
▁N el
▁K ong
▁t anks
▁O d
▁7 9
sen al
▁P ower
▁193 0s
b ro
▁U r
▁suff icient
▁Direct or
ent ially
▁own er
▁intern al
▁arrest ed
▁oper a
rid ges
▁Ad ams
▁adm itted
▁nomin ation
ar p
▁O k
▁corn er
▁b or
▁J ord
▁M oon
▁cop y
▁Al an
▁193 6
▁F A
▁cross ed
▁cl imb
▁product s
▁Dou gl
w ich
u ro
▁Crit ical
b ar
▁inst alled
▁equip ped
▁Be ach
▁Al f
▁IG N
▁pre ced
▁concern s
ak i
▁m ort
▁over se
▁aut om
▁Ham ilton
▁inv ited
▁Sim on
▁Mar ia
▁Eng ine
▁conv oy
▁on es
▁con qu
▁inter ested
▁f ly
▁Ad am
▁start s
▁cr ime
▁princip al
▁G ram
h r
▁ac id
▁13 0
rane an
▁t ell
▁Y our
▁recomm ended
▁al t
and y
▁J ane
▁un l
ruct ure
▁Pl ot
▁remain der
▁med al
▁sh ut
ans as
▁act ual
c a
▁s now
▁ret reat
▁U TC
▁9 2
▁st ock
▁v ent
▁up grad
esp read
▁192 0
▁char ged
▁V II
▁sol id
▁ap art
▁B os
▁pr ice
▁object s
▁C art
▁fund s
▁do or
▁Tr ack
▁196 1
▁Fore st
osaur us
il ation
▁compos er
v is
▁8 4
▁fem ales
▁V ideo
▁consist ing
▁g all
ak ed
▁promot e
▁De ath
▁p age
▁mil it
i y
▁N BA
▁Ind ones
▁consider able
m b
▁F ound
▁Pro g
▁d ates
▁po ly
▁In t
ill er
h us
▁N ether
▁G en
▁195 3
▁typ ical
▁ground s
▁Kenn edy
er ted
▁G un
▁cor rect
▁Tod ay
▁dut ies
▁ext ension
▁b low
ck s
re te
▁ev olution
▁9 3
▁some one
▁Trans port
▁con g
▁r ural
▁pen al
▁' d
▁Mil itary
▁Sund ay
▁e ighth
B I
v ements
▁Indian a
▁sp in
▁so le
▁Pro ject
▁hot el
▁How ard
os ite
▁dec ades
▁Nor we
k ing
▁im ages
▁P it
▁dr iving
▁read ing
▁ident ity
▁Sc ully
▁H ou
▁z one
▁Mar c
ad d
▁occ urs
▁193 0
het ic
▁Le on
▁man ner
▁B ry
▁sub s
▁sk in
▁challen ge
▁Hit ler
▁l ane
▁rem ix
▁to w
▁K at
▁asp ects
▁perman ent
▁a er
▁T ar
▁17 th
▁b rigade
▁T a
▁f rag
▁194 7
▁vol can
▁d ated
▁h am
▁195 8
▁C ult
▁F ive
▁G ill
▁v ir
▁Port ug
▁not ing
▁rest aur
e z
▁B rist
▁col our
a fter
ion e
▁D rag
ub b
▁suppor ters
▁WW E
▁slow ly
▁cle an
▁B a
▁post ed
▁P ear
▁8 6
ens us
▁Tur k
iv als
▁R ose
ile y
▁195 7
vel and
ck now
▁Sc ience
▁describ ing
▁Res earch
▁G .
▁invol ving
▁spe ak
▁vess els
▁ent ering
▁en emies
▁193 7
▁Ass embly
▁d ress
▁equ ivalent
▁M r
aw are
▁Ry an
▁H ug
▁class es
▁b ra
▁deb ate
▁sett led
n ic
▁d in
▁A k
▁dep artment
▁ob tained
▁Con stitution
reg on
▁acc ur
▁arm or
▁par liament
▁Rol ling
▁D isc
ert o
▁Mag azine
▁te le
▁Mount ain
▁Arg ent
▁song writ
▁bas ic
ris is
▁purch ase
ag ues
f l
▁p up
▁f olk
▁n est
▁old est
▁Cle veland
▁f aith
▁Sp ace
▁P ier
▁L enn
▁concern ed
▁depart ure
▁wid espread
▁dec line
▁form al
▁conn ection
▁Ill inois
c ation
oph y
▁inc ome
▁att ached
he red
▁recogn ition
▁N ow
▁inte g
▁Dougl as
▁m emorial
▁o uter
▁Through out
▁cert ified
he astern
▁de leg
▁acc used
▁ <
▁sequ el
orn ey
▁Week ly
▁der ived
▁dec or
▁S av
r ates
▁m ode
▁I ra
▁h a
▁St and
▁Re le
are t
▁And y
▁wear ing
▁Jord an
ic it
▁h ip
▁ass umed
▁dist urb
▁sw im
w estern
▁w ed
▁O regon
▁195 9
▁a cknow
▁4 th
▁Stan ley
▁t orn
▁Fred er
▁ ”
▁acc laim
▁11 0
o oth
▁sur vey
▁comm itted
i ot
▁f oss
▁Ar senal
▁Med ia
▁F eder
▁host ed
R A
▁Th ird
▁return s
▁val ley
▁seg ment
▁Rog er
▁s essions
eke nd
▁D al
▁pop ulations
▁Phil ip
agon ist
▁den ied
▁f ine
▁Med iter
▁T reat
▁Rec ording
▁tem ple
▁Fam ily
▁h ang
w an
▁ch ampion
▁fl o
▁Beat les
▁char ges
▁T enn
▁L ow
▁liter ary
▁Bru ce
▁Ke vin
▁can c
▁reg ional
▁thous ands
▁Norwe gian
▁195 4
▁termin us
▁trans ition
▁195 5
▁Mediter ranean
▁circ um
iv a
▁supp osed
▁war m
▁wick ets
▁Brist ol
▁ “
▁dem and
▁E s
▁A z
▁D ig
▁an s
▁sh ots
hed ral
▁IS BN
▁R ain
ud den
▁strong ly
he me
ac hel
▁circ ulation
▁B ush
▁intellig ence
▁s ailed
▁pass engers
▁poss ibility
▁gener ation
I A
▁h ope
▁fict ional
em ed
▁anim ated
▁thir ty
▁fre edom
▁down town
▁Ch annel
or gan
▁H o
▁F ederal
e ing
it o
▁h ill
▁r ich
▁min ister
▁behav ior
▁cl oud
▁Mexic an
ra ge
▁ ×
C A
▁assist ance
▁repl acement
▁beg un
▁P ur
▁f ruit
am i
▁command ed
▁W eb
▁dest ruction
atin um
▁mov es
m es
▁B ol
▁cr iminal
ch ar
▁miss ed
▁miss ions
▁Con c
▁except ion
▁cost s
▁D er
▁cr ash
or ced
▁R ow
up t
▁high light
▁bring ing
▁t ied
▁M aster
▁C as
l ig
▁E ric
▁comm it
ism s
▁Kore a
▁With in
▁int ention
▁feel ing
▁B ah
ont o
▁spe aking
▁unus ual
▁Lis a
or al
els h
▁Addition ally
▁F ame
▁inter cept
▁fin ishing
▁alle ged
le ts
▁N ar
▁dem ol
▁proper ties
▁incorpor ated
▁opp osite
▁stay ed
▁S ab
▁attrib uted
▁sh op
▁Ph ill
▁vol unte
▁recover ed
b orne
▁s ons
▁Col or
▁bre aking
▁emer ged
▁8 3
▁serv es
▁195 2
▁atmosp here
▁Mor gan
▁Mor ris
▁d ipl
▁chor us
▁theat re
▁Norm an
▁occasion ally
r ating
▁dr iven
oth ing
ole c
▁Sc ient
a ire
▁E le
▁str ateg
▁Rob inson
▁K r
ens es
um in
▁E ver
ri ers
▁class ic
▁sp ok
▁read y
▁Pri or
▁effect ively
▁regular ly
az a
▁c avalry
▁establish ment
▁S ky
▁pre y
▁cour ts
▁R aj
▁method s
th m
▁v ary
▁193 3
▁sound s
osl av
▁Haw ai
▁d ivers
og en
▁Te levision
▁sup erv
▁Sim ilar
▁17 6
p ective
▁d ream
▁A round
▁complet ion
d on
▁sh ore
▁Un like
▁material s
▁C E
▁Const ruction
▁G h
ut y
▁respons ibility
▁diss ip
▁war ning
▁US A
▁accom mod
w en
▁C ab
▁F inn
▁he at
▁att racted
▁field s
▁surv iving
▁prov ince
▁ent ertain
▁pers u
▁Nel son
▁I ron
r im
▁glob al
n old
ec e
▁N ich
▁Franc is
▁m o
▁qu ant
▁class ified
▁k id
so le
▁differ ences
▁Prem ier
▁D E
▁L anc
ick s
▁div isions
▁techn ical
v ens
▁Swed en
▁interp ret
▁b rain
▁193 5
b an
▁F ord
▁T echn
▁191 0
▁cru iser
▁Pat rick
▁B udd
ip e
▁pass age
em eter
ab led
▁An ton
▁ab oard
▁n one
▁M it
in ton
▁s am
oy d
▁P A
▁Tem ple
we ight
▁club s
▁st ood
▁associ ation
▁rat ings
▁ne ither
▁ele ven
j i
▁music ians
▁room s
n ce
▁195 1
▁194 9
▁med ic
▁reinf orce
id den
om ot
▁H ell
▁des ire
n ings
▁h al
▁separ ated
▁Tor onto
▁W elsh
▁cl imate
▁An ne
ag le
▁s qu
▁N ations
▁sh if
▁out break
▁class ification
▁anc est
▁D og
ó n
▁veh icle
▁Mar g
▁real ity
▁pred ecess
▁seem ed
▁Byz antine
▁chem ical
▁vot es
▁pict ure
te enth
▁All en
▁battles hips
▁ro se
▁Ch ron
▁3 D
▁13 th
▁mem ory
▁hop ed
ic i
▁Prof ess
▁mov ements
▁m ent
▁requ ested
▁O pen
▁Nether lands
▁J ournal
▁16 th
▁Bel g
▁S n
og y
▁ra ise
▁histor ians
▁ ille
▁E very
▁Matt hew
▁P ow
b urn
▁m ap
▁difficult y
re ck
▁bask etball
ind er
▁W he
ew here
ig e
▁exp ect
▁v ide
ab il
▁commun ities
▁rest ored
▁ra id
▁te en
▁rem ember
▁B ang
▁S ports
▁program me
▁Jew s
▁premi ere
▁p ure
▁De an
h ar
▁f al
▁delay ed
▁Jac ob
▁f er
▁rel ative
▁insp iration
▁S ax
▁discover y
▁g al
▁other wise
▁great ly
▁US S
▁ann iversary
▁inj uries
▁Des ign
▁Ag ain
▁neigh bor
▁sat isf
▁acc ounts
h ire
▁fund ing
▁surround ed
▁fl ank
▁D omin
▁dep ict
▁pra ise
▁Ul t
▁penal ty
▁sp oke
il ers
▁batt ing
▁need s
▁19 00
▁Ira q
i ate
▁d ens
▁str ate
▁d ie
▁part ner
▁c rop
▁W right
▁Mar ine
▁mass ive
▁weap on
▁phot ograph
▁I .
▁rec ru
▁claim ing
▁c ra
▁D or
▁7 th
an th
▁B ishop
▁su it
▁ass emb
▁l at
▁ast ron
▁tri es
▁form ing
▁strate gy
▁w rong
re al
▁le gend
▁O ak
▁accom pl
▁document ary
▁Ar men
▁fl ed
▁cross es
▁Gl ob
▁wor st
▁H op
▁Croat ian
▁He art
▁D a
▁stand s
g ets
▁Thom pson
▁architect ure
▁as h
▁L ast
ut her
▁tem porary
▁J am
▁girl s
ub le
▁determ ine
▁chair man
▁D ick
▁Russ ell
▁dismiss ed
a ired
▁Is lam
▁invol vement
▁St ra
▁bomb ard
▁s ale
▁c ategory
▁T rib
▁ro t
form ula
▁pl ane
▁5 th
▁Cent re
▁in ner
▁rem n
▁adapt ation
▁< formula
▁<formula >
▁Mar s
▁he ar
r um
go ing
▁ens ure
▁convin ced
ond s
▁s ight
▁en f
ly n
▁N C
▁c ul
▁we ekend
▁0 6
▁H oly
▁N FL
▁Pu erto
▁F ront
▁res ources
▁somew hat
▁res erv
▁Car ter
▁inter ests
▁Win ter
▁R ick
w ing
▁sc heme
▁med ieval
▁immedi ate
▁Kel ly
▁He nd
▁st reets
ag re
▁president ial
▁Mod ern
▁l ibrary
▁K er
▁r ay
ost er
▁car bon
▁abs or
▁cons p
▁Co oper
b ody
▁ ic
▁Sp e
itz er
p o
▁fall ing
▁colon ial
▁D ra
▁Al ong
▁techn iques
▁o ri
▁class ical
▁s ed
▁f ighter
▁n inth
▁N iel
▁R ang
▁app ropri
▁thr one
▁G ard
▁star red
▁Bro ther
▁acad emic
▁egg s
▁F ree
▁N etwork
▁r aces
▁b right
ic ide
ay a
▁ad ults
▁' ll
▁P ak
▁con vent
▁comm emor
▁pass enger
▁surv iv
▁l oyal
▁Hung arian
▁N ob
▁6 th
▁me ets
▁l ake
n ight
▁W y
▁G ri
▁review er
es ter
▁al ien
▁Th us
▁191 3
▁premi ered
▁submar ine
r ine
▁B ou
▁abs ence
▁Bat man
b ec
we alth
▁see ing
▁ren ew
▁f itted
▁L abor
▁el se
▁super ior
os ure
▁inter ior
ars h
▁favor ite
▁Park er
▁engine er
ron ze
▁d ub
P A
▁E st
▁air port
▁part n
▁T ok
▁de emed
▁attack ing
▁Har ris
om p
▁conc lusion
▁appear ing
ac ent
▁vis ible
▁192 6
▁d ating
iv an
▁synt hes
▁B i
us ing
▁character istics
▁rom antic
▁ x
▁lead s
▁elect ions
▁r um
▁oper ate
▁fac ility
▁encoura ged
▁192 7
▁m unicip
▁12 th
▁L ibrary
▁after wards
▁retire ment
▁D NA
▁land ed
b ook
▁col ony
▁conv ection
▁Mur ray
▁temper atures
▁bu y
▁192 1
▁every one
ch ang
▁A I
▁do ct
o en
▁suff ering
▁cred it
▁193 4
▁legisl ation
▁hold s
▁Kn ight
▁mod ified
▁l ies
▁chall eng
▁Edu cation
▁T s
▁L ate
a ver
▁pain ted
▁controvers ial
▁w ings
e or
▁s an
▁g one
an ia
ro it
oss ible
▁Hou ston
▁belie ves
ix on
▁c ode
ur ches
▁distrib uted
▁o d
▁B rand
▁Comm ander
▁attempt ing
▁0 8
▁Pol ice
as ure
▁Ber lin
▁Pal ace
ust er
▁stand ards
▁look ed
▁resc ue
▁9 00
▁auth ors
▁sec ured
▁Ad vent
▁191 2
▁mon arch
▁dep icted
▁U t
▁can cer
t ic
▁arch ae
▁domin ated
▁F I
▁battles hip
▁gr ass
▁habit at
▁any one
sc ape
ap se
▁Y ug
▁contin uing
com ing
▁jud ge
▁w el
▁long est
▁imm ig
▁St ory
▁Sant a
el ine
▁big gest
▁Swed ish
l i
aw s
▁Common wealth
▁unsuccess ful
▁un ion
▁graph ics
▁G et
▁p ound
enc ies
▁n eck
▁ob tain
▁L i
▁Sim pson
▁Rober ts
▁tra ined
ac he
▁O t
▁Y an
▁s udden
▁w ins
▁H ospital
▁193 2
ult ane
▁O bs
▁j ump
inal s
▁arrang ement
▁car rier
ask a
▁rail road
ow a
▁Ind ians
2 0
▁E y
▁acknow led
▁L yn
▁Sil ver
▁nick n
▁M ort
om ing
op es
▁inform ed
▁meas ures
e enth
▁C ook
hes s
▁RA AF
▁bel t
▁represent ing
emeter y
▁rele ases
▁Cor poration
▁achie ve
▁Soc ial
▁N BC
▁War ner
tern al
ch ing
▁se es
▁0 9
▁Mer c
▁gar rison
▁Yug oslav
▁con vention
t ure
un a
▁former ly
▁J ason
▁gr ade
▁b ab
▁gener ated
▁st yles
▁clos er
▁deploy ed
▁emerg ency
▁Anth ony
▁b ats
el le
▁al leg
ten ance
▁quest ions
ol ph
▁moder ate
f are
▁histor ic
▁g ets
▁v eter
▁tri als
▁f estival
▁cy cle
▁m olec
hem at
▁s ter
▁s iege
▁influ ential
▁C ru
▁emot ional
▁H in
▁Croat ia
▁Det roit
▁T al
ot ype
▁own ers
▁nov els
ag u
ut s
▁R AF
▁success or
▁influ ences
▁nar rative
▁G aga
▁192 9
ar ia
▁B ure
▁th in
▁Ch amber
ain ts
▁st ead
▁r u
▁191 1
▁e at
▁ex cess
▁journal ist
▁Aut hor
▁child hood
▁Gil bert
▁const ant
▁exper iences
m ate
▁pre gn
▁def ended
▁ve get
▁discuss ed
▁Princ ess
▁v .
▁leg s
▁apparent ly
▁al co
▁instr uments
▁R ap
▁ass ass
▁Sp ears
▁vict ims
▁tre ated
▁14 0
▁g iant
▁environment al
▁dipl om
f ire
ark ed
▁exec uted
im ore
▁det ail
▁As ian
▁coin s
▁193 1
▁192 2
▁dep os
ann y
▁offic es
▁P C
ob i
▁fact ors
▁m ine
▁Jes us
y ard
ust ed
i ens
▁be ar
▁conc ur
ram s
▁D esc
ach ment
▁ent ers
▁hun ting
▁S omers
▁wood en
▁Mel bourne
n oon
▁Ev ans
▁Niel sen
▁P ope
▁Atl ant
ast e
▁ch annel
▁hundred s
▁r ide
▁V ice
▁res igned
▁Gu y
▁o cean
ro t
▁Cl inton
▁X box
ili ar
▁g ay
▁un iform
▁M un
▁sk ills
▁B ed
▁n avig
▁Or gan
▁reve als
al o
▁Never theless
▁sp end
▁chap ter
▁C ategory
▁en h
▁poin ted
▁rid ge
te xt
▁cl im
E S
or ous
▁W ing
▁watch ing
▁Stew art
▁b on
▁prevent ed
us ic
▁Musl im
▁0 5
▁prefer red
l ie
ut t
▁Re al
re es
▁p ushed
▁p ull
▁form at
ic ians
▁loc omot
▁foot age
▁fle w
▁langu ages
▁He avy
▁differ ence
▁opp onents
▁happen ed
▁T ower
▁form ally
▁there after
▁drum s
▁int ent
▁reported ly
▁che ck
it ter
▁fac ing
▁B enn
▁res ign
▁relationship s
▁accom p
▁Orig in
▁ch ain
▁int ense
▁Car ib
▁thous and
▁Bul gar
▁Turk ish
▁hand ed
▁Sam uel
▁Exp ress
ot o
t ty
▁dev ice
▁not ably
▁Sar ah
▁anim ation
▁R ey
▁L im
og ether
▁f iring
▁Lenn on
▁v ision
▁inh abit
▁ex isted
▁visit ors
▁B ird
id i
▁surre nder
s ki
▁A ud
▁g ather
▁employ ees
M A
▁Gre ece
▁Balt imore
▁b es
on ies
▁accomp any
▁Aust ria
▁Que ens
m ad
▁17 0
▁Album s
ro c
be an
▁H ans
▁Ar k
sp ec
▁depart ed
▁link ed
▁he aring
▁exp osed
▁particip ate
▁poet ry
▁dial ogue
st ic
d s
h att
▁ext ent
o is
▁f il
▁St ock
d a
▁det ailed
▁announ ce
ol is
▁Color ado
▁substant ial
y o
ic an
▁lear ning
▁be ach
▁aud io
▁C am
▁R aw
▁inst ance
▁univers e
▁L ane
ropol itan
▁reb ell
▁cru isers
▁resident ial
j o
un es
▁imp ressed
pris e
▁Writ ing
▁Marsh all
or age
▁H orn
▁v ul
or ial
▁period s
▁av o
▁Init ially
end ment
▁C z
▁s ke
▁Found ation
▁m art
▁h uge
▁pl ate
▁publ isher
ull ivan
▁Mal ays
▁ut il
▁15 th
▁h at
▁t aught
▁e asy
ig en
▁D ave
▁after noon
▁ent hus
l ock
olog ists
▁tem por
▁st em
▁Freder ick
▁J r
▁territ ories
▁dr iver
▁imp rison
▁review ers
▁test ing
rib ed
▁Er n
▁vide os
b oy
▁192 8
▁W restling
op ter
▁h appy
▁up d
▁t ests
vi ation
▁B anks
▁H aving
iam i
▁Hor se
▁st able
▁te eth
▁fe ud
▁rep rodu
▁sym pt
▁underst and
▁isol ated
▁c a
ro ph
og an
▁negoti ations
▁vess el
▁Somers et
▁diam eter
▁in her
▁ag ents
▁sle ep
ot es
▁pick ed
▁J ess
▁10 th
at ically
▁An na
▁192 5
▁B uck
▁b ridges
▁K now
▁Mar io
▁good s
▁encoun tered
ch o
▁dang erous
▁j unior
▁withd rew
▁Rele ase
▁di agn
▁l ob
▁sim ultane
ro ke
▁ag ed
▁found er
▁re un
▁Ang lo
▁behav i
▁fact or
▁norm ally
▁upgrad ed
se a
▁Gi ants
▁keep ing
▁f ur
▁M iami
▁spec imens
▁wind ow
bor ough
▁t ie
▁p ounds
m ission
▁Se attle
▁det er
▁med ium
▁sat ell
et ime
▁rel ie
▁frequ ent
ol as
▁su re
▁192 4
▁coll aps
▁eth nic
b ridge
▁to ll
▁m ir
▁d iet
id ae
▁part ly
▁Play er
▁E xt
▁low est
▁Championship s
c hen
▁c risis
▁pro hib
▁res ear
▁engine ering
▁Tre k
▁C all
▁app rec
▁S oon
▁Al ab
▁out f
▁travel ed
▁v ic
▁C re
▁where as
▁organ izations
hel m
i able
▁pro ced
aw ay
▁design er
▁p ed
▁rare ly
▁l ose
▁O p
▁ref ers
▁t one
ames e
▁H and
▁does n
▁tur rets
us al
▁192 0s
▁techn ique
iec e
b rid
▁ins c
▁Hum an
▁Treat y
▁I owa
ger y
é e
▁v ice
▁or b
▁a x
ig s
▁sp ending
▁final e
▁0 7
▁critic ised
▁adv ice
▁perm ission
▁main tenance
▁l ad
▁M L
▁pl atinum
enn is
▁unc ertain
▁difficult ies
▁p hen
il a
x ual
y gen
▁comp lic
▁part ially
▁rest ric
▁polic ies
▁Alab ama
l s
▁by pass
▁person ality
▁ag ree
▁ver se
▁main stream
▁For ces
▁compet e
▁rank ing
▁indic ate
▁l iqu
▁exc ell
▁D ur
▁pro port
▁record ings
in ction
il st
usc ript
▁Carib bean
▁un n
ok ed
▁com ments
▁rem ove
▁ant icip
F C
c ol
▁Nap ole
▁m amm
▁The n
▁final s
▁ref uge
▁B uff
▁Miss iss
▁saf e
▁Law rence
atter ed
▁concer ts
▁192 3
▁wind ows
▁Yan ke
▁Can al
▁stri p
▁se ats
ud a
▁14 th
▁rest rict
▁mor al
▁sy mp
che ll
▁Charl ie
▁over s
▁mon ument
▁km 2
▁r ates
▁j ur
▁rep air
▁ext reme
▁fall s
▁f ighters
▁A h
▁rec ur
▁Min nes
▁recomm end
▁N at
▁pit ched
▁B ros
▁represent ative
▁cover s
▁Cro wn
▁al ter
▁Mc D
▁tr uth
▁9 th
▁Sen ator
▁t enth
▁dif f
en h
▁M ach
▁prompt ed
p ower
is d
▁for cing
ran g
▁describ e
▁prot est
▁h ockey
▁C R
▁I an
▁ph r
▁t ub
▁Min istry
▁rec onst
▁she ar
▁destroy ers
A r
m ates
▁min imum
▁under w
▁M P
▁B rig
▁G arden
▁Town ship
s k
▁p ric
▁h ull
▁H u
▁ch urches
▁neighbor hood
if er
▁De ad
▁friend ly
▁Gram my
▁bas es
▁boy s
▁exam ples
▁ Æ
▁US D
▁He alth
▁Bl ood
▁Hung ary
ur ance
▁draw ing
▁Count ry
▁Pol it
▁Naz i
▁p in
▁Ben j
▁trav elled
m ers
▁B an
▁bomb ers
▁in aug
▁do ctor
▁R oc
▁D ance
▁dyn asty
▁adj acent
▁m and
▁appro val
▁hous ing
▁display ed
▁H amp
▁Ret urn
▁Austral ians
▁Belg ium
▁creat or
▁cred its
▁j u
▁Christ opher
▁t urb
▁0 1
▁gro wn
▁join ing
▁list ing
▁coll apse
▁trib ute
▁aw are
▁Die go
▁partn ership
▁Shak esp
e u
▁prot agonist
z z
i ac
▁f ung
▁C old
▁E vent
▁R and
od ore
ant e
▁expl o
▁Med al
▁mom ents
▁act ed
▁chang ing
▁creat ive
▁ *
al ions
od s
▁design ation
w a
ic y
▁pow ered
▁G ab
▁K al
ug by
▁instrument al
▁Rep resent
it ud
▁M uch
▁ref ere
▁tre nd
▁La ure
▁as ks
▁Child ren
▁C amer
▁D C
onna issance
vel t
▁rad ar
▁can al
b ra
▁storm s
▁Mic hel
▁H ud
▁ar ts
▁vill ages
▁C red
▁L l
▁poss ession
▁190 5
▁appoint ment
▁adv is
▁190 8
▁doll ars
im eter
▁treat y
▁scient ists
d ie
▁190 9
oun ced
▁Kh an
st ers
ot ten
▁round s
▁Rec ord
▁vict ories
▁surv ive
▁Guard ian
▁elimin ated
▁paint ings
▁Benj amin
▁cover ing
▁Leg acy
▁whe el
▁min imal
▁ els
▁prec ip
▁Ro ose
▁H ockey
c op
▁els ewhere
▁t elling
ic ts
▁Vietn amese
▁H ills
▁newsp apers
▁inn ov
▁surpris e
▁benef it
3 0
iv ated
act ive
ec raft
▁seek ing
▁A R
▁arr iving
▁anal y
▁help ing
▁occup ation
▁rhy thm
▁su icide
▁Minnes ota
ou ri
▁purp oses
▁F al
▁Alf red
v y
▁un like
▁Th or
▁11 th
▁val ues
▁disp ute
▁occas ions
▁b rick
▁g ard
▁H ind
▁sm ooth
▁lo an
▁21 st
▁p ool
▁S et
▁Man hatt
▁tw in
▁T un
▁w et
rup ted
▁o ption
ro id
▁Manhatt an
▁D iv
um an
▁man uscript
ograph ical
or ious
▁so il
▁f ishing
▁g at
▁K urt
▁Frank lin
▁Inter state
▁strugg le
▁Walk er
▁c ryst
over s
▁mur d
r m
▁10 5
▁bal ance
n o
▁L in
▁A ff
▁Adm inist
T A
▁S on
▁12 5
▁hel ic
▁deg rees
▁An im
▁Roose velt
▁0 4
▁pres erved
▁Tr ust
g on
▁sched ule
es h
▁Com b
▁She l
▁fl ash
▁Per form
▁190 7
▁c ateg
▁co oper
▁Fl ight
▁circum st
ri x
▁Pen insula
ack s
▁public ly
▁H ong
ather ine
▁viol ent
▁candid ates
▁res umed
▁B eck
rom e
or ph
▁em peror
▁16 4
ac le
▁B ull
▁hon our
n ik
▁I ce
▁K ansas
▁compet ed
▁pil ots
▁wed ding
▁F ried
▁surviv ors
ish ment
inc ial
mun ition
▁d ies
▁ab ilities
▁Indust ry
▁B h
▁pro cl
▁neut ral
▁N ash
act ion
A .
s ky
▁c ook
ul ating
▁sp an
▁Sat ur
m ph
ok ing
▁beaut iful
▁b id
▁L ith
▁Mississ ipp
▁imp ossible
▁Port land
▁co ordin
▁intens ified
▁B orn
▁al ignment
▁arg ument
▁mult i
. m
▁teach ing
f ted
▁adv oc
▁cust om
▁ass isted
▁po ison
▁w rest
▁le m
▁defe ating
▁cons ult
▁elect ronic
ob ile
▁conc rete
▁l ists
▁pro sp
▁Hot el
▁over t
▁n ations
▁W olf
▁P le
▁ser ial
▁sim pl
▁r ivers
ens ions
▁disc ip
▁abs ol
▁Bu ilding
ap h
▁p y
▁W ard
▁Dig ital
▁ass ists
▁found ation
▁el abor
▁Br un
is p
▁V I
▁opp onent
▁J os
▁interest ing
▁d anc
il ty
▁agricult ural
▁business es
▁back ing
▁ox ygen
▁su itable
▁16 5
▁Co le
e are
▁p arent
▁m ines
▁sign ing
▁sub mitted
▁tun nel
▁fif teen
▁underst anding
▁schol ar
▁H em
▁g rey
▁C ob
▁L am
row s
▁encoun ter
▁sympt oms
▁Bl ues
iven ess
it ated
▁D w
f ace
▁c iting
▁w aves
ic er
▁beh alf
▁Hal o
▁or bit
▁Alex and
▁Shakesp eare
▁spirit ual
▁s unk
▁D om
ct ic
▁percent age
▁N ative
▁par ish
▁s ank
▁W ol
ag en
▁forest s
▁Are a
▁Tenn ess
▁Hin du
b l
▁n inet
▁for ty
▁sit uated
un ch
▁sign s
▁clos ing
▁subject s
▁Camp bell
S P
▁V inc
▁A thlet
onym ous
al ities
▁am munition
▁vo iced
d ale
▁P rom
▁K ings
▁us ual
▁ill ness
▁n om
▁N on
▁T ag
▁rep airs
▁S ullivan
▁Her o
▁res olution
▁cor por
as ters
▁Ste ven
▁im perial
▁Luc as
▁D est
▁ask ing
▁B ox
▁dis aster
▁fun ctions
▁collabor ation
.m .
▁ass ess
▁attend ance
▁contro ll
▁restaur ant
l ah
▁F riend
▁l ieutenant
▁Egypt ian
f ather
▁ev il
▁aud iences
▁feel ings
▁st ring
▁under ground
▁del iber
▁w orship
▁j unction
▁R en
▁fl ights
▁Ste vens
▁port ra
▁aff airs
▁susp ended
u v
▁Marg aret
am ic
▁sk ull
▁Tenness ee
▁R ab
▁ex it
▁Mississipp i
ar on
os m
se x
▁R ace
od ge
amp s
▁pr on
▁will ing
▁J osh
▁tar gets
▁Louis iana
▁car go
▁init i
▁earth qu
r ator
▁rec re
▁190 6
▁M ack
▁aff air
▁fun eral
▁Mont real
id d
▁pro l
▁oper ational
▁Mc L
▁Histor ic
res ents
qu es
▁War ren
▁ab ol
▁poor ly
▁Lab our
r us
▁le ct
▁meas ured
▁36 0
▁190 4
▁comp ilation
▁Pal est
▁doc uments
▁mount ains
▁Miss ouri
▁f iled
▁aim ed
r ants
u able
rac ts
▁circ uit
▁register ed
▁an ch
▁K u
we et
▁Dep ression
▁Philipp ines
▁consc ious
▁T an
▁stat ue
▁favor able
C C
▁el der
▁sub t
▁aff ili
▁ro ut
▁lik ed
▁App le
▁adop t
▁Mit chell
an ium
▁N ag
and al
▁St at
▁b ot
▁recogn ised
▁explos ion
▁Drag on
▁B illy
ate ur
▁rep resents
▁profess or
▁entertain ment
▁j azz
f e
▁tempor arily
cept ion
or i
▁s ector
▁St r
▁b en
▁C ow
▁Jo h
▁Sm all
▁sequ ences
▁Crit ics
▁repl acing
1 0
ik a
▁fif ty
▁P ed
over e
▁Kir k
g ate
▁off ering
▁shell s
▁c yl
id el
ad i
▁art work
▁R ing
▁V is
▁Gra ham
▁Independ ent
▁w ore
▁res idence
▁interp re
▁prepar ation
er a
▁F em
ine a
▁mar gin
▁0 3
spec ies
▁Mag n
▁Bus iness
▁Cz ech
ord ers
iss ions
▁ref lected
▁rest oration
▁nuc le
▁all iance
▁pr ime
▁rel uct
▁direct ors
▁exp ensive
▁M ess
▁r ig
▁L ov
▁ter ror
▁to uring
▁S now
▁N ear
▁U E
anc ell
yl an
▁over w
inent al
▁alco hol
▁comple ting
▁among st
▁think ing
r ace
▁Y e
▁suggest ing
▁M aur
art ney
▁M es
un c
▁Ari z
▁b anks
▁hor ror
▁gra v
▁D. C.
b ishop
el lect
▁Cub a
▁canc elled
▁Se ven
▁rebu ilt
▁cover age
▁c od
▁F rid
D S
qu ir
▁pul led
▁re ven
▁dec ides
▁esc aped
▁d imens
▁Gu ide
▁er upt
▁b ay
▁was n
▁am ounts
▁Ch and
▁Ed ge
▁c ous
ip h
▁lack ed
▁trib es
overe ign
re p
▁r acing
▁dram atic
▁Ph oen
▁clear ly
▁communic ation
▁g arden
▁pattern s
▁Tam il
▁F iles
▁fam iliar
▁pred omin
ur ally
▁eng agement
▁f rig
▁r it
▁own ership
app ing
▁arg ues
ra k
▁C her
▁mark s
u ary
▁Ariz ona
▁s aved
▁Ind ies
▁arm ored
▁pers pective
▁S ony
ok es
▁mat hemat
▁colon ies
▁Pers ian
▁g ang
▁wick et
▁dro ve
j e
▁G rey
▁Satur day
▁contrib utions
▁merch ant
▁sol ution
▁D ylan
st orm
▁pr int
▁fast est
t i
▁playoff s
▁art istic
▁administ rative
▁se ed
▁Sc out
▁remn ants
iet ies
▁t ag
▁ex ecut
▁character ized
▁fal se
▁Mar ie
ath y
▁bound ary
id ency
▁r ising
▁milit ia
▁k ings
▁11 5
▁sever ely
f ish
▁crew s
ex p
▁instit utions
▁arm ament
og a
▁disapp oin
▁L as
▁bad ly
▁ret ail
▁dep ending
▁flag ship
▁Confeder ate
▁ear ning
▁bul k
▁Bure au
b re
▁gen etic
▁distinct ive
ov a
▁bow ling
▁expl ains
▁ide al
▁b ran
▁P a
▁E P
▁not ice
▁rec ip
▁Bros .
or er
it ting
▁b ronze
om ber
▁fall en
▁exc av
▁Ok lah
▁restric ted
▁rank s
c ru
▁con text
e qu
▁fr ust
▁compar ison
s es
▁th rew
▁N ik
ect ic
▁S in
▁L iz
ell i
▁demonst rated
ment ed
▁expl ain
▁cond em
▁rang ing
▁ear n
▁qu iet
u ations
▁po ems
▁in land
▁17 4
▁control s
▁inhabit ants
l ife
▁arr ive
▁Sw itzer
▁Wil helm
▁rid ers
▁Mur phy
▁t rick
▁s isters
▁A my
▁g ap
▁Prog ram
▁pract ices
▁lo op
▁L ang
▁k W
▁w ants
▁m ental
▁man eu
▁8 th
▁Har vey
▁S uch
▁f aster
▁E conom
▁v el
▁cons ervative
▁elect ron
▁Broad way
▁A BC
iv ia
form ation
▁me at
▁wid er
▁Switzer land
l ings
ac on
▁sh ield
▁sy nd
▁ob vious
▁rev ol
▁k it
ov en
ock ing
th a
▁N a
▁sur ge
▁exc lud
▁spot ted
ot ton
▁Bar ry
▁acc eler
▁vul ner
▁re aches
ph a
▁190 1
▁distingu ished
▁p ace
▁pl us
▁north ward
r é
▁ev olved
▁exhib ition
ant on
▁applic ation
ast s
▁g ate
▁Oklah oma
▁T el
▁mill imet
▁Aust rian
E C
h u
▁quarter back
▁nomin ations
▁ag ency
▁tri ple
▁prote in
▁sub species
▁Feder ation
▁fr ame
rupt ion
▁satell ite
▁Cl ar
▁t ip
▁aut obi
▁Orig inal
▁domin ant
▁prep are
▁household s
▁pred icted
▁pal ace
in ations
▁Del aware
A C
▁w reck
um a
▁te x
et on
▁st orage
▁sl aves
▁190 3
▁B omb
ur er
A R
▁R at
sequ ently
gr ade
▁int ellect
▁15 5
▁190 2
▁ab und
▁Lith uan
▁th or
el and
▁art icles
▁prin ted
uk i
▁v ast
▁0 2
▁car riers
▁att ained
▁Per ry
▁repeated ly
I S
▁fix ed
▁predecess or
▁all ies
▁ver tical
▁sur gery
▁Les lie
▁st ores
▁out l
d in
▁st rict
▁sign al
▁M ik
▁pe aking
▁Har v
l us
im en
▁F if
▁philos ophy
▁y ield
▁phen omen
▁advent ure
▁bi ographer
asc ar
▁excell ent
on ed
▁b oss
▁R ih
▁block s
▁dis agre
▁Bab y
▁t ack
▁D S
▁Origin ally
▁pre tty
▁ille gal
ript ions
▁V e
▁bomb s
▁A ld
▁H ur
▁per ceived
▁M other
id ers
▁serious ly
▁cho ose
▁Tok yo
v ant
ic ate
▁R ico
▁L ess
▁com fort
▁ap artment
▁Den mark
▁remark ed
▁west ward
▁Jon athan
▁Rid ge
▁use ful
▁wa iting
▁t ight
ro se
▁circumst ances
augh ters
▁Bern ard
▁Base ball
yl er
▁cur ren
▁Play ers
▁Atlant a
▁Rih anna
ar o
▁sk et
▁coin c
▁surre nd
▁meet ings
▁drug s
▁10 1
▁batt alions
it age
▁C hel
▁doll ar
▁H ann
▁Abb ey
▁s ick
▁John ny
▁instit ution
▁N ixon
▁ph one
▁b reat
▁civil ian
▁lay er
▁W or
▁Ter rit
▁arm our
▁read ers
▁T on
▁wh ilst
az ing
▁R oll
▁g ust
▁ch amber
▁mat ters
▁cast ing
▁friend ship
r ings
▁t iss
▁P il
em en
ap olis
▁Ju an
▁strengthen ed
▁h orn
▁vis iting
▁plan ets
▁h olid
▁r ub
▁Camp aign
n g
in ian
▁M aj
▁rec onnaissance
▁16 8
m i
▁ret ain
▁similar ly
▁Pit ts
▁simultane ously
est one
▁In n
▁Ed wards
ming ham
r int
▁C hen
▁Ar nold
▁leg acy
ess es
▁altern ate
▁dem anded
L C
on omy
▁ty phoon
▁O pp
ri k
▁em pt
▁A y
▁W ag
▁pan el
T W
ac c
▁R al
▁just ice
g ro
▁Le x
▁enl isted
ar th
▁S oul
▁al ive
▁ins isted
▁Rail road
▁I ran
j an
▁re vers
▁Pri ze
▁h ook
▁R ub
est yle
▁ship ping
▁Mc M
▁Mad ag
▁Ke ith
▁Jim my
ro v
▁ro ots
▁neigh b
▁re venue
ent le
▁prom ised
▁dem ands
▁bomb ing
▁Intern et
▁S em
▁person ally
▁l anes
▁athlet es
▁R achel
▁con sole
▁prop ag
▁Mic ro
ar ation
▁main land
▁dr ivers
▁strugg led
▁defin ition
▁look s
▁port ions
▁p ione
▁P ars
▁back ed
▁contin u
▁aud ition
▁orchest ra
▁behavi our
l ain
▁s ung
gh an
▁J ar
▁d iver
▁C ost
▁Sh aw
ac re
▁art ific
▁gu ilty
▁guitar ist
▁Yanke es
▁ μ
ot yp
▁B ach
▁job s
▁16 6
▁market ing
od ox
▁ob lig
▁arm ies
ar ant
ag h
reg ation
▁F at
▁sur pass
▁Gr ay
▁Bir mingham
▁demol ished
▁Tr acy
▁d ancing
it is
▁L ost
▁star ring
▁Further more
▁M ans
▁rul ing
▁c up
it i
▁in du
ic ation
ind ing
▁fe els
▁N ine
▁V ik
ater n
▁Ob ama
▁H ugh
▁F el
▁comp ens
az ines
▁incre ases
▁prof ile
▁fact ory
▁Const ant
▁Event ually
a very
▁compl iment
▁ess ential
▁10 9
▁p unk
▁S ak
▁min ing
▁head ing
▁Univers al
▁the ater
▁count ies
▁Can ter
f olk
▁p ages
▁S ig
▁ob st
▁exp ression
▁organ isation
▁McC artney
▁Enter prise
▁purs ue
ou ver
▁disc ont
▁belie ving
▁aff ect
▁discover s
um ps
ap ped
ract ion
▁pat ron
▁deliver y
▁bon us
▁multip l
▁B aker
▁Budd h
▁Phoen ix
▁s alt
▁J up
▁cl othing
▁17 3
▁Com ple
▁st ick
▁port s
▁suc ceed
▁Hud son
▁T ol
p y
▁P ubl
▁mob ile
▁s ad
▁K l
▁cre st
f le
▁elev ation
▁K .
▁ac ou
▁k iss
▁Bob by
▁Way ne
▁Kar l
c les
ult an
▁Girl s
▁Conn ectic
▁S i
▁Pear l
▁dr ink
▁secret ary
▁doub t
▁Imp act
▁Madag ascar
▁s q
▁acc um
▁fore cast
▁or n
▁eng age
tar io
▁hor iz
▁Tod d
▁Connectic ut
b ird
▁Pe ace
▁Def ence
▁dem ocr
▁c hest
▁Bos n
O S
ir ty
▁al tered
au x
▁Mor rison
▁overse as
▁may or
▁bab y
▁H old
▁R ights
▁deter ior
in ces
▁list en
▁P att
ell o
▁On tario
▁exp and
▁De b
ow ed
▁K it
▁def ences
▁er ected
▁ren ov
▁Pot ter
▁D iam
▁can cel
war f
as ant
ir ts
▁v oy
sh ore
▁st ress
▁comp ounds
▁sett lers
▁Frid ay
▁music ian
▁Canter bury
m und
p ent
ok er
ack ed
▁Work s
st an
▁G oth
▁legisl ature
m at
▁p ale
▁Sp art
▁M anu
▁R an
▁object ive
yr us
▁Commun ity
▁Leon ard
▁F arm
▁15 2
▁dec isions
▁ra ising
▁high ways
▁aer ial
▁liqu id
o ons
▁dis l
▁convers ion
ak s
▁All ies
▁sol ar
▁after math
▁sold ier
▁concent ration
▁sc en
ens ively
▁campaign s
ro us
▁B ath
▁sit ting
▁Cy cl
▁A S
▁indic ating
▁consp ir
▁h app
ul ous
if ies
▁exact ly
▁N AS
▁h idden
▁pro ve
▁Fore ign
▁organ ised
▁wealth y
▁acknowled ged
am ents
▁Pr uss
▁perm itted
▁dang er
▁w restling
▁tro uble
▁rad ical
o a
▁L at
▁K an
▁impro vements
▁dissip ated
▁Gri ff
▁real ized
▁sk i
▁stri king
▁grad uated
▁d ressed
▁Wind ows
▁Napole on
▁T ed
▁Boy s
▁appropri ate
▁conf ron
▁exec ution
. e
rat ropical
▁an th
▁met er
▁Z e
▁UE FA
▁P y
▁observ ations
▁m ac
▁ra ids
▁l in
▁Le gend
ues e
▁prof it
▁Out standing
▁en cl
▁remov al
▁interpret ation
▁L aur
▁few er
▁travel s
ot te
▁sk y
▁celeb rated
▁ven ue
▁n et
▁sh arp
▁public ations
▁init iated
▁agg ressive
▁V anc
▁Se ason
▁tur ret
▁G ary
▁theat rical
▁chap el
at us
▁publ ishing
▁requ ires
▁evac uated
▁jur isd
in ister
iv ation
▁L ion
▁Vanc ouver
▁D all
▁deb t
itud es
▁found ing
▁orig ins
▁Min t
▁origin ated
▁t ort
it als
ip per
▁17 2
▁station ed
▁cann on
▁G ate
▁expl an
▁Sy mph
▁conn ect
▁Ed in
▁br ill
▁Jup iter
ol ly
▁def ending
▁Ab d
▁establish ing
r un
▁sup ple
ug g
▁mus h
▁consid ering
▁step s
▁rebell ion
▁sh orter
▁arrang ements
▁announce ment
ad ier
▁M em
▁Ch ampions
▁cut ting
▁Pak istan
▁b ones
▁Mount ains
▁f antasy
▁gu arant
ann on
▁mag ic
it ively
ra pped
▁Dr ive
O T
▁T NA
▁L ib
▁mag azines
▁conn ecting
aut ical
▁asp ect
▁T it
▁C ov
▁er r
▁approach ing
▁Brad man
a is
▁m emor
▁Ch ampion
aj a
▁ext ratropical
▁host s
▁don ated
▁walk ing
▁Æ thel
▁in g
▁pl acing
ph one
enn ium
▁strateg ic
▁O ur
▁ins ects
▁Portug uese
▁l ying
▁Tri ple
▁Administ ration
▁e .
▁on going
▁L en
▁discuss ion
he ars
▁10 4
▁fun ny
▁colle agues
▁tal ent
▁S hip
▁c ub
▁St u
▁ed ited
▁young est
▁gl ac
▁Al ice
▁pred ict
▁clos est
▁m al
▁qual ified
▁hyp othes
▁gat hered
▁for th
▁battle cru
▁tub es
as a
▁dec ide
▁Tro phy
▁vol umes
ec ution
▁J oy
▁put ting
▁land scape
▁red e
▁indic ates
▁cou p
▁waters hed
on ium
ad al
▁strong est
▁sw itch
▁withdraw al
▁Dw ight
b ow
f ts
▁G ene
vent h
▁Is a
▁189 3
▁ang le
▁for g
▁cap s
▁suppl ied
h ous
▁mark ets
▁ident ify
▁gr ay
▁l es
▁exp osure
▁circ le
▁Mar vel
▁Fle ming
▁neigh bour
▁des ert
▁spec imen
▁conf ront
▁mer ely
▁collaps ed
at ra
▁C hes
▁P ap
▁An c
▁189 6
▁part ial
▁challen ged
ear ing
elt a
▁Res erve
▁Hon or
▁be am
▁D ub
ann er
▁dens ity
▁Hamp shire
▁NC AA
▁b rig
▁M ission
▁Edin burgh
▁c ock
▁b are
▁sh ift
av el
▁vis its
▁lim its
▁dub bed
▁sp ac
▁feed ing
j oin
▁P am
▁St ri
▁Ol iver
▁hydro gen
▁B ak
▁prov ision
g .
so ft
iet h
▁Th ose
ag ger
▁cl in
▁pri ze
▁educ ational
▁convent ional
▁D od
▁Met eor
▁B eng
▁pl ain
enn a
ist a
▁S omet
▁F lying
▁se ized
oc y
ather s
▁Af ghan
▁du o
▁Y ears
▁ann ually
▁T ob
▁be aring
▁cor ps
▁concent rated
▁to pped
ir ates
ot al
▁ex ha
▁mar ry
▁members hip
▁ch ampions
▁189 8
ament al
▁attend ing
▁S ay
ip er
▁ass embly
▁par ody
▁b acter
▁rang es
▁Mos c
▁Chart s
▁dog s
h ard
▁N atural
▁off ense
▁n avy
▁T ype
▁f urn
ar r
▁T ig
▁emphas is
▁P in
▁Pr incip
▁Mon te
igen ous
▁11 1
▁week ly
▁Be gin
▁product ions
▁exerc ise
▁un less
▁leg it
▁talk ing
▁tick et
▁Me g
▁investig ate
▁L ist
▁N .
▁t rough
▁K ap
▁bas in
▁35 0
▁an ime
▁Fin ally
▁Ral ph
ü r
▁promot ional
▁cru c
ol ve
ter ior
▁Victor ian
▁b ond
▁Person al
▁b one
▁Democr ats
▁j ury
▁portray al
▁A x
▁M and
oy s
▁De ep
▁York shire
▁ce ased
▁fort ress
▁flood ed
uzz le
er k
▁12 7
▁advert ising
▁f ill
▁C elt
▁O m
▁reg ime
▁Argent ina
▁un com
port ed
▁cons ervation
ris ing
▁unc le
▁birth day
▁Ll oyd
on ica
▁P ink
▁K o
▁inv ent
▁co ff
▁employ ment
▁pers ons
▁M S
▁out put
▁qu een
▁Con vention
▁ball ad
▁send ing
▁W here
▁Christian ity
▁att itude
▁experiment al
▁Vill age
▁photograph s
▁b ishop
▁ev al
▁soft ware
▁194 0s
▁Brother s
▁hit ting
▁question ed
▁H az
▁Jer ry
ad ers
ov ić
▁gu ide
▁Over all
▁T ak
▁16 3
▁prov incial
▁Chron icle
▁L t
▁sc attered
pl ed
▁dr inking
▁transl ation
▁agg reg
▁P rop
▁unc lear
▁underw ent
▁mat ure
▁F und
▁K am
ham mad
▁189 9
▁overw hel
h in
▁out d
▁end ors
▁repl ied
▁assemb led
▁cous in
ic ations
rap y
▁Coll ins
▁c ens
▁p apers
▁M ong
▁cl ock
▁represent atives
▁liber al
▁co at
▁Pr im
▁law yer
▁Cra ig
▁swim ming
as hes
▁Mar ge
▁C ad
ay an
ra wn
▁ex ternal
▁comment ary
▁w ire
olog ies
▁procl aim
▁Ap oll
▁And re
▁thir teen
▁imag ery
▁Fin land
▁ster e
a ft
▁sh r
▁tra il
▁mon aster
▁Book s
▁emp ire
▁comp rom
ass ador
▁May a
▁wa it
▁lov ed
▁Gl en
▁How e
▁G or
▁law su
▁ter rain
▁acou stic
id al
▁sl ave
▁pict ures
▁exclus ive
▁d uration
▁N O
▁electric ity
im m
▁st reak
▁d aughters
am as
▁mov ies
▁10 8
ows ki
▁s ang
▁E ug
▁dev ast
▁Turn er
i oc
▁c ad
▁W ii
▁accompany ing
▁exper t
▁bran ches
▁surrend ered
ers ed
▁arr ives
▁ten ure
ate ver
ens ed
▁strong er
▁ident ical
▁S le
▁J un
pl er
▁bur ial
▁Hard y
▁success ion
▁P ad
▁Similar ly
▁d read
am an
▁be ats
ri ors
▁Nor folk
▁Queens land
▁re verse
▁comp onents
▁char ter
▁Prot est
▁16 9
▁Her itage
▁J ama
▁Bo at
▁redu cing
▁pric es
▁sc ar
▁reve al
▁e. g.
▁S ign
ell ation
pl ace
▁reinforce ments
ro d
▁Bur ton
▁Hawai i
er g
▁D in
▁pre v
▁trad ing
▁Bel gian
▁pen et
▁Nich olas
▁Profess or
ill es
▁sp aces
▁destroy ing
▁p ush
▁R ic
▁fail ing
▁mechan ical
.e .
▁compet ing
▁is ot
▁rec all
▁Be aut
▁exclus ively
ol en
▁Commun ist
▁Benn ett
▁comp onent
▁qu ad
▁st ops
▁at omic
ey er
▁Rang ers
▁my st
▁C ricket
▁Dav ies
▁counter p
▁Serv ices
he ll
er r
on ian
▁sl avery
▁Em my
▁precip itation
▁d ict
▁L ock
▁develop ers
▁Vinc ent
▁D ak
ric ts
▁dev ices
▁foss il
ib ilities
▁pol ar
▁govern ments
▁trad ed
est y
▁Cred its
▁C atherine
▁i .e.
c ase
▁re ward
▁min i
▁conf irm
▁po le
▁el ig
▁consist ent
▁Liber al
▁b anned
ur as
▁L iving
ab e
▁Th under
▁cent ers
▁Med ical
▁w ish
▁Y ellow
▁var ied
▁Sw ift
▁obs c
▁flow ers
▁M alt
▁D ram
▁artific ial
▁L em
I V
▁t ube
▁p el
▁N i
▁rad iation
▁Hug hes
▁was te
▁H ob
▁R ud
▁consid ers
▁red es
▁platform s
▁vir us
▁to mb
▁inc om
▁Loc al
▁Transport ation
▁b ath
▁C urt
▁L ook
▁o w
▁v s.
▁Don ald
leg raph
▁contrib ution
▁dis b
▁elect rical
▁earthqu ake
p ike
▁T ax
et hel
▁Gu itar
itar ian
▁hy brid
▁Tra ining
▁burn ed
▁M ust
ang el
▁189 7
▁Pri x
▁hum or
▁architect ural
▁songwrit er
▁review ed
▁e cc
▁pro ceeded
▁four teen
▁bo ilers
▁Ne xt
▁profess ion
▁Mark et
▁adv ised
rast ructure
▁underst ood
on ald
▁frequ ency
▁Pet ers
▁Harv ard
▁hand led
enes is
▁inters ects
▁talk s
g s
▁C O
ac les
▁destroy er
▁impro vement
▁l ie
▁he ir
▁B ald
▁am ateur
▁cop per
▁A ra
▁Dar win
▁Sax on
▁tex ts
M I
ro st
▁require ments
▁the ore
ö n
▁con ceived
▁Sw iss
▁sam ples
u ating
as m
▁D yn
▁10 6
▁conf lic
▁phr ase
T S
▁in duct
▁port r
it ely
▁invest ment
▁Camer on
▁re in
▁K ate
▁Bl u
▁six teen
▁refer ring
▁redu ction
▁Mosc ow
b al
m ith
▁sh ares
ens is
▁Os lo
en cing
▁us ers
ult y
▁rec on
▁air field
▁Gall ery
▁Pitts burgh
ed ing
▁w orn
um ble
▁char ity
▁certain ly
re hens
▁we igh
ax y
▁Har bor
▁vot ing
▁Indones ia
▁P ic
▁respect ive
▁cle ared
▁16 7
▁pra ising
▁s oph
▁Ph ys
▁Ge off
▁park s
▁lab our
▁C raw
▁constitution al
et o
▁ex ceed
st rong
▁l ock
▁n it
▁In v
▁15 4
▁conn ections
▁phot ography
▁flow s
▁tact ics
▁A M
▁gross ing
▁spok en
▁to ured
ff ield
▁qual ifying
h aw
▁bl ind
▁surv ival
ing ham
ter y
ethel ess
ep ing
▁aut umn
▁should er
▁Ter ry
▁swe et
g om
r h
av or
▁contin uous
▁f isher
▁Al i
▁rul er
▁re organ
▁st uff
▁Al aska
▁comm enced
▁command ing
e an
▁P S
▁Anton io
▁n autical
▁M ond
▁M ason
▁pat ients
▁T ow
▁un w
▁conf idence
▁tax es
▁legisl ative
▁Broad cast
▁ton nes
▁unl ik
▁f old
ic ated
▁opportun ities
▁enthus i
▁f asc
▁ex ists
▁att orney
▁transport ed
▁Wall ace
▁S weet
▁R est
▁sign ature
▁commun ist
▁S om
▁compet itive
▁camp s
▁ur anium
▁Micro soft
▁rel ocated
▁transl ated
h um
▁n at
▁' A
▁mel ody
p ot
▁J TW
▁St ill
▁JTW C
ar io
▁May or
▁Ste f
▁t ested
▁G ot
▁En t
▁ind eed
▁minor ity
▁U pper
port ing
▁Sy ria
▁rock s
▁reinf orced
▁f ulf
▁A P
▁After math
▁travel ing
▁S id
▁H D
ash i
▁Cl ay
▁fair ly
▁s overeign
▁m oon
ill o
ces ter
▁dec e
▁command ers
▁rev ised
▁rev olt
min ster
▁p airs
▁189 0
amb ers
▁P ast
▁nob le
▁O ri
▁imp ression
▁cart oon
b es
▁R P
▁E mer
▁Gr ace
▁man ga
▁expl icit
exp ected
▁un con
▁withd rawn
▁St ars
▁She ffield
▁crop s
▁A er
ang er
▁Se e
▁bl ues
▁Ad v
▁Ex per
▁program ming
t es
▁acc ord
urric anes
y e
▁dis char
▁extend ing
▁Israel i
▁Lar ry
e ared
▁f ram
▁E c
▁displ aced
▁R u
▁F r
oc a
▁exper iments
▁Sec urity
▁h ole
▁189 5
▁Off icer
▁Tra il
▁princip les
▁Lu ke
▁vo ices
▁p ap
▁H alf
▁prom in
▁ext inct
w here
▁C ass
▁F u
av ia
▁prov inces
▁ch ron
▁V el
▁represent ation
▁magn itude
▁learn s
c ott
is ive
▁con ce
se ud
▁character istic
uss ion
▁prison er
▁enf orce
od a
▁dist ant
▁cat al
▁Jeff erson
as ks
ut o
▁O sc
▁17 1
▁sum m
▁Her ald
▁Game S
▁cul min
▁Pict ures
▁Dall as
▁s ample
▁w onder
▁c raft
▁ab use
▁mar ine
▁light s
▁Bry an
▁interpre ted
▁Clar ke
▁John ston
l ad
it ious
▁T ogether
▁C yrus
um ph
▁war fare
▁n erv
c ar
ach ing
▁rel atives
ut ton
▁comp ound
▁pract ical
ro oms
▁he m
▁appro aches
▁rival ry
▁ id
▁he rit
▁Qu est
▁M ix
▁Aust in
▁Gu inea
▁vict im
▁cut s
▁Malays ia
▁Perform ance
▁D aw
▁Ch ile
▁air ing
▁Def ense
▁displ ays
z ed
▁10 2
▁trad itions
▁jud g
▁burn ing
▁propos als
▁shif ted
▁b ull
▁O wen
▁car ries
▁sk ill
▁light ing
▁re hears
▁W ells
▁O range
ue z
▁war nings
▁Ste el
▁W oman
▁E is
▁ch ore
▁block ed
▁girl friend
▁multipl ayer
▁s ings
▁rest ore
▁my ster
▁Ne il
▁grad uate
▁medic ine
▁Pars ons
▁F BI
▁N ord
▁particip ation
▁Off icial
▁Gre ater
ation ally
▁we b
▁reb els
▁th under
▁E ight
ag s
▁man s
▁abs ent
▁transport ation
▁prepar ing
▁12 1
▁score s
▁Fall s
▁Pr iv
ici ency
▁L iter
▁con ven
▁mar ch
▁Chel sea
al ia
▁T ai
um ped
▁val uable
▁Dan ish
▁interview s
▁C S
▁prot ests
▁cycl ones
▁Form ation
▁brill iant
▁w ished
▁S ac
ur d
▁r iding
ah a
▁sal ary
▁Class ic
▁film m
▁Ne v
l en
mer ce
▁pass ion
▁sal v
▁Arm strong
▁Desc ription
y d
▁p ier
▁Se ga
▁Brazil ian
▁unlik ely
▁c reek
▁H av
▁inf l
▁recover y
▁McK in
le ans
ber ry
▁cab inet
▁E ve
oc ity
▁Que bec
▁maintain ing
▁F isher
▁dist ricts
▁Begin ning
at ers
▁16 2
▁Stud io
▁A T
▁R ena
▁Great est
▁reform s
▁cinem a
▁f est
▁Y am
▁inter vention
▁g arn
▁arg uing
▁estim ates
▁cour ses
▁grand father
▁drum mer
▁Four th
▁Ka iser
▁rac ial
▁con tend
▁cl ar
▁am ph
▁a ft
▁bene ath
▁recur ring
▁Act or
▁S alt
▁R io
▁G a
▁rele g
▁Sp irit
▁signific ance
▁pet ition
▁vulner able
▁e ating
▁N S
az e
▁kill s
▁tow ers
▁L ink
▁E ff
▁up set
▁advert is
▁accur ate
est on
our ce
ur i
▁I l
▁G ay
▁divers e
▁E th
▁val id
as er
le te
▁Cat hedral
▁Author ity
▁Pl ant
▁stat istics
▁communic ations
▁Constant in
▁O .
▁Ag ency
▁V ers
▁Re ich
▁spons ored
▁c ant
ong e
▁par as
▁applic ations
▁h ind
be at
▁Sus an
▁J r.
▁cl othes
▁Or leans
n t
i ar
▁sh ock
▁ans w
▁K ane
ose xual
▁number ed
▁eff icient
▁Ut ah
▁P oly
▁un expected
ach ute
▁air line
▁Har old
▁Cult ural
▁M end
▁I van
ab ilities
▁sur ve
▁Serb ian
▁Glob e
▁to ler
▁S ug
▁J unior
▁15 8
▁ste ep
▁mor ph
▁sac rif
▁decor ated
▁C BS
▁Am b
▁shall ow
ut or
▁inc lusion
▁last ing
it ate
▁fac es
▁ess entially
▁ans wer
uck er
w right
▁t ale
▁p m
▁m ate
▁g ender
▁Sc ar
▁i P
▁FI FA
é t
er ver
▁cons olid
▁11 3
▁186 1
▁surpris ed
M E
ip ped
aff e
▁16 1
▁chart ed
AT O
▁m ood
ot ing
▁ch ronic
▁j et
▁Rich mond
▁188 9
▁emot ion
▁l iner
▁Pan zer
▁Mu hammad
▁ ′
▁deep ly
O C
m n
▁New ton
▁beat en
r ary
▁the ories
ash a
▁squad rons
▁M I
land ers
anc he
▁189 4
▁rat io
▁f ate
▁mer ged
▁Prov ince
d ess
her s
▁man age
▁sum mit
▁pot entially
▁Const antine
aid en
or ia
▁dra fted
ke eper
▁Republic ans
▁susp ic
▁T yler
▁15 3
lev ard
▁to urs
cast le
▁process es
▁h o
ik o
▁Scient ology
v et
▁P ok
▁gra ve
re ated
▁Min or
▁sw it
▁189 1
▁proport ion
ak h
▁cr imes
Ar thur
▁desc ent
▁Stu art
▁sent ence
▁danc ers
▁d ual
ens on
▁dem o
▁100 0
▁Fer r
▁be ating
op p
▁sc r
▁You T
▁mer c
▁civil ians
▁seg ments
▁persu aded
▁d ense
▁F ighter
▁beaut y
▁d im
oc ation
▁fund ed
▁implement ed
▁herit age
▁h ills
▁b ell
▁b oot
▁In s
▁Or chest
▁accommod ate
▁Apoll o
▁YouT ube
▁react ions
▁Pict ure
▁alt itude
▁Pro duct
▁Mr s.
▁S out
▁man ip
▁col ors
▁X II
▁B es
▁F ull
é s
▁present ation
▁gold en
▁agricult ure
▁Indones ian
▁w ine
▁Buff alo
▁p ip
▁Am endment
▁struct ural
▁compl ained
b orn
▁ rib
▁T ang
ist ent
▁pro of
ap ing
▁fe ared
▁15 6
▁adm inister
▁189 2
▁dev oted
▁Al t
▁ev ident
▁column s
▁add ressed
▁sout heastern
▁Card iff
▁n urs
▁requ iring
▁sail ing
▁d warf
▁re join
▁Symph ony
▁S ultan
bo ards
▁ori ented
ons in
▁tri ang
▁Qu ar
▁H ad
▁13 5
▁Mc N
▁break s
▁D ays
▁Cons ervation
▁f ame
▁W a
her ic
▁K yle
ys elf
▁obs ervation
▁Hun ter
▁A A
▁W isc
▁er ror
▁18 00
▁j ack
▁trib e
▁tru ck
▁Burn s
▁Brook s
▁voy age
st s
▁W onder
▁With out
▁G round
▁follow ers
▁rece pt
▁myth ology
▁kid n
▁c ards
is ons
▁S ox
▁Reg ister
▁interact ion
▁pregn ant
▁Joh ann
▁p ink
▁D anny
▁conf usion
▁jud ges
▁g ene
▁R uth
▁kn ee
ock et
▁resear chers
▁re ct
▁A ber
▁quar ters
▁Elect ric
usal em
▁holid ay
▁jurisd iction
▁S ection
ul us
osp el
▁C avalry
▁W alt
ri fic
g ie
s or
▁N ature
▁He b
▁inter medi
oth y
▁oper ates
▁Islam ic
▁M all
▁sudden ly
▁categ ories
▁S ide
▁P ant
▁P rest
▁Un til
▁diplom atic
ant ed
▁su gar
▁writ ings
▁24 0
▁comment ing
▁super st
▁op ens
iz er
ious ly
osa urs
V .
n els
▁F itz
ark s
▁Act ress
▁emb arked
ro b
▁T itan
l on
▁t ension
▁Met ropolitan
▁phys ics
▁ ⁄
▁H ope
▁adv ancing
▁sculpt ure
▁highlight ed
ch a
▁ext ensively
▁Air lines
▁187 0
s burg
▁s ized
▁Jer usalem
m aster
▁ ₹
▁f ert
▁th rown
▁be ars
▁G ang
od ed
qu est
▁ass um
▁similar ities
▁princip le
▁Wisc onsin
am ount
▁g aining
im p
▁ag es
▁stud ying
ling ton
▁Bo eing
▁Just in
▁challeng es
en os
▁m ud
▁B ible
▁Ab u
N C
▁to oth
ur st
▁man if
▁Ex ecutive
▁Tr ade
▁dro wn
▁gard ens
▁200 0s
▁Ed ition
▁lif etime
H S
▁K id
▁St art
▁En v
▁equ ally
▁sent enced
▁stat ements
I .
▁M eth
▁kn ocked
▁Leg isl
▁Ty phoon
▁inf rastructure
▁m 2
▁or ange
▁fe e
▁constit u
▁g ift
▁r ivals
▁loc ally
▁Bar nes
▁Sch um
▁educ ated
▁univers al
▁disturb ance
▁div orce
▁Cr us
í n
th odox
p ine
ed ia
▁B ased
▁pred ators
▁M ind
▁tradition ally
▁deal ing
▁bound aries
os ph
▁var iation
▁Gr ade
▁pri est
▁t ies
▁g h
ch i
▁N as
▁Se an
▁sw ord
▁Independ ence
▁overl ook
ancell or
at ched
▁Mil es
▁document ed
▁S ud
▁expl aining
▁empt y
▁T rad
▁res olved
▁Bar on
▁Mont gom
▁Sat urn
▁Montgom ery
▁B ud
▁U C
▁188 8
▁Att orney
▁stret ch
▁rece ives
▁Pat ri
▁Rog ers
▁r ings
▁sp awn
ph an
▁Le af
▁Cent ury
▁vill ain
▁sc re
▁en abled
▁settle ments
p iece
▁11 2
▁Cont rol
uls ion
▁recru ited
ap le
▁sup ern
▁Sc ots
▁discont in
▁garn ered
▁t ape
▁for b
un ning
▁188 5
▁Mac Arthur
▁consider ably
▁Tur key
▁trav elling
n i
▁ urg
▁T u
▁S yn
▁n aming
▁expl ore
▁commerc ially
▁benef its
▁c ry
▁C emetery
▁hel ps
▁tick ets
▁l ift
▁st rand
▁F act
omet ric
▁host ile
back s
▁resc ued
▁W es
▁se as
▁sm oke
▁opt ions
▁I cel
▁cr ashed
▁sub stitute
▁ash ore
▁W inn
▁invol ves
▁weaken ing
▁μ m
▁T oy
ri en
▁cl iff
▁Le v
▁Christ ians
▁fle x
▁Sher man
▁P ul
▁dis order
▁bat ted
▁d imin
▁gu y
▁task ed
▁prote ins
c ut
▁A ges
▁B ert
▁concer ning
D .
w ald
▁d ying
▁sp ar
▁hous ed
▁Mov ie
▁escort ed
▁Pier re
u ters
ri ft
ren e
▁do ors
▁det ect
▁C P
▁ass ert
▁Mid d
h ill
▁st yl
l ights
ag ers
ov ak
▁dep icts
ell ar
▁ep ic
▁Be h
▁Fl ore
z ing
▁in ning
▁v ig
▁Sp ider
ann e
▁circ ular
▁elabor ate
▁inn oc
▁purs uit
▁Balt ic
▁bor row
▁volunte ers
▁concur rent
▁Icel and
▁C er
▁god s
▁Jud ge
▁A ren
▁K rist
gg ed
▁din ner
▁imprison ed
é n
▁in hib
▁n ut
▁F low
▁U nd
▁Man agement
s a
▁t el
▁re ass
▁C e
▁F ish
▁F ern
▁Th ames
▁author ized
▁collect ions
▁Rom ney
▁wars hips
ol ar
▁N eb
▁Re f
▁ed itions
▁compet itions
▁conflic ts
▁team mate
▁T ourn
▁purs ued
í a
▁F il
▁He arts
▁At hens
▁14 5
▁tem po
▁186 5
▁Barb ara
k h
▁p ill
▁rev ival
l ane
▁Ste in
▁f ra
▁l iver
▁r amp
ard o
▁event ual
▁favour ite
▁polit icians
▁97 8
u ction
ou rag
▁Re agan
▁Ev il
▁har bour
t ains
▁virt ually
▁C ode
▁C row
▁B ask
▁opp osing
▁dra in
▁Reg ional
▁M ang
▁con j
▁Com edy
▁screen play
▁chem istry
▁ur ged
▁N ATO
▁15 9
▁manufact uring
▁belief s
▁Again st
▁renew ed
▁c am
▁B ranch
▁H unt
▁P as
▁ab road
▁Z one
▁hand ling
▁veter an
▁Represent atives
▁ch ase
▁c ensus
▁N ancy
▁mix ture
▁c able
▁F ight
▁portra it
▁vel ocity
▁st ones
▁le af
▁un ve
▁11 7
cl iff
▁exam ination
▁susp ected
▁univers ities
a o
▁S onic
▁An y
▁med als
el ing
▁st olen
▁particip ants
▁cong ress
is ition
▁r ushing
ubl in
▁ver te
▁prom ise
g ow
▁l aps
▁F ace
▁sp ur
▁Re port
▁Trib une
on ation
▁tra iler
▁c ow
ro e
iz z
are st
▁col ours
▁Nov a
▁poss ess
▁promot ing
▁rend ered
▁remember ed
▁c attle
an im
▁there by
▁organ isms
and o
rid or
▁shark s
▁inher ited
in ery
▁T ru
▁Ch ad
▁V .
▁pit cher
m o
▁t aste
▁app ly
▁inter ven
▁S af
▁com ics
▁New castle
▁Portug al
▁s or
it ic
▁In vest
▁capt uring
▁Ern est
p oint
▁G ran
▁B right
ot ion
▁tra pped
▁decre ased
▁l oud
▁D raft
▁pro x
oc al
▁dec ay
▁pos itively
▁11 4
▁track ed
▁cost ume
▁bombard ment
▁tiss ue
▁11 8
▁Constantin ople
▁v ital
▁hop es
▁compos itions
▁accident ally
▁inh ab
▁H as
ob a
▁ra nd
▁inv aded
▁45 0
▁celeb ration
▁W ed
▁Gl as
▁Mag ic
oc c
▁prot otype
▁ble nd
▁s av
ild a
▁Charl otte
▁ju ven
is an
▁Person nel
▁occas ional
m ont
▁war ned
▁ ib
▁m aps
▁Sh ah
▁torn ado
▁M i
qu er
▁link s
er ts
▁Pet e
▁Heavy weight
▁Mer ced
▁hop ing
▁Jos é
l imin
▁ra ins
▁186 4
▁Liber ty
▁vari ations
▁anticip ated
id ia
▁J oint
▁up coming
▁Y outh
ick ing
▁Chap el
▁Labor atory
▁Aff airs
▁Env ironment
am pton
▁boy friend
ov ic
rib le
▁Corn wall
▁S aw
▁K on
▁Other s
▁A L
▁b omber
▁C ryst
▁l augh
▁V oice
▁sc andal
▁separ ation
▁Ag u
▁batter ies
b ing
▁d ust
▁do zen
▁prov isions
▁mark ing
▁gen u
▁labor atory
v o
▁s inking
▁re ver
▁imp ressive
▁access ible
▁Fre edom
col m
▁C inem
▁gu ests
▁horiz ont
f ly
ig ious
ul um
ep s
a uc
▁f ires
▁S ic
▁B eth
ri or
▁bi ological
▁eas ier
▁n ose
▁R O
ick en
▁Film ing
▁depend ent
▁nickn ame
▁G on
D I
h ou
rest rial
▁H om
▁support s
▁polit ician
ag les
▁V o
▁parliament ary
▁Friend s
▁rand om
▁C hester
▁ind igenous
▁threat s
▁avo ided
E R
or f
▁T erm
ugh t
▁aff ord
▁consum ption
▁l ighter
▁B apt
▁Mar ines
▁Le ices
▁Armen ian
he ld
▁the rm
▁f ed
ro gen
art ime
▁hand le
en berg
▁prog ressed
▁' B
▁D uch
▁form ula
▁el d
▁Kenn eth
▁C and
▁dep uty
ats u
▁hy per
▁bi ography
▁restrict ions
▁f ier
▁C ase
▁M embers
▁D J
pt ic
▁volcan ic
▁corpor ate
v ar
▁C inc
▁V ick
ail ing
▁Mal colm
▁Protest ant
▁Osc ar
▁ Đ
am ics
ort ed
▁ne p
▁tru ly
▁c ash
▁T ree
▁B ark
▁L P
▁imp osed
▁X X
▁Meteor ological
E .
▁to xic
▁S kin
am ine
▁B ears
▁P eng
▁Th r
▁tr unk
▁En ergy
▁mix ing
g é
▁f les
▁d a
▁M ult
▁L ower
▁r ugby
▁partic les
▁occur ring
▁Chamber lain
▁Ped ro
▁Orchest ra
le m
ag g
▁us age
▁Bou levard
▁murd ered
▁C ena
▁produ ces
▁Ant ar
▁Isa ac
▁not iced
▁evac uation
▁lic ense
iel der
ett a
▁cust omers
chang ed
▁dread n
▁w ound
▁in e
▁p or
▁cont racts
▁defend ers
▁M V
▁D ublin
▁Ch air
ach t
▁ac re
rack s
heim er
▁E RA
all ing
▁ex ile
▁met ric
▁13 1
op les
▁Th an
d ed
os y
ia h
▁186 2
▁cat hedral
▁T ake
▁Se x
▁Z ero
▁cho ir
▁lawsu it
▁ab b
▁rel ation
▁Athlet ic
▁pre st
j u
▁w ake
▁A ction
▁B reak
▁10 7
▁Ro om
▁Care er
▁Cycl one
▁spec ulation
▁kill er
▁Gu ild
▁ord inary
▁tim ber
▁intellect ual
▁nep hew
▁deb ris
▁engine ers
▁he nce
▁pl ates
▁Sl av
▁ang ry
▁Brad ley
▁depict ing
▁Gab ri
▁disappoin ted
▁W atch
▁Al tern
▁Ed die
▁c u
▁as ide
▁east ward
b ach
▁f ab
▁G lee
▁develop ments
▁threat ening
▁kil og
▁ign ored
▁conqu est
▁P el
emb le
▁indust ries
▁Cont inental
▁encoun ters
▁decre ase
▁Tourn ament
h l
▁ly rical
over ed
▁territ orial
▁Arch bishop
▁throw ing
▁complic ated
f or
▁Serb ia
▁w ard
▁m it
▁L S
▁ch rom
▁Lu ft
▁mechan ism
▁undert aken
▁revolution ary
▁thunder storm
▁un e
▁bre ast
▁Albert a
▁Cinc inn
▁s tern
umber ed
▁vic inity
al g
▁m ounts
▁F uture
▁Or d
▁conv icted
▁el ite
▁stri kes
▁human ity
▁touchdown s
▁M ann
os ion
▁rem in
▁15 7
▁13 2
▁conf ident
▁Tom my
▁convers ation
▁Spring field
it ol
▁m os
ie g
▁Mich a
▁Met ro
▁championship s
▁exhib it
ic ing
ent ieth
ac o
▁V illa
▁Col lection
▁22 0
▁focus es
on ial
▁p enn
ol ia
▁G ates
▁un t
▁mamm als
▁inaug ural
▁cont acted
▁Jo an
▁ent ert
▁lack ing
▁T int
▁g if
▁real istic
▁susp ension
▁pres erve
▁bo ost
▁farm ers
it ure
it ime
▁Pl ace
▁Gib ral
▁a rose
en cer
▁V eg
▁She p
▁const antly
▁fac il
▁Musl ims
et ary
▁met re
▁helic opter
▁P ros
▁st im
ik ed
uk a
▁Stud ies
▁diam ond
▁T ir
▁inf ection
▁post s
▁Yugoslav ia
▁to ols
▁pat ri
▁Marsh al
b el
▁in fer
oc ol
ell ers
▁vot ers
▁C anu
▁C het
om ed
▁K in
▁fe athers
▁collabor ated
▁predomin antly
▁Malt a
limin ary
▁U k
▁ass erted
▁phot o
▁Fried rich
▁thor ough
▁Wag ner
as p
▁th ro
▁J ake
▁des per
▁Sh iva
ig a
▁P ay
ort ion
▁Gibral tar
▁M aine
▁R ear
rol led
▁pat ient
▁absor bed
▁H ood
▁K az
ran k
▁cent ered
en z
▁rele asing
▁cast les
isc her
oir s
quir y
▁h oles
▁H ull
▁us er
▁Re ed
▁Rob in
▁t une
▁m ad
▁F ly
▁grow s
▁remov ing
▁pen insula
▁Wat ers
▁Cincinn ati
▁Com ics
▁Park s
▁Anc ient
▁Tai wan
▁R ound
ew ork
ub ble
▁illust rated
▁p ig
▁Angel ou
▁ap olog
▁explan ation
H g
▁know s
▁speed s
▁sust ain
L A
▁D ud
au ge
▁comp iled
ass y
▁res id
▁12 6
▁ant ib
W A
▁M aced
▁ret rie
▁His pan
reg ular
▁breed s
▁Norm andy
▁cancel ed
▁is n
▁sit uations
▁bow l
▁C ort
enn ial
▁independ ently
▁relie ved
▁en orm
▁en com
▁L ords
▁she ep
ah l
▁188 7
▁l ib
▁B rid
▁road way
▁Veg as
▁l over
rit ic
▁11 9
as ury
▁Sh ield
▁ple ased
▁Pok é
▁All iance
▁Afghan istan
▁K ill
▁off shore
▁Tw itter
en burg
▁cl ergy
▁mar ched
▁Mad ison
▁Ol ivia
▁lay ers
rel s
▁VII I
▁a est
▁Ed mund
▁186 3
▁locomot ives
m usic
▁E sc
▁out standing
▁view ing
▁188 0
▁pros per
h all
o i
ul ates
▁could n
▁188 6
▁Cons ervative
▁p aying
ic ular
▁S ad
▁R ush
▁are na
▁bl ast
▁gen res
▁Bur ke
o om
u ber
▁E ld
▁exp anding
▁Techn ology
▁clos ure
▁vary ing
▁L ud
▁back st
ring e
▁Greg ory
g us
▁m ild
▁but ter
over ty
▁Le eds
f ound
▁m ask
▁col ored
in stein
▁sent iment
▁disapp eared
▁Form er
umber land
▁Schum acher
h art
▁Brook lyn
▁b apt
av an
iz ard
▁Revolution ary
b u
▁per c
▁reg ulations
▁report ing
▁suggest ion
▁f ant
▁J NA
▁at op
▁sp ir
rib ution
▁celeb rate
▁Jul ian
g ary
▁S or
▁g rid
▁Or ton
▁arm oured
▁Merc ury
▁C ond
im ony
ane ous
▁Ser ge
▁dro pping
▁as c
ission ed
onn ie
▁fung us
▁C ou
▁C ry
▁conspir acy
▁induct ed
▁ ˈ
▁T alk
▁S oph
▁B urg
▁H ubb
ip her
▁fac ulty
▁Princ eton
▁C ut
ac ular
▁D ennis
ish n
▁ant hem
▁attract ion
▁Brown s
▁McKin ley
▁A ub
▁C hem
▁H us
▁N ation
▁K ra
▁rep orter
▁Hel en
▁rom ance
z es
▁R us
▁fl our
▁never theless
▁compan ion
A P
▁e agle
▁con ced
▁witness es
▁bl amed
get t
▁Tig ers
f eld
▁t ent
▁a f
le ted
▁Ch ang
▁sub mer
▁swe pt
▁ É
▁10 3
▁ox id
▁Organ ization
▁N athan
▁organ ic
▁fund amental
▁ML B
▁p seud
▁rem ote
▁Le o
▁rep ris
▁public ity
▁st ored
od ium
▁position ed
▁Histor ical
▁submar ines
f low
in ated
▁wh atever
▁St al
▁park ing
▁a qu
▁s ulf
▁M ut
▁V ern
▁Mus ical
▁Co al
▁Gh ost
b ie
▁E C
▁ret reated
▁ann ex
▁m ail
om on
▁st ability
▁vers es
▁Bar cel
▁Mon th
▁l ung
▁188 4
▁fort ifications
▁f ract
▁L amb
ust ers
▁12 2
▁prog ressive
▁focus ing
▁target ed
▁shel ter
▁condem ned
p in
he nd
▁in Hg
▁Hubb ard
▁no ise
▁Ste am
▁NAS A
▁g entle
▁sw ing
▁Glas gow
en ess
▁F ather
▁mon it
▁24 th
▁ir regular
▁dr unk
let t
▁flow n
▁correspond ing
▁Canu cks
r ity
y an
ed a
▁T ests
▁rec ruit
▁cur ve
▁A. V.
▁resign ation
▁disb anded
▁Is le
▁Oper a
▁Dev il
▁foss ils
▁Polit ical
c ell
▁P ick
▁N ass
▁ra b
▁Is ab
▁det ected
▁N ad
qu al
▁He y
▁conf used
▁conv ince
▁cru ise
R S
▁win ners
▁enc ourag
▁mel od
▁torped oes
▁magn etic
▁tele phone
▁challeng ing
aren ess
▁preced ing
▁M ak
▁ro ster
▁Sm ack
▁reb ounds
▁Hol land
ard ed
▁ch a
▁mach ines
▁ment ions
▁qu oted
▁br ings
▁Sol ar
▁Phill ies
▁Fif th
▁r ice
▁In side
▁Mont ana
▁fer ry
▁b ore
▁In sp
▁sc rap
▁reg iments
▁stud ios
▁ins urance
▁wor se
▁term inal
▁calc ulated
▁f ault
el in
▁The odore
▁direct ing
▁Her bert
▁tour ist
▁concept s
▁sole ly
▁d iversity
▁R I
▁tri umph
▁creat ure
aud ed
▁BC E
▁Celt ic
▁Tint in
ik i
▁Mill ennium
▁K il
▁than ks
ros cop
▁dark er
▁M orning
ish ops
▁ro tation
▁West minster
▁jud icial
▁n ice
ig ation
▁St rong
▁Se b
▁187 7
is k
ph al
▁histor ically
on so
▁h ide
▁13 8
▁fav ored
▁Advent ure
att y
▁CE O
▁t ap
▁f o
▁N am
av ian
▁exam ined
▁Ep is
▁scholars hip
▁Merced es
▁W el
▁j ersey
over y
hen tic
oura ble
in ter
▁R av
▁Bra h
▁Den ver
▁m yself
▁P oe
▁j ew
▁187 6
▁z ero
▁g ear
▁Y ard
▁Aust ro
▁conf ig
▁Bar n
▁Bask etball
▁M ig
um i
ew ise
i ors
▁c otton
▁At hen
▁Ex pl
▁battle field
▁C ox
amp a
▁11 6
▁Alb any
▁prompt ing
▁stead ily
h t
▁w artime
▁23 0
▁Gl ou
▁acclaim ed
▁reconst ruction
s is
▁B our
▁sh aring
▁tri o
▁ball s
▁mess ages
nd a
▁O cc
▁round ed
▁walk ed
▁The ater
▁Per cy
▁meas uring
▁Sal v
▁Ron ald
▁monaster y
▁S ri
lud e
▁12 9
▁spac ecraft
▁gh ost
▁elev ated
▁Goth ic
ö r
▁m asc
work s
▁Addition al
▁Bulgar ian
▁scre ens
▁C any
▁L ed
▁13 4
▁tro op
▁conn ects
▁lin ear
▁elig ible
ac er
▁H ok
▁R ivers
▁ag encies
▁gu ards
▁agre es
at isf
▁flow er
▁Cur rent
▁gust s
▁o ct
▁B ris
▁V erm
▁ro uting
▁tr ig
▁dec isive
▁them ed
▁dist inction
▁ref uses
▁cur ved
▁post p
▁commit ment
ri ans
▁pres ents
▁Ott awa
▁Carl os
M usic
l ined
at on
ar ians
▁ex terior
▁rad ius
▁mot if
▁accompl ished
▁Nev ada
▁p .m.
op ard
ak u
▁k ids
▁Ch uck
▁op ined
▁cloud s
v or
▁c emetery
▁st all
iz ers
▁arg uments
▁conduct ing
▁reven ge
c ont
▁c osm
▁to ugh
om ical
▁B erm
▁P ack
▁con vey
▁com ed
▁inc idents
▁h osp
▁S quad
▁post er
▁phys ically
▁walk s
▁Poké mon
at ar
▁e cho
▁R osen
▁D uc
▁Ab ra
▁Territ ory
▁proclaim ed
▁Barcel ona
et a
ol an
▁creat ures
▁lo ose
▁kilomet ers
▁Ca es
▁Micha els
ist ical
ab ad
▁Mar l
aul ts
▁particip ating
▁consequ ence
▁integ rated
▁rit ual
▁encom pass
▁F un
if fer
▁sp ell
▁S A
un ge
▁ind irect
s ch
▁Ar c
▁fin est
▁Me ga
▁reb el
▁cent imet
▁can on
ett es
▁wid th
▁187 5
▁Mil an
▁Card inals
▁ven ues
▁in tend
▁W is
▁sc out
▁En ix
▁run ner
▁to uc
▁ch ann
ree ks
▁Met ac
▁theat ers
it ars
▁H i
▁compliment ed
ab a
▁mar g
▁dem ographic
▁less er
▁proper ly
▁cerem onies
▁T as
▁l akes
▁sp ots
▁un h
▁enh anced
▁remin isc
ig hed
▁pr ince
ank a
▁contrib ute
▁Church ill
▁extend s
▁bor ough
▁Dra ke
▁deliber ately
▁mans ion
ub s
▁Col in
▁Park way
▁bow led
arth y
▁tel esc
▁F oster
se ason
▁cont rad
▁pe oples
▁Par aly
▁Ray mond
▁mart ial
b i
▁g ram
▁R BI
▁ins uff
▁var ies
▁188 3
▁Roman ian
▁Arch ae
▁prepar ations
ri um
▁He in
▁rem ake
▁heav ier
▁B od
▁south western
as ia
▁h arsh
▁W ings
▁weak ness
▁instruct ions
▁intermedi ate
▁min isters
▁Em ma
▁Oper ations
▁Manu el
▁on wards
▁Comp uter
▁transform ed
D own
▁poss essed
▁188 1
▁play able
▁co aches
▁contin ental
▁upd ated
▁prosp ect
he rent
▁h urt
▁achie vements
▁opt im
l ake
r ush
▁f ru
▁R NA
▁Sp eed
▁Circ le
▁Midd les
▁Smack Down
G M
▁V oy
▁ro ok
▁Sh in
▁Sc iences
ash ire
▁We ather
▁sens itive
▁initi ative
▁w it
▁y d
▁air borne
▁log o
H C
y c
in us
▁Al am
▁out come
▁rid er
▁Diam ond
▁trans mission
▁Bl air
▁Bel ie
▁Ven ice
▁propag anda
▁a ided
▁T otal
▁crit ically
▁North west
▁hom osexual
▁b in
ch w
▁Richard son
▁consider ation
▁Jama ica
▁all ied
▁vari able
▁mo ist
▁conscious ness
▁Paraly mp
▁B ass
og s
▁dis abled
▁15 1
app a
▁Pow ell
▁veget ation
▁autobi ography
ch t
▁Un it
▁186 9
▁orchest ral
ag i
▁Cal gary
▁tour ists
alt ies
iron ments
▁emer ging
▁depos its
▁to m
▁re h
ass ic
act ic
▁mon ster
▁dep iction
▁land mark
▁Comp osition
▁estim ate
▁Cont em
▁Dun can
▁exerc ises
▁Lanc ashire
▁sp ite
▁12 8
▁Fer din
▁Aren a
▁I b
▁un anim
▁work er
▁B ody
▁F a
▁pun ishment
▁perman ently
▁Hend erson
c ore
ar us
▁st om
▁186 6
▁consist ently
▁municip al
▁rout ine
▁D elta
▁Fl oyd
▁nort heastern
▁compris ing
▁b orders
▁ep it
▁pres idency
▁lat est
▁doct rine
▁as cend
▁Is les
▁amph ib
▁P sych
▁st aged
▁pre f
ring ton
▁dam aging
▁assass ination
▁ ion
▁perform ers
ator ial
▁sum mon
▁Med ic
▁manag ing
▁achie vement
▁env ironments
▁journal ists
▁search ing
▁deleg ates
▁subt ropical
▁d ock
▁A qu
ri ages
▁reve aling
▁pay ment
▁sail ors
▁C u
▁Car n
▁hon ors
▁belong ing
▁Plan et
▁M ills
▁comple ment
▁X I
▁witness ed
▁Fran ces
▁Ber g
▁myster ious
▁in put
▁Cons erv
▁Ell en
▁psych iat
▁encoura ge
▁Craw ford
▁m arsh
▁R ange
ri p
▁Cl oud
▁Us ing
▁od d
▁archae ological
▁con fer
▁se al
▁Ch an
▁Sp rings
▁mil k
▁prior ity
▁75 0
▁Rod rig
▁enl ar
▁reluct ant
▁Cany on
▁P on
▁philos opher
▁phenomen on
z ig
▁g ates
▁sil ent
▁prevent ing
g or
om ys
▁D j
▁disp atched
▁unsuccess fully
▁Leices ter
ol ars
▁12 4
arm a
▁an arch
ian g
▁act ively
▁arg ue
▁vent ure
▁T ab
id o
▁V ic
▁vers us
▁belong ed
▁hypothes is
▁m ant
▁pl um
▁Mar qu
▁Gro ve
▁length s
▁coach ing
▁Ver onica
▁swit ched
▁Cryst al
R C
▁F ood
▁Te legraph
▁ic on
▁Palest ine
▁'B rien
is ations
▁p overty
▁T ib
▁g est
▁P ra
▁st range
▁fin ance
▁cor ruption
▁eight een
▁frig ate
▁ro ot
▁list ening
▁ce iling
▁disp uted
▁aw areness
▁distingu ish
▁execut ives
▁T ucker
ad ows
▁M ile
id ge
▁P unk
ra ined
▁20 2
ass ed
▁scient ist
▁S H
▁introdu ce
▁188 2
ij ing
or ic
▁M ull
▁F ischer
▁v amp
▁ab st
▁direct ions
▁contrib uting
▁mechan ics
▁Head quarters
▁o v
st own
im mer
▁sh aft
▁expl oration
▁Ass ist
▁187 1
▁187 3
▁expect ations
as i
ec hes
▁r ational
▁An at
▁Film s
▁adj ust
▁h oney
▁Wh y
▁Reg ion
▁proced ure
R .
T unes
le x
▁wh ales
▁met als
▁intern ationally
▁s ib
▁F ur
▁form ations
▁car ved
▁ph osph
▁Be a
▁Pl at
rew s
bo at
▁Ke pler
▁molec ular
▁P ly
▁F landers
ust y
ner y
▁surpass ed
▁nat urally
r ud
as aki
▁m bar
▁186 7
▁object ives
▁Int ellig
▁le agues
▁she et
▁Se as
▁gu itars
▁adv ocated
▁impro ving
▁dimens ional
▁myst ery
B O
▁s aving
▁P ine
▁Tr uman
▁trib ut
A L
▁U B
▁des ired
▁priv ile
▁H ass
▁acc us
▁ship ped
▁Comm ons
▁Tr ue
▁re op
▁H il
ult ure
▁submer ged
▁S yl
▁un rel
▁process ing
▁discuss ing
▁abund ant
▁Dud ley
▁con vert
ist ocr
▁rem ind
▁require ment
▁overwhel ming
▁st aying
ier ra
▁ele ph
▁187 8
▁Stand ard
▁cub ic
▁t asks
ern ess
▁13 7
▁tem ples
▁accept ance
▁Mas ters
è re
▁res on
▁associ ate
▁Des ert
▁cruc ial
w affe
▁d ive
ou ch
▁horse power
▁Wat son
ed ed
▁c ro
am ation
▁M ail
▁K y
▁V lad
og g
▁New man
▁Be ijing
▁Dep uty
▁part ners
ang ered
▁Com merc
▁Ex ped
▁Mal ay
▁Byz ant
C O
▁Ad ela
▁expl ored
▁gen es
▁McC arthy
ack ing
▁est ates
▁block ade
▁compris ed
▁p ump
▁h az
▁R aid
▁spec ulated
▁aut hentic
▁key board
▁refuge es
▁nerv ous
▁came o
▁compos ers
▁opin ions
▁Gib son
▁chann els
▁un re
▁j aw
▁Tr inity
▁collect ing
▁m emb
▁ad equ
▁resemb le
▁frag ments
▁navig ation
G B
▁B ran
▁E agle
▁per f
▁load ed
▁g ran
ut ely
▁R if
ist ing
▁Col omb
▁suff er
▁aver aged
▁fem in
▁phot os
▁undert ook
in qu
im er
▁Cl if
su ing
▁i Tunes
▁immig rants
ut ter
▁Al pha
▁rep ublic
▁gener a
▁Gu adal
head s
▁Sur v
▁habit ats
▁Cult ure
▁Profess ional
▁turb ines
▁perc ussion
el ia
▁M eyer
▁Sc he
▁wh ale
av il
▁se eds
▁post hum
▁comprom ise
▁an ts
▁r ushed
▁fact ion
▁compl aints
▁manufact ured
▁ben ch
rehens ive
▁A aron
▁M ick
th lete
op ol
▁ass ets
▁Mon ster
l ia
re ction
▁s ic
▁b ars
▁met all
▁Ang le
▁hom eless
▁network s
▁M obile
▁L uther
▁rep et
▁consequ ences
▁les b
w yn
▁st air
▁man ages
▁under water
▁Metac ritic
h o
or ig
em ploy
▁coast line
▁Well ington
▁g auge
▁en suing
▁sum mar
▁diss olved
▁App ro
▁psych ological
▁reconst ruct
▁absol ute
▁Meth od
▁Bapt ist
▁U 2
amp ed
▁bu ff
▁symb ols
igg ins
▁erupt ion
▁em ig
▁contem por
▁god dess
▁honor ary
otyp es
▁Luft waffe
m other
▁W ant
ov es
▁up s
▁impro v
▁sym ph
ograp hed
▁Berm uda
▁cons ensus
ug s
▁length y
▁Tim ber
▁Shel ley
id en
▁rel ied
▁ult imate
y ll
▁c ave
un ar
▁var iant
▁Mon roe
▁lem urs
▁add s
▁br ut
▁loyal ty
c our
d i
f r
▁o l
▁f ears
▁C ool
▁sing ers
ott o
▁Ur ban
▁K em
▁sign als
▁186 0
▁M C
▁int act
▁land ings
▁qual ities
▁reserv es
▁RP G
▁fra ud
▁unve iled
▁Agu iler
ic us
ol ith
▁H erm
th rough
yl um
▁187 2
▁disapp oint
▁Mach ine
▁eld est
▁C M
▁Sh ar
ik es
▁Wood s
▁Sel ena
▁teacher s
▁assess ment
em a
▁ar istocr
▁Sh an
▁rock et
▁186 8
▁Ot to
▁Aguiler a
▁12 3
▁Not able
▁fles h
▁d uck
us ive
▁Mar x
▁def enses
▁amb assador
▁interact ions
▁doct ors
▁H at
ov sky
▁am id
▁mill ions
▁Hen ri
▁Engine ering
▁battlecru isers
▁R ah
▁emot ions
▁spect ators
▁M om
▁Ch oice
▁del ight
▁liter ally
▁prin ting
▁gross ed
▁Var ious
▁bats man
or ge
ew ard
▁se ar
▁comp aring
▁trad em
▁ess ay
▁pound er
▁Wol ver
E D
▁o wing
▁g am
▁we ighed
▁tw entieth
▁songwrit ing
ig o
▁P i
▁cost umes
▁lif ted
▁Ell is
▁ch lor
▁cl ip
▁Fl ames
lic ted
▁Fem ale
▁enorm ous
st ad
im ity
▁E sp
eb e
aun a
▁Cab inet
▁st abil
▁W ool
▁St age
▁eng aging
▁intellig ent
▁explos ive
▁bacter ia
▁Dak ota
c ock
▁r ally
▁inter f
aur us
▁ren t
ed ar
st ar
ir i
▁F ab
▁de alt
▁Le igh
▁tri ps
▁rev ived
▁W rest
▁Ch in
▁25 th
▁polit ically
▁appe aled
mon ton
▁instruct ed
▁patrol s
▁Rena issance
c i
u its
▁M oney
▁P ent
▁G enesis
iss a
▁str ings
▁insuff icient
▁Exped ition
▁h ier
▁de als
▁MV P
d am
▁t ensions
ic he
▁M k
ke ley
▁te lev
▁New port
▁rel ating
▁Ne pt
▁read er
▁instrument ation
▁horizont al
▁st roke
▁L ore
▁en rolled
▁Soviet s
▁Dr um
▁Phill ips
▁Chand ler
▁Adela ide
▁su ited
▁dig it
▁Max well
▁dise ases
▁bit ter
▁graph ic
▁WW F
or us
▁c ats
▁H anc
ber y
▁sub ordin
▁h urricanes
▁l iv
▁an x
end ar
▁wood s
h and
n al
▁S ans
▁R iley
▁He aven
▁vocal ist
▁incom ple
▁Curt is
▁Geoff rey
z o
▁N ak
ra v
▁sub d
▁refere e
f orce
▁M ol
▁cl an
▁wid ow
▁But ler
▁slow er
▁extra ordin
▁Ferdin and
▁term ed
▁chap ters
▁mush room
▁reminisc ent
▁Kn ights
▁inters ections
▁Sur rey
▁exhib ited
ut onium
▁Bar rett
▁decl aration
▁miss ile
▁alleg ations
▁inc red
olog ically
▁There fore
▁et c
▁Abra ham
t he
▁w ishes
ul u
▁coun sel
▁Es sex
▁over come
▁Sp encer
▁Sc reen
▁invol ve
▁mist ake
▁discip line
od on
▁Mad rid
▁tact ical
▁mathemat ics
▁Ply mouth
p ect
▁P rison
▁R ight
▁Cap ital
▁disl iked
▁W ald
▁F ellow
ich i
▁Bl ake
▁cult ures
▁Met al
▁185 0
▁Bur ger
▁Rom ans
▁gall ery
▁Comb at
▁GameS pot
▁sacrif ice
▁h unt
▁sh irt
ot he
▁L ie
▁He ath
▁inter ference
▁mod est
▁athlet ic
▁quant ities
▁Fran co
▁join s
▁Mov ement
▁f rog
▁T all
▁sh ar
▁trans it
▁thick ness
od ied
▁exp ense
▁proceed s
z i
▁h ung
▁H ond
ul k
▁N L
▁res ur
▁synd rome
▁Res ident
▁Marc us
w ind
▁f inger
al id
▁C ome
enn e
▁Ad rian
▁circ les
▁fight s
▁cal iber
▁nickn amed
▁Bosn ia
▁b ol
le nd
▁A 3
▁ass ign
▁Daniel s
▁suppor ter
▁Contem porary
ur ers
▁import ed
▁Pol l
▁mach inery
▁mig ration
▁Hanc ock
▁B ri
ra ine
▁sp ores
▁interview ed
▁Cont in
kin son
▁pan els
▁Rel ations
▁Vi ew
▁locomot ive
▁Brig adier
▁nom ine
▁rep aired
▁ri fle
▁fat al
▁A viation
▁was hed
▁g aming
▁Fer gus
▁flu id
▁T ales
▁he ct
▁G az
▁E qu
▁Sp it
▁contin ent
▁Fl ood
ops is
▁Flore nce
ic ity
▁B rew
ol o
im ir
▁comment ators
▁cust ody
▁f are
st and
▁j oke
▁bank rupt
▁shop ping
▁Nob el
▁molec ules
▁m isc
▁Publ ishing
▁prox imity
▁ra w
▁Re ading
▁Bald win
▁Tas man
▁be er
▁K ub
ik h
▁Ag ricult
▁Jer emy
▁flu or
▁m im
ot illa
art ed
▁Admiral ty
▁Us her
▁curren cy
▁redes ign
at hetic
▁S uz
▁Le ad
▁Nor se
▁Tw enty
c ious
n ut
id ay
▁cur ves
▁Her gé
▁Vi enna
▁Ark ansas
▁pron ounced
p it
▁l ip
▁B ot
▁Man ning
▁Roman ia
▁acqu ire
▁Jenn ifer
▁Prest on
▁h atch
ast on
▁all ocated
▁Lt d
▁S ib
▁L af
▁Art icle
▁flo ors
▁p uzz
▁P ut
▁N um
▁cont ested
▁under go
▁Le ban
▁success ive
▁know ing
▁separ ately
▁rul ers
▁Banks ia
P S
x ide
▁t ong
it ects
▁re ef
▁M am
ur bs
os ity
▁St ories
▁un aware
▁Sh adow
▁dem anding
▁mem ories
f ront
▁B uch
um ar
▁Arch itect
▁McD onald
▁a viation
▁B ent
elf th
▁pop ulated
▁Ad ri
▁187 9
▁Mot or
w ig
▁s ect
al ysis
▁J G
▁dis gu
ash ing
ung le
▁maneu ver
▁C C
▁pre liminary
▁discuss ions
▁Gar c
▁gather ing
▁K es
▁publ ish
▁north western
M .
re z
▁S uff
▁inter rupted
▁New found
▁Min ogue
▁compar able
▁Id ol
▁P all
▁al ly
▁O w
▁pro ud
▁sc rapped
▁Gl ass
▁z ones
▁regard less
▁Elect ronic
▁d awn
▁Ch ase
▁McC ain
▁cyl ind
▁cyl inder
p es
▁b ills
as se
▁g olf
▁Cap itol
▁phot ographer
▁screen ing
▁farm s
▁Skin ner
▁All music
▁Or thodox
▁Char acter
▁Bow ie
▁demonst rate
▁editor ial
▁Beng al
i ary
l ass
er ia
▁adv ances
▁ce ase
▁discontin ued
▁ch ord
▁sub sc
▁ed iting
▁dam ages
▁tour ism
▁mass acre
▁install ation
▁Hawai ian
▁Ed monton
▁dyn amic
▁ninet eenth
▁p aved
▁B og
▁H ous
▁N av
▁Sp onge
gu ard
▁G rad
▁un rest
▁14 1
▁Per th
▁Indust rial
▁Lanc aster
▁hal ted
t z
ist ence
▁Port s
▁Sing le
▁sport ing
m el
p at
ur se
▁In g
▁subs idi
▁Newfound land
▁s ew
▁W inc
▁reg ained
▁amb itious
▁lic ensed
▁grav ity
S A
▁the rapy
ver n
▁up rising
▁Sen ior
▁seem ingly
▁neighbour ing
l ist
▁g rain
ath a
▁sub tle
▁Sp in
▁Tur ks
▁har bor
▁crown ed
er ies
▁J ur
▁bus y
▁project ed
▁opt ed
▁function al
▁S ep
▁C rom
▁an ger
▁cont racted
▁inst ruction
▁prot ecting
▁disp utes
▁citiz en
▁administer ed
▁Gon z
D A
h ow
ol ves
▁D h
▁per pet
▁reg ist
▁cre ates
▁less ons
▁descend ed
b us
r ide
▁B ear
▁g amb
▁J en
▁deploy ment
▁Beaut iful
▁F ras
▁open ly
▁mass es
▁descend ants
▁Circ uit
▁bare ly
ir k
▁j oy
ram id
▁hon est
▁priv ately
onn ell
▁cooper ation
▁over h
▁col oured
▁Sen ators
▁sym met
▁accompl ish
▁ori ent
▁tot ally
▁capt ivity
a it
n an
▁C N
▁l ux
▁H off
▁L ogan
ri pp
▁de eper
▁Ch op
▁gener als
▁cor ridor
▁Max im
▁northwest ward
t age
ros se
▁14 6
▁plan es
▁27 0
▁coll ision
▁volcan o
▁jump ing
▁Buddh ist
▁qu it
▁atmosp heric
z ac
▁f ile
▁M ake
▁M ounted
▁Sh ank
▁Carol ine
▁farm ing
▁Jan et
▁outd oor
▁c hess
▁T iger
▁ra pper
▁Mot ion
isp here
▁C os
▁St ore
less ly
▁Lou ise
▁necess arily
▁deleg ation
▁stead y
▁ib n
▁T ask
▁n am
▁' N
▁inv ented
▁del ays
▁lack s
▁coal ition
▁roll er
▁Advent ures
▁n ests
▁R oth
▁sub urb
▁Prot ection
▁mut ual
er vers
▁re iss
▁e ject
▁F M
▁cre am
▁Gener ation
▁Nash ville
on ing
▁o ak
▁cont ing
▁dec omp
ug u
▁My st
▁Obs erv
d an
▁B ron
ab et
achel or
▁ Á
▁S ierra
▁B ott
▁R ams
▁con ve
▁K ens
▁sh adow
ace ous
▁pres um
▁develop er
ina e
▁On line
▁fat alities
▁Product ions
ent ric
▁j okes
▁track ing
▁decl aring
▁Lyn ch
▁excess ive
P a
▁Har per
▁Chair man
▁g reet
▁H amb
▁All Music
▁14 9
▁elect ro
▁Pal mer
▁. 3
▁h ur
▁rel ay
▁I C
▁team mates
▁Commission er
▁C ann
▁G ust
▁Pl aza
fic ial
▁Em ily
▁copy right
▁in ject
▁l ava
▁sh ops
▁Air borne
▁Hy d
▁prohib ited
ã o
▁g ains
▁Ch all
▁un employ
▁Ap art
▁ke en
▁div ine
▁Tri p
▁Y et
▁oper ator
▁Par achute
▁strugg ling
grad uate
▁kit chen
le w
▁Con sequently
▁six ty
▁recogn ize
ot us
ov ich
▁Par amount
▁hon ours
▁Bus ch
▁pregn ancy
▁aggreg ate
at em
is ans
▁C ant
▁D id
ach i
▁real izes
▁tro phy
▁Gar field
▁Dam age
▁cab in
▁Maur ice
▁Dram a
▁b er
▁N othing
▁gener ate
▁Mo z
▁Dev on
▁elimin ate
5 0
el i
▁H ip
▁cal m
▁t um
▁S qu
▁out s
▁Sp y
▁21 0
▁disapp ear
▁iron cl
nold s
oc ene
▁un st
▁back up
▁ed ges
▁story lines
▁par am
▁. 2
▁d ug
▁min im
elf are
▁oper as
▁find ings
▁184 8
▁merch ants
H A
m ill
▁a uction
▁p ine
▁A ur
▁B ast
▁cl ay
▁res erved
▁draw s
▁attract ive
y ers
il ia
▁acqu isition
hol m
▁incomple te
▁O st
▁sec ular
▁so ap
▁trans p
▁Reg ard
▁ly ric
▁unus ually
▁philos oph
hous es
O R
▁' D
ay ette
▁W id
▁187 4
▁surf aces
▁ri ff
▁So ft
▁Griff in
▁memor able
▁H oll
▁Ch ancellor
▁Ar ctic
▁dec omm
let cher
▁rid ic
▁Pan ama
▁remark able
▁S old
ad y
▁exper ts
▁pack age
▁proceed ings
▁stream s
▁ca ution
▁sket ch
▁revers ed
▁conj unction
▁d ors
▁sp o
▁pr inc
▁trans c
▁fre ed
ym n
▁adapt ations
▁unp op
▁scen ario
h urst
▁S ed
▁E U
▁gr ants
leg iate
▁Lar ge
▁perfect ly
▁ch ances
▁imp ress
▁Val ent
▁subst ance
▁ru ins
▁ped est
ist ically
▁restaur ants
▁Finn ish
▁t ennis
▁met ropolitan
▁Bo oth
▁keep s
▁sufficient ly
m ons
nd um
▁He at
▁Re form
▁Hol mes
▁Dou g
▁motor way
▁Start ing
▁Sponge B
▁t ab
▁over d
▁s hed
▁H ab
▁D ian
▁J unction
▁Wind sor
▁Armen ia
▁lob by
▁Michel le
▁fab ric
p ow
▁H M
▁N umber
▁14 4
▁Ph ant
▁det ached
▁lif estyle
▁wor ried
▁Lind wall
▁mic ro
▁alleged ly
▁veter ans
▁C ec
▁res ort
▁ass essed
▁mod es
▁Ser bs
▁Jac ques
▁emphas ized
▁flo ating
an an
▁' O
▁prog ression
▁tun nels
▁Tun nel
he ro
▁d iving
▁h iding
▁pl ed
ov o
▁' C
▁top ic
▁To o
▁Sol omon
▁Form ula
▁fest ivals
▁s in
▁m uzzle
▁Y ok
▁night s
▁Kore ans
▁demonst ration
▁Arab ic
roll ing
▁manif est
▁N ed
▁over th
▁Ed win
▁er osion
▁incorpor ates
▁load ing
bird s
n et
ro zen
▁R up
ipp ing
▁Cl aire
▁Gu atem
▁Star r
ux ili
▁Stan ford
bro ok
▁climb ing
▁Adv ance
▁c oc
ist le
▁pl utonium
ib l
▁Sp iel
▁spe eches
▁Super man
▁S ue
om es
▁st y
▁R andy
▁cons ul
▁mon itor
uch i
▁Ber keley
▁supple ment
▁Mond ay
1 2
iv ic
▁att achment
▁esc al
▁syn th
▁Lu is
ol ades
▁L ut
▁r ays
ran o
▁ob l
▁Ger ald
▁cr ust
▁flood s
▁Ill ust
▁Pres ley
▁put s
ingu ished
p ost
▁f ox
ol ine
▁K iss
▁am endment
▁intern et
▁Leg ion
▁mob il
▁pros ecut
▁diagn osed
▁err ors
▁up grade
▁cent res
▁met ab
▁El s
▁investig ated
▁ple asure
▁tend ed
▁rang ed
▁apprec iated
an ian
▁h aul
▁Mar tha
▁war rant
▁mod ifications
▁Gu ards
▁fle e
us hes
▁G am
▁Rec re
▁introdu cing
▁counter att
▁Cub an
▁p ist
▁n aked
▁cons ent
▁Z h
▁Col lect
▁mer ger
▁imm un
▁e ase
▁W ake
▁inc ons
off icial
▁camer as
▁Pier ce
▁inhab ited
▁F ac
▁O ber
▁but t
▁gener ations
▁line up
▁Ant i
l ies
im ination
▁not ion
les i
▁sec uring
▁Jenn ings
▁comfort able
pent er
a ude
▁it em
▁War wick
▁Man or
▁Sound track
▁Rhodes ia
▁Bulgar ia
V A
▁b onds
▁comp at
▁ne arest
▁August us
▁though ts
▁conf ined
▁Ir ving
▁qual ify
▁thr ust
▁ham let
▁Broadcast ing
▁st ance
▁en able
▁185 1
▁Final s
▁Del hi
▁Chap man
▁strengthen ing
▁Commerc ial
▁in ver
▁organ s
▁Bel le
▁p ushing
▁re vel
▁D ere
ran n
▁am pl
▁main tains
▁13 3
▁Pr ice
▁28 0
▁read s
▁Gabri el
r ators
▁c ere
▁mus cle
▁elect oral
▁Sw ord
▁Mir ror
▁Turn pike
ish i
ra id
qu et
▁stri pped
▁s oci
▁N ab
over ning
▁art if
▁water line
▁doub les
▁colle ges
oca ust
▁s el
▁G as
ap a
og ical
▁Y u
▁bet ray
▁spe aker
▁Gl enn
▁Hay es
▁SpongeB ob
D P
ig u
velop ed
▁emb arr
▁elder ly
▁s us
▁f ib
is le
im id
▁grad uating
▁grand son
▁Hop kins
▁P un
▁flag s
▁Sub sequently
▁w itch
▁U m
▁mon ks
▁Ber ry
▁ens emble
▁Pre par
▁enthusi astic
J .
▁C G
▁Th ings
osy stem
▁to ol
▁A F
▁sac red
▁S N
▁pre val
▁success es
▁Glob al
▁fil ter
▁legit imate
▁S under
▁14 8
▁Bor ough
▁ es
▁M ade
▁E aster
▁v it
op ters
ount ain
▁Ed gar
▁care fully
▁Pr in
▁Der by
▁brig ades
▁exha ust
▁F letcher
▁E SP
yl ogen
▁ste pped
▁bar rier
▁cou rage
▁Spiel berg
▁l aying
▁H ess
▁E t
▁kn ock
▁ele venth
▁esc apes
▁lay out
▁entert aining
▁rook ie
▁inf ected
▁month ly
▁Man ager
▁sex ually
▁Cr ime
▁incorpor ate
▁Review s
▁Laur a
▁ ump
▁m es
▁ex ceeded
▁K ot
▁Mc A
▁South ampton
osp here
▁dark ness
▁Kenn y
▁Brand on
▁compens ation
▁w ounds
▁S aints
▁ar bit
▁front ier
▁hon ored
▁sat ir
▁Bang l
▁C ave
oin ts
▁prom ising
▁read ily
rie ved
oph one
▁health y
▁Eis enh
▁genu ine
o op
▁P irates
▁13 6
▁defe ats
▁Sch w
▁Ven us
▁defin itely
▁Bol ton
▁Patt on
▁dr ives
▁press ed
rif ied
▁mist aken
▁consequ ently
er als
▁be nd
ib al
▁inv itation
▁monarch y
▁f usion
▁re ly
and in
od ia
▁tr am
▁car n
▁Ham mer
▁Art illery
umn i
▁NO K
b age
is ch
▁14 2
▁mid night
▁Tr uth
▁inte gr
▁Bas in
▁maneu vers
▁M ing
▁L ay
▁cor p
▁miss iles
▁slow ed
▁soph istic
▁D oc
▁third s
▁disp ers
▁Art ist
▁Tra vel
▁di ary
▁frag ment
▁Hend rix
▁spawn ed
▁ret ros
▁sub mit
▁loc ate
▁conclud es
▁Go eb
▁reflect s
▁pup ils
▁Gard ens
▁Princip al
▁unpop ular
is or
▁C rane
▁P orter
▁Le ader
▁prof its
▁conv inc
▁ident ification
▁employ ee
▁disappoint ment
▁re per
▁M ember
▁R ugby
▁St rat
pp ers
▁Rock y
osh i
ou b
▁dem on
▁dest ination
▁mag ical
▁dra g
▁black s
▁negoti ated
▁measure ments
▁insc ription
▁Seb ast
▁m 3
▁G ren
ict ions
▁tra p
ne um
▁compet itors
▁exc iting
▁du et
▁Light ning
R T
▁R are
▁K os
▁St op
▁comp uters
▁tra its
▁north bound
▁ref it
▁celeb rity
▁Tre asury
▁hero es
▁coff ee
▁t ide
▁P s
▁F an
▁L akes
▁mir ror
▁controll ing
▁Eisenh ower
▁P rad
▁W als
▁cons umed
▁ass ume
▁sm art
▁Stef ani
n or
▁V ul
▁ass ignment
▁aff ecting
▁Argent ine
▁Neb r
m itt
ol ics
os ely
▁colon el
▁R ever
▁F ant
▁tr il
▁pos ed
au er
▁phys ician
▁37 0
▁Wars aw
▁autom atic
▁l ined
▁F ear
▁dec iding
▁test imony
can al
▁Luc y
▁accur acy
▁Pow ers
in ite
▁d orm
el ic
ne ath
▁Fl ag
▁fre ight
▁cho osing
▁predecess ors
▁AI DS
▁neighb oring
▁s ink
▁l ion
▁I U
▁for ts
▁W as
▁G one
▁j ail
▁Brit ney
▁dist ances
▁strugg les
▁arc ade
▁evolution ary
▁stom ach
▁Fergus on
▁p sy
▁Al most
▁cap abilities
▁Jeff rey
▁Sus sex
▁proced ures
on om
▁B av
▁le ather
ters hire
▁Will is
▁top ics
▁ant iqu
▁Bangl ades
n am
cy cl
▁Rh ode
▁unn amed
at um
▁real ize
▁Cast ro
▁drain age
ro ck
ir ate
▁or al
▁ab d
▁would n
▁rele vant
▁ac ids
arch y
▁Columb us
▁Mort on
▁Guadal canal
j ud
▁H utch
▁her ald
▁Sp ect
▁Car r
▁Rey nolds
▁bes ie
u ates
▁a .m.
▁L an
▁r ush
▁se iz
▁sp are
▁sc hem
ade qu
▁sub urban
▁reg ret
writ er
▁moment um
▁fair y
▁preced ed
d ict
be it
▁trib al
▁Var iety
he y
▁Univers e
▁volunte er
k ed
▁C itiz
▁M unicip
▁Sh a
▁Fran z
▁requ ests
▁hard ware
▁cho ices
▁illust rations
▁cinem at
rim ination
▁ille g
chang es
▁h in
▁R ice
▁resp ected
▁tre m
▁b old
▁S E
▁e cl
vi k
▁bre ad
▁fem inist
▁sett ings
▁Ann ie
▁kick ed
▁blow n
▁Mun ich
P C
▁S ite
▁A w
▁H ig
▁Pl aces
▁Russ ians
▁nob ility
▁advoc ate
▁N y
▁qu e
▁war riors
▁spe akers
▁26 0
▁anal og
▁bur st
▁Bey ond
▁limit ations
▁enh ance
▁dimens ions
▁Lithuan ia
▁Nebr aska
▁L ag
▁G reeks
▁V a
▁incor rect
▁teen age
▁a ug
▁to ss
▁B atter
▁' H
▁g overning
▁H anna
▁tw elfth
▁Cal vin
▁Pop ular
▁bass ist
▁abol ished
ent e
▁St yle
▁le ase
▁te a
▁any where
▁susp ect
▁cryst al
▁H ast
ess a
▁pain ter
▁repe at
▁resemb les
▁enforce ment
o ids
▁D re
▁pro ven
▁under neath
vers ely
▁want ing
▁ske leton
▁refere ndum
▁absol utely
▁endors ed
▁L av
▁conqu ered
c ope
▁w are
▁w ool
▁h ol
▁S hen
▁D awn
▁Quar ter
▁Intellig ence
i ott
▁s ou
▁S ter
▁B alk
▁E ighth
▁j am
▁prec ise
▁thr iller
▁nation ally
▁compris es
▁nick el
▁Lithuan ian
I C
▁ Š
is bury
▁pres c
▁Boy d
▁cong regation
▁lem ur
▁accord ance
it ating
▁M umb
▁P age
oc ese
▁Ch i
▁pr ayer
▁Brit t
▁Eu ro
▁Ham mond
▁Ult imately
▁municip ality
▁ €
ar u
▁Rh ys
▁Sur vey
▁Eug ene
▁extraordin ary
▁nam ely
l ance
o ft
▁P red
▁G ross
▁under lying
▁Com ic
▁mat urity
▁secret ly
▁rect ang
v ae
▁P and
▁com merce
so on
▁ren own
▁Dist inguished
▁Cath olics
▁R ather
▁L ear
oun ce
▁fort ified
▁imprison ment
▁Dere k
▁D y
▁E ss
▁K ur
▁K ath
▁fe es
▁ext ant
▁185 9
ain ted
▁K om
▁pl astic
ip el
▁special ized
▁saf ely
▁Lo is
▁rum ors
▁innov ative
▁dors al
I T
e le
▁p ian
▁S port
ot on
▁P end
▁an at
▁se ize
▁ext inction
▁188 0s
▁cou pled
▁der iv
▁negoti ate
▁judg ment
▁Sout heast
el est
▁l ocked
▁comp act
▁fe ver
ij i
▁cust oms
▁substant ially
▁Ult imate
▁total ed
▁gen ius
▁Road s
▁key boards
▁Rem ix
▁Roberts on
▁W ander
ber ger
▁ex port
▁un ited
▁sc ales
▁en acted
▁lim estone
l ides
▁R af
▁pre view
▁Sh ack
▁national ist
▁special ist
▁Dou ble
▁gif ts
r ically
▁al beit
▁ro d
▁sc ope
▁Associ ated
▁M ine
▁D art
▁W end
▁W oll
▁G av
▁at oms
▁und ers
▁ret aining
▁13 9
▁conv iction
▁Cat al
▁hang ing
▁eat en
▁millimet res
▁subsidi ary
a que
▁f art
▁S au
▁B M
▁ch ains
▁12 00
▁Bl aine
▁eff iciency
▁Can ber
▁tradem ark
▁Wrest le
▁re writ
▁pat ch
▁hosp itals
▁in ex
▁D ry
ab ling
▁run way
▁soc ieties
▁p ige
▁poin ting
▁dra gon
▁Tax onomy
in ely
▁Sw an
▁184 5
▁fit ting
▁Sunder land
▁in adequ
▁Qu inn
▁Joy ce
▁thro at
▁Fras er
▁K ay
ie v
▁Jo el
▁pres ervation
▁real m
▁arr ay
▁investig ations
▁Out side
▁crowd s
▁merch and
▁wel com
▁murd ers
▁sp here
▁comp rehensive
ond e
▁design ers
▁south bound
▁fact ions
▁div ide
▁vol unt
▁Red s
agon ists
▁dece ased
g ence
▁Game play
▁Sal isbury
▁summ ary
▁f ake
out ed
▁per ception
▁gu ided
▁And ré
▁bar b
▁Met all
▁occup y
▁Arm s
▁gar age
▁ax is
▁Scout ing
▁Bright on
▁b out
▁B un
▁P ont
▁st unt
▁inf ant
▁introdu ces
▁achie ving
▁think s
▁Crit ic
▁Stal in
R O
▁j e
▁Will ie
▁sexual ity
▁intercept ed
▁helic opters
▁K aren
▁inf licted
ott a
▁fac ts
▁dom ain
▁Lind a
▁Jenn a
▁confron ted
▁cont rary
▁rel ax
▁bl ank
▁Hol ocaust
▁fresh man
▁Less er
in ate
▁R esp
▁v ow
▁serv ants
▁real ised
▁break down
▁Whit ney
▁Timber lake
1 1
▁ ‘
▁in quiry
▁H IV
▁V on
▁Am az
▁rap e
▁sevent een
▁vac c
▁RI AA
▁p ocket
▁A zer
▁H V
▁res olve
▁Al c
▁te nder
▁Sh ir
▁high lights
▁Tor res
z ym
▁a thlete
or o
▁m ouse
il ian
▁C oul
▁al ert
▁mon sters
na e
▁perm it
▁tend ency
▁Domin ican
▁f ut
ad ic
▁R acing
▁sc orer
▁eng ra
aul ted
▁Arab ian
▁Ax is
▁B le
▁am ino
▁prot ective
▁Ex am
▁Nort on
▁Bu enos
▁pros ecution
▁pitch ing
▁he ll
▁D iet
▁effect iveness
sp ring
▁avail ability
▁exc ited
▁Ports mouth
▁decomm issioned
or ters
▁an k
▁r er
▁Ar n
▁Sh awn
▁14 7
▁sol utions
▁ball ot
▁c ement
▁d ome
▁cont ents
▁sub stit
▁mat ched
▁gr ace
▁adm ired
▁Scot ia
▁roll ing
▁synthes is
▁Bl ock
▁draw ings
▁lesb ian
▁s id
▁bas ement
▁Mon ument
▁Day ton
il is
▁P itt
▁K ann
▁bl og
▁... .
▁activ ated
▁ancest ors
o an
▁r am
ov an
▁mon uments
▁My c
▁collect ive
▁Peters burg
I N
▁R é
▁L ac
▁am azing
▁For bes
▁Air craft
▁o z
▁Sing h
▁Ell iott
▁adopt ion
▁w ors
ith m
um s
▁Sc andin
▁ins ect
▁care ers
itte es
▁anal ys
▁depend s
▁Non etheless
r ina
▁In formation
▁K le
▁pl acement
▁end angered
▁sub urbs
▁perform er
▁Tra ff
▁bot an
▁Bes ides
▁g ren
▁al umin
▁N u
os al
▁sp ont
▁cl er
▁An a
▁hom age
▁Gal ile
▁citizens hip
▁ski ing
▁anth rop
▁Ferr ari
▁Sic ily
es ters
ace ae
aud i
▁Ba iley
▁Web ber
▁Dur ham
cliff e
▁ESP N
it ory
▁m ere
▁C ros
ac co
▁M ü
▁K ang
▁stop ping
▁den omin
▁conclud ing
▁S MS
▁ro de
▁under m
▁reg ulation
▁met eor
ys s
▁And ers
▁bar racks
▁Hum ph
▁mathemat ical
▁Om aha
D T
an z
ro ft
▁F C
▁L odge
▁Econom ic
▁Ch al
▁ear s
▁rel iable
▁ann oy
▁var ieties
▁vis uals
▁fav oured
▁mot ivated
▁Engine ers
j ar
▁c it
▁W ang
▁Aust en
▁run ners
iat us
▁Hug o
▁world s
▁country side
▁Mod el
▁subs id
▁Stra it
▁b ishops
▁d ign
▁T ell
▁B irth
▁comm ended
▁work sh
ret ion
▁depart ments
▁sem if
oura ge
▁Histor ian
eld a
▁din osaurs
h m
ar med
▁I X
▁J ag
▁goal keeper
▁McM ah
▁recon cil
ł aw
▁C ock
ad oes
▁M aple
▁L ope
▁G iven
▁organ isations
▁colle ague
▁Gard ner
▁unh appy
uxili ary
▁A j
▁R uther
▁G y
▁N em
▁im per
▁mill imeter
ged y
▁sol ve
agon al
▁Caes ar
▁T rain
▁S my
▁J azz
▁season al
▁rece iver
▁sl ot
▁wat ches
zy me
▁satisf ied
▁h ipp
▁' R
▁govern ed
▁Ber k
▁reflect ing
▁democr acy
▁puzz les
▁Mumb ai
▁b inding
▁d ys
▁l ingu
ch ild
ant o
▁back d
▁gu id
▁che ap
▁fort une
▁Pri est
▁domin ance
▁More over
▁Democr at
▁Philipp ine
▁install ment
▁Bah amas
▁Duc hess
▁the or
▁C yp
▁st ip
▁st uck
▁D oll
▁W ilm
ct ive
ke ys
▁spec ified
▁Mac L
▁acceler ated
▁reh abil
▁Assist ant
▁H ed
est ock
te g
▁ph ases
▁ter restrial
▁talk ed
▁inher it
j ord
▁A U
▁H ers
ra h
▁E van
ish na
▁Pl ate
lu ence
▁Mon ica
▁Im m
▁wood land
▁fail s
ias m
▁correspond ence
▁diagn osis
▁Pruss ia
▁Canber ra
▁W u
▁ex agger
▁X V
▁obs ervers
▁aver aging
▁185 4
▁borrow ed
ar ity
▁m ast
im an
▁P ix
▁D uck
so ver
▁fun k
▁goal tend
▁Angel a
▁incorpor ating
▁explicit ly
▁G iant
▁mar itime
▁pers isted
▁Sn ake
unc iation
▁isot opes
▁G at
ub a
▁down ed
▁activ ist
▁sil ence
▁185 7
▁184 0
▁cle ver
▁Conc ord
▁Lope z
▁g rab
▁R overs
▁W ong
▁O g
▁business man
▁sib lings
or p
▁l od
ir s
ch ard
▁min eral
▁Sy rian
▁frust rated
▁juven ile
▁A ven
▁N ME
▁le aked
▁cl uster
▁perform s
▁exhib its
▁o st
▁E agles
▁det achment
▁Ne g
▁chart ing
▁board ing
▁Dist ribution
▁ens ured
▁prec urs
▁remark s
▁Pear son
▁A ires
▁D iana
th rop
▁val ued
▁config uration
▁Hamb urg
▁t ier
▁W ick
▁short ened
▁conduct or
▁Pal m
▁mor ale
▁ec osystem
▁san ct
▁Opp en
▁f us
al and
st ock
▁L ions
gg y
▁present ing
▁ste al
▁orb its
▁Recre ation
ou fl
▁C reat
▁F alk
art e
▁sound ed
E T
x ter
▁d rift
▁B ened
id ity
▁New ark
▁bo om
aun ton
▁er up
▁bus es
▁disagre ed
▁ecc entric
ibl ical
b ul
▁Y ang
▁intent ions
▁avo iding
▁ine ff
▁tril ogy
▁T ampa
▁M ale
em pl
ri et
▁Con v
bor o
▁vari ants
▁anch or
ệ m
▁m all
▁C ore
▁R S
▁al iens
▁exp elled
▁med ian
▁sl opes
▁Engine er
▁Conc ert
▁Josh ua
ovak ia
u in
▁b ure
▁A N
▁n a
▁un ity
▁develop s
▁desc riptions
▁Be ast
▁northeast ward
▁Vol ume
▁immig ration
▁Jess e
er os
av i
▁tr ump
▁Pl aying
▁Di ệm
▁reun ited
▁poison ing
en ary
▁b icy
▁n ée
▁low ered
▁Hall ow
▁determ ination
▁imm une
▁orb ital
▁Hold en
▁N ig
art z
▁K as
▁Com pton
▁Cl aud
▁Fran ç
▁ste ering
▁super hero
▁portr ays
h orn
on i
im o
▁st rain
▁after ward
▁out lets
▁reg ain
▁Ne ither
b ane
l ay
▁acc ent
▁Ad ult
▁screen ed
▁catal og
z ens
é l
▁r ises
ons cious
▁found ations
ik er
▁organ ize
▁script s
gr im
hy d
▁persu ade
▁s aves
it ational
▁ret iring
▁dep ot
▁Mc E
▁doub led
▁Dest iny
▁promin ence
▁T ill
▁lar vae
air d
▁Ang lic
▁Tr in
▁respons ibilities
▁che er
▁Rh ine
▁bow ler
▁in ability
▁in ev
▁d ish
▁d io
ol esc
▁ch ambers
▁pl ag
▁le an
ub les
ail and
ene z
▁prim itive
▁attrib utes
▁drop s
▁shel ters
▁frig ates
▁continu ously
▁Environment al
▁overh aul
ar in
▁R ip
▁D um
▁14 3
▁Phil os
▁advent ures
▁dream s
▁Cru z
▁Hann ah
▁t ailed
▁S C
▁L az
▁fre ely
▁big ger
▁Sav age
c ies
at oes
▁b ag
▁O C
▁Im medi
▁symb olic
▁narrow ly
▁Ash ley
▁Know les
▁I vy
▁D ale
if ax
▁over time
▁Ar med
▁jud ged
▁ir re
▁peace ful
▁wel come
M ania
▁c ord
om orph
▁J in
▁tr act
▁small est
▁Sug ar
▁Adri atic
▁Banglades h
▁But ter
ighth ouse
lesi ast
h al
▁t ales
per ed
▁School s
▁grad uation
▁break through
▁sil k
▁link ing
▁Writ ers
▁roof s
▁enlar ged
g ov
v as
ä n
▁D over
▁G aza
▁E b
op al
▁All an
▁accommod ation
▁manuscript s
▁p neum
▁d ent
▁g ig
▁H ave
▁H ollow
▁V as
▁tra ils
▁ac ute
▁King ston
▁det on
▁Sing er
▁185 8
▁32 0
▁Dod gers
b in
▁S AS
▁Sh ore
▁Bro ck
▁Ret rieved
▁abol ition
▁Trad ition
m atic
▁o t
is a
▁T ank
▁v eto
▁K arn
▁ab rupt
oth s
▁respons es
▁lov es
▁exclud ed
▁Antar ctic
▁tong ue
G S
at ab
▁b red
el age
▁L ich
▁command s
▁accept ing
▁financ ially
▁55 0
▁spect rum
▁Mov ing
▁Alexand ria
▁L or
▁N an
▁Ind ivid
▁transform ation
▁isol ation
▁reven ues
▁R ook
▁Y ank
vi ć
▁pr ay
▁Le ft
alf ord
▁leg ally
▁Writ ten
▁Bah rain
c hester
▁h aun
unk er
▁Chap ter
▁Bird s
▁sovereign ty
▁centimet res
▁C ert
▁D ata
▁N ame
▁Sp ot
▁Gu err
ic ia
▁S ah
am ous
▁N A
▁sh apes
▁short age
▁Bet ty
▁launch ing
▁express ing
▁quant ity
▁kid ney
▁releg ated
avil ion
▁McMah on
C N
▁F iction
▁con form
▁br ass
▁181 2
▁convoy s
▁gal axy
▁Lim ited
▁overs aw
▁Cost a
et e
omet own
▁pri ests
▁President ial
▁clear ing
▁deterior ated
▁unw illing
▁contempor aries
▁welcom ed
F ar
▁B j
▁ent ries
▁bl ame
▁coun ted
▁activ ists
▁Mo h
▁enthus iasm
▁re app
▁S ag
▁Min ne
▁Indian apolis
▁Cap com
▁econom ics
▁Dan ube
▁Cr ash
▁Obs erver
▁fier ce
▁Ruther ford
g as
v ous
▁t ables
at ters
▁A way
▁U ran
und y
▁techn ologies
▁rejoin ed
▁Serge ant
▁D rew
▁D ana
▁G and
qu in
▁sh ocked
▁John s
▁fr ames
▁bul let
▁symp athetic
▁accum ulated
▁Ce leb
▁s aint
▁p p
st ead
▁su ed
▁dep r
oe uv
▁poll s
▁Av on
▁Brun s
▁XII I
ic z
▁F aith
▁al arm
oy a
▁Re id
▁sw all
▁184 9
▁grand mother
▁tourn aments
▁clim ax
▁Tib et
▁Nept une
▁H od
▁he s
▁L ans
▁L omb
▁an onymous
ang a
▁ship ments
▁med ley
▁185 6
▁Cra zy
g un
▁d ull
▁C ran
▁H utton
▁wh it
▁ph ylogen
▁manag ers
▁fr atern
▁recommend ation
▁nit rogen
orig inal
b rates
g ent
al ine
▁D ob
▁F ul
▁F ringe
▁After wards
▁Under ground
▁Jul ia
▁telev ised
▁Winc hester
▁cons erv
▁subject ed
▁nar rator
▁33 0
▁Hal ifax
▁evac uate
▁worth y
▁Th ir
ki en
▁telesc ope
it ative
▁D ock
▁al k
▁Th ailand
▁prop eller
▁law yers
▁sit com
▁Comp an
▁fav ourable
▁phys ic
▁Ast ron
▁Dyn asty
▁f et
▁189 0s
▁cas em
▁poll ution
▁nucle us
▁Pruss ian
▁confront ation
▁wonder ful
olith ic
▁a ster
ent ry
▁L il
▁int rig
▁dis k
▁plat oon
▁purs uing
▁theore tical
▁Heb rew
▁b eds
▁man or
ik k
▁ri ot
▁har vest
▁B ever
▁he ating
▁be ings
▁conc lus
▁Co ch
▁investig ating
▁displ acement
▁Whe eler
▁superst ructure
u ke
w orld
▁w elfare
▁O S
▁K or
▁cont acts
▁sc ream
▁acc idents
▁cat ches
▁Disc overy
▁Middles ex
E F
▁p ad
▁G ö
▁Th orn
▁rec apt
ens ing
ting ham
▁Bar ber
▁mean while
▁meant ime
▁G ould
op l
▁show c
sh i
▁tro ubl
▁Brad ford
▁compar isons
▁imag ination
▁alt ogether
▁wrest lers
▁prol ong
▁c ros
▁c ott
▁S es
am us
art a
▁K end
▁ep id
▁adm its
▁AR IA
▁recre ational
p ur
▁H ir
▁H aven
▁crit eria
▁aver ages
▁dram atically
▁infer ior
▁encourag ing
▁st ake
▁new er
▁under graduate
▁review ing
▁Gen .
▁postp oned
z el
he res
▁l auded
▁B L
▁g ills
op us
▁Staff ord
▁affili ated
▁h ometown
▁sh ale
▁pre ference
▁exp enses
▁Be au
▁ref usal
▁tro ut
▁capt ive
▁Nor wich
ropol is
▁Traff ord
▁st ab
▁pl ug
oy le
▁Ang els
▁obs erve
▁Inter ior
▁Haw k
▁Prim ary
▁Sebast ian
cycl op
▁renown ed
▁t ired
▁s ax
▁v in
▁de er
▁tr ace
▁view er
▁decl ining
▁Don na
▁tend s
▁rebu ilding
▁Jess ica
▁Medic ine
▁Laf ayette
c aster
f act
▁T ina
id ad
▁P itch
▁V ince
▁Ar d
▁Even ing
▁c ig
ou k
▁S ul
▁l unch
▁J ak
▁J ava
▁per ipher
ib e
▁order ing
▁Fre eway
▁autom atically
▁Wrestle Mania
▁par ade
▁dest ruct
▁every body
▁ter rible
▁moder ately
▁spok es
an as
▁d il
▁C ly
op old
▁cal endar
▁cerem onial
▁send s
igg ered
▁Stew ie
▁c av
▁V augh
▁tr iggered
▁Le vel
▁By rd
rodu ction
▁social ist
▁plant ed
▁Gre ene
▁dedic ation
▁manufact urer
▁supposed ly
▁advertis ement
▁thunderstorm s
c ip
▁w ages
▁inter rog
▁Mar cel
▁disturb ed
▁Roc hester
▁monit oring
h aus
▁m ock
▁C ai
▁l oses
▁P ike
▁R ot
▁L ey
▁ret ro
▁Comm odore
▁implement ation
▁pure ly
i ability
▁t et
▁d olph
▁L og
▁E rie
orm al
▁adm ission
▁Liter ary
▁f ins
▁se am
▁We ber
▁cur ric
▁tru cks
▁recommend ations
1 9
▁H appy
▁st un
red ited
ass ing
▁disc rimination
▁happ ens
▁drown ed
▁R i
▁ex empl
▁mar ble
▁Co ach
▁deg ener
▁kind s
▁reason able
H .
w oman
▁W ade
▁concent rate
▁supp ress
▁Dam asc
▁Hun ting
▁Glou cester
▁Z oo
▁fre estyle
d ish
▁w ond
at as
▁f ing
an or
▁T ong
▁l ibr
▁g ospel
▁J ets
▁sm oking
▁Canad iens
▁Priv ate
▁Bruns wick
▁c ater
▁n ost
id an
▁R ama
▁bu ying
▁pass ages
▁pow der
▁therm al
▁s ab
▁C IA
▁n urse
id ian
ov ny
▁Th urs
▁pe as
▁Be ing
▁conf isc
▁civil ization
▁row s
▁Beh ind
▁rectang ular
b ai
pl ing
▁Dec l
▁Corn ell
▁tim ing
▁Shak ira
▁mort ality
▁Wy att
▁neighborhood s
▁exha usted
▁Duch ovny
f old
ag ara
▁O il
▁K ol
▁app rent
▁Sh aron
▁disc l
▁185 2
▁Fore ver
▁nation wide
▁65 0
▁controll er
▁guid ance
▁Oppen heimer
▁t iny
ov ed
▁dis rupt
▁sle e
▁ic onic
▁portr aying
g i
▁s ided
▁N im
▁pro c
▁co aster
▁Rich ards
▁Mah ar
▁torn adoes
▁bats men
▁Thor pe
▁democr atic
c omb
▁M iy
▁F ra
iz able
omet ry
▁nest ing
▁publisher s
▁unn ecess
▁l or
▁Gu est
▁deg rad
oh l
▁Hem ing
ar re
th al
▁cap ability
▁prom ises
▁det ective
aster ly
▁aff ection
▁object ed
▁he ter
th ood
▁J oker
▁bo ards
▁indu ced
O L
ch ant
if ier
pl ane
▁ins urg
▁stat ute
▁Met roid
▁Stud ent
▁184 7
▁Bet ter
▁Yank ovic
k ar
on er
▁F en
▁F olk
▁G ret
▁am ounted
▁Co hen
▁label ed
▁D ame
em ics
iff s
▁communic ate
▁Bas il
▁Hind i
▁encl osed
▁Epis ode
▁philosoph ical
ig uous
▁R ank
▁par ad
▁pat ent
▁Vol unte
▁ut ter
▁Iraq i
▁Eld er
▁adequ ate
▁S z
il us
am y
▁n as
▁inst ances
▁Per u
▁My ster
▁radio active
▁celeb rations
▁account ing
et ics
▁F ow
▁N iger
▁J a
oc ate
▁fl av
▁sk illed
▁Mil ton
▁demol ition
▁tort ure
▁h ollow
▁1 ⁄
▁ch im
▁cl ient
▁inv ested
▁oper ators
▁185 5
unt a
▁Louis ville
▁complex ity
c ling
f ast
f ires
▁farm land
▁filmm akers
c at
▁gener ic
▁bed room
▁Leban on
▁Immedi ately
▁H ern
▁v ibr
▁K un
▁inter face
▁sl ip
▁Dar ren
gest ion
▁lad y
▁recip ient
▁sophistic ated
ed e
ir able
▁V enez
▁Har bour
▁hel ium
▁test ified
▁hard er
▁184 6
▁183 0
▁qual ification
▁manufact ure
▁sand stone
▁virt ual
▁canc ellation
▁culmin ated
▁aest hetic
▁Mig uel
▁st ing
▁sh irts
ord ination
▁cr us
▁Cle ment
o qu
▁B é
id ium
se nd
▁reg ards
▁sk irm
▁Ey e
▁innoc ent
▁Damasc us
▁H ank
▁P ath
ell es
rib e
▁viol ation
▁Rhodes ian
▁Rup ert
▁Hast ings
ó w
at ri
▁M its
ec a
▁V ocal
▁cl erk
▁Ar cher
▁Vir t
che v
▁dischar ge
ipel ago
is ure
▁div orced
▁broadcast ing
▁conced ed
▁Sans k
u cc
▁S audi
▁H undred
▁G wen
her d
▁ass ured
▁pur ple
ur ated
▁E uras
▁don ations
▁Jul iet
▁dissip ating
▁psy ched
c or
in os
am o
▁Al onso
▁As ide
▁fl aw
▁co ached
▁Z elda
▁poss essions
▁AC C
▁tack le
▁rub ber
▁convinc ing
▁P ale
▁P aper
▁Ar ist
▁pe ers
▁prem ise
hold ers
▁Georg ian
▁consum er
▁ancest or
▁Jam ie
▁horn s
e a
▁S iege
▁F i
▁vict orious
▁categ or
▁Lex ington
▁ing red
▁desper ate
▁trig ger
o que
at z
▁f og
▁S it
▁C ret
ad ar
▁N olan
ke e
▁reg ener
▁183 2
umber ing
▁Dog gett
▁cam oufl
▁Chet nik
▁Azer bai
▁s its
▁h alt
om i
▁M ater
im son
▁per imeter
▁Gl ac
▁ru ined
el ong
▁l ots
▁H ear
▁her b
▁dis rupted
▁off spring
▁bal let
▁dio xide
c ul
▁L angu
ass ium
▁gu ys
▁Cle m
▁ox ide
▁Vis ual
▁Hispan ic
▁o ath
▁c ogn
▁G ael
▁cl usters
ren cy
ator ies
▁dev ised
▁Jul ie
▁rend ition
▁Init ial
▁dimin ished
▁Saf ety
▁kilog rams
in tend
▁d y
▁M ered
▁he ated
ie u
▁red dish
com mun
▁decl are
▁arch itects
▁invest ors
▁Ann ual
▁Ton ight
W R
b red
▁d ining
▁C ay
▁M é
od ing
ap or
▁Th irty
lud ed
ely n
oul t
▁defend er
▁parallel s
▁Full er
en stein
il ight
ac a
▁K ön
ry s
▁fl ies
▁corn ers
▁Stock holm
▁accus ations
▁Appro x
▁o re
▁T omb
▁n erve
▁W ess
▁pres umed
▁Ne igh
▁Em b
▁mort ar
▁Buck ingham
▁Mans field
as ma
▁S tern
▁B ess
▁accept able
▁Cub s
▁liv estock
▁Minne apolis
r ust
▁C lear
ew ays
▁Al ien
ath on
▁War riors
▁Te en
▁23 rd
▁star ter
▁op ener
▁compan ions
▁Laure n
y t
al us
qu el
▁Wor cester
▁Bris bane
▁plum age
▁Mered ith
T .
al ore
ch y
▁v iral
▁land sc
▁Car penter
▁eight eenth
▁remn ant
▁sleep ing
▁relie ve
▁abb ey
▁h ate
un ct
▁L C
▁E MI
▁partic le
▁Or land
▁che ek
▁pay ments
▁Ey es
▁strict ly
▁posthum ously
▁s acked
▁l ord
▁person a
rain ts
▁except ional
▁colon ists
▁box es
▁backd rop
▁C A
▁K amp
▁man oeuv
▁She ar
▁prem ier
▁inadequ ate
▁Hallow een
▁a ims
▁M iz
▁be aches
▁W imb
▁L anka
ib les
▁dep ress
▁Ind eed
▁Te le
▁Grand e
▁feed back
▁throw s
▁Scient ific
▁Method ist
▁Sansk rit
g ae
▁K iel
▁num er
▁Ad olf
▁arch bishop
▁Mac D
▁diss atisf
▁commemor ate
▁mos que
is en
▁man ned
▁Le ip
▁def ining
▁Me et
▁Fl ash
▁lim bs
▁Wild life
▁cool er
▁schem es
1 5
▁ ell
▁t ear
▁P or
▁G ore
▁Be atty
▁prof ound
▁Orig ins
▁bes ide
▁f u
▁kn ight
ven ge
▁announ cing
▁comb ine
▁185 3
▁cook ing
▁orient ation
g irl
h ist
ar ck
▁h iatus
▁st alk
▁D ad
un ion
▁al tar
▁cl ad
▁gu err
▁character ised
▁North umb
sequ ent
▁Ne ed
▁Key s
▁presum ably
l ide
▁W ey
▁cl ause
led on
▁Or k
▁cor poration
▁pen alties
▁unp re
▁Cher ry
▁Shack leton
▁T act
▁B ard
th ouse
▁un official
▁sl ope
▁bre ach
▁Sup porting
▁Cart e
l ot
▁th read
▁l oot
▁sp arked
ren ches
ces tershire
▁Le opold
ific ate
▁cr ack
▁Spec ies
y on
▁ Å
op ing
▁Ch a
▁Se ym
▁Col bert
▁make up
▁coun ts
▁broad er
▁Mor oc
▁instruct or
▁Anim ation
B .
▁C um
▁Y ale
▁rel at
▁mon soon
▁27 th
▁uncertain ty
▁Wed nes
R I
▁t ears
iv ided
▁am end
▁met ap
▁Her ze
▁Ham pton
▁pack ed
▁dies el
▁Orland o
d al
ar c
▁l ith
ly ph
▁j eal
▁Cl are
▁inf ilt
▁non etheless
▁gra vel
▁Sub sequent
▁wrest ler
▁f als
▁h ub
ou x
▁C ul
▁sp ear
▁sp ans
ced ented
▁ele g
sh adow
▁Pat ric
▁Cast ing
▁collect ively
▁observ ing
▁convent ions
▁portra its
▁Kap oor
▁S inc
ad os
▁L ak
▁def ine
▁deb ated
▁rail ways
▁wild life
▁outf it
▁lect ures
▁shar ply
▁w ears
▁S pl
▁g rap
iv ier
▁sp ark
▁form ats
by ter
▁sen ator
▁concent rations
▁Pers ians
fl ies
▁forg otten
▁Approx imately
l air
▁B end
▁F o
▁con ning
▁Ch ambers
▁but ton
▁Th anks
ah o
▁De xter
▁hum our
▁ant agonist
▁z inc
▁Hard ing
▁sed iment
▁Palest inian
▁Hoff man
▁Seym our
▁f oul
▁cl oth
▁Sh ane
▁ref lection
▁key s
▁tax on
▁Corn er
▁f right
▁en abling
▁Geor get
▁fund ra
▁184 1
▁kilomet re
▁mechan isms
▁Aut o
▁speak s
▁diff ers
▁clin ical
▁advertis ements
▁Wes ley
▁B ord
ir us
▁tr aced
uc lear
▁ref using
empt ion
▁Par ad
▁Person a
▁Lyn n
▁nomine e
▁unpre cedented
▁l ords
▁com eb
▁serv ant
▁Kn ox
▁listen ers
▁fram ework
▁fant astic
p op
▁C risis
ut ors
op y
ill on
▁rep orters
▁Ber gen
▁emer ge
▁Kr ishna
▁Comple te
▁triang le
l led
▁p ard
as ures
im i
▁G em
▁Alb ion
▁magn et
▁Well es
▁Vik ing
▁Pant hers
▁s au
▁add itions
▁cour ty
▁resemb lance
▁climb ed
▁pup pet
▁f illing
▁T roy
▁F ey
res cent
▁se ated
▁ro uted
▁land own
▁el imination
▁Bel arus
▁Vict ory
mar ine
▁purch asing
▁Hor ror
▁Coal ition
roscop ic
it us
▁to b
ion ed
▁S elf
▁rec laim
▁rem aster
▁where by
▁disc o
▁south ward
▁every day
▁Jack ie
▁Pre vious
▁stret ched
▁Techn ical
▁Somet imes
▁Hok ies
ic on
am ph
▁M echan
ag ne
our se
▁le nd
rit ies
▁res ource
▁ne u
▁Bel grade
▁rid ges
▁pull ing
idel ines
▁promin ently
▁comed ian
r ors
ñ a
▁be friend
ul ent
▁rep rin
▁Car roll
▁stat ues
▁184 4
▁dig est
▁Card inal
▁Oak land
▁Sin atra
▁Pil ot
▁spir its
▁hect ares
▁Num erous
in as
▁S ales
ent in
▁e ager
▁D und
▁se aled
▁An imal
▁do zens
▁art ic
▁Stud ents
▁disapp ro
▁Win ston
▁Work ing
▁Cinem a
en ge
▁p orn
el man
▁D ixon
▁r h
▁similar ity
umb ent
▁Lo ch
▁teen ager
▁curren ts
▁Heming way
w y
▁b a
▁S eth
▁B ret
▁comp osing
▁mus cles
▁ang les
▁guarant eed
▁T win
ur u
▁H ack
▁D ors
op oly
▁ste als
▁Ka hn
▁ancest ry
▁Cec il
▁Venez uel
▁l av
▁on set
▁inter im
aw i
ann i
▁Q ual
▁real ism
▁22 nd
▁hot els
▁ri f
▁M oor
▁O wn
▁bo iler
af e
▁soc cer
▁front al
▁Qu int
▁uniform s
▁devast ated
c os
r aced
r imin
t ra
er get
▁. .
it he
▁m ating
▁J ed
▁und ef
▁ent ity
▁ship yard
▁elect rons
▁associ ates
▁exped itions
▁patron age
lesiast ical
D OT
l im
n ant
▁D ew
▁E S
▁K ids
▁V ij
▁whe els
▁en zyme
▁Un f
▁shoot s
▁dead line
▁Camp us
▁ske let
▁pione er
▁counterp art
▁Daw son
cont inental
▁Surv iv
i ology
▁s ne
it ia
▁p ac
▁p ub
▁A chie
st a
▁st up
▁J et
▁ex changed
▁over night
▁Gu am
▁accept s
▁contem pl
▁Ver de
hr er
▁integ ration
▁Get ty
▁overt urn
▁M GM
ch air
▁de leted
▁se ating
▁sm ugg
▁may be
▁pract iced
▁bur den
▁transport s
▁Trans it
▁spread ing
▁System s
▁guarant ee
b led
▁ ♭
▁d up
▁Fer ry
▁Ele anor
▁p s
▁J ab
▁V ery
▁bet a
▁bi ology
▁183 6
▁recover ing
▁Bart on
▁cra zy
▁rein st
▁cha os
▁Wis den
▁summon ed
▁Prad esh
m are
er man
▁f ond
▁C rist
ol ving
▁Cl aude
▁broad ly
▁host ing
▁unc onscious
▁element ary
▁superv ision
▁McL aren
▁reop ened
▁Anglic an
▁jeal ous
k ward
▁T yp
▁D ol
▁sp y
▁en zym
▁inv ention
▁somet ime
▁util ized
▁abund ance
iffer ent
om ans
▁B ism
ul i
▁pro se
▁de ity
▁K re
▁po ets
▁Batt les
ortun ately
▁ge ographical
▁joint ly
▁t renches
▁p ant
ur red
em ia
▁sp ore
▁inv as
▁mill s
▁west bound
▁sw ift
▁agre ements
▁compl aint
▁gas oline
ev o
m m
an za
ul atory
▁K yl
▁bar n
▁suggest ions
▁177 6
▁dreadn ought
▁af raid
▁Byzant ines
▁w ives
▁G ive
os er
▁pr ide
▁loc als
▁bar rel
▁Arab ia
▁constitu ency
▁metap hor
ur ai
▁g ast
▁D iss
▁V ishn
▁Bl oom
▁reform ed
rell a
▁anch ored
▁exclud ing
▁touc hed
▁P P
▁R ise
▁r ud
▁rep ly
▁el ong
▁Black burn
▁ri ots
▁Ha iti
▁symp ath
▁T ud
▁S ask
▁ext ract
▁Am azing
hib ition
▁bill ed
▁flow ing
▁Ant illes
▁183 7
▁Feder er
▁counterp arts
▁troubl ed
▁H its
▁D ot
▁D up
ess ing
▁def icit
▁min ers
▁imp acted
▁Ital ians
▁cat aly
▁aw kward
▁Commun ications
▁Ara bs
▁supern atural
▁Und ert
F R
▁L ü
▁j ungle
▁dis qual
▁Jo ey
▁comb ining
▁cru el
▁collect or
▁background s
▁sket ches
f ork
▁B ronze
▁Ch am
ph ae
▁Pr imet
▁associ ations
▁F. C.
▁congress ional
▁Wimb ledon
▁Herze gov
▁Primet ime
▁t rop
on ely
or g
▁A val
om o
▁Z agre
▁Gl ad
▁fac ial
▁Tel ugu
▁urg ing
e ated
l ore
▁s her
▁B ren
▁K rak
rit z
let te
▁mater nal
▁overl ap
ogen ic
▁Mong ol
▁AT P
▁Belie ve
f ax
m id
▁F ork
ab ul
▁un beat
▁cor onation
▁block ing
▁box ing
▁auth ored
▁insc riptions
▁Return ing
▁comeb ack
e ur
l ord
▁A ch
us a
▁R ut
erv es
▁Pl ains
▁creat ors
▁dism ant
▁Att ack
▁Web ster
g ic
▁W itch
▁K ind
ty m
▁post ing
▁tro ubles
▁sound ing
▁Sm art
▁emb ed
▁mel odies
▁cros sover
▁Zagre b
▁S ara
▁St ark
▁tr aces
▁sculpt ures
▁Valent ine
▁Bened ict
i ón
o j
v ia
š e
ul ative
ul ator
ial s
▁we ird
▁acc ounted
▁Bl anc
isc al
▁hard ly
▁Bi ography
▁regist ration
ig on
ok a
▁Con rad
▁hand ful
▁prest igious
▁fart her
N T
m ass
u er
▁s izes
▁C edar
▁B oot
▁I g
▁att ain
ters on
▁tra ff
▁Man a
▁inform s
▁Cong o
▁emb ry
▁shoot er
▁mountain ous
▁vac ant
▁fung i
▁Gaz ette
b one
or um
▁f eder
▁H es
▁inc arn
▁pr one
▁sub f
▁Z imb
anc er
▁gener ating
▁campaign ed
▁Sand y
▁terror ist
▁renov ation
cour t
▁Ork ney
▁M ath
arm s
▁east bound
▁react or
▁prin ts
och ond
▁Sher iff
▁resemb ling
▁py ramid
▁surve ys
i em
j m
▁f a
▁p agan
▁St oke
▁cons ec
▁match ing
▁fore ver
▁occup ying
▁diss ent
▁Chief s
▁legend ary
▁Guatem ala
▁IU CN
intend ent
▁g orge
▁F ine
▁De al
▁aw a
▁od ds
▁Athlet ics
▁consolid ated
▁nut ri
am oto
▁ch icken
▁comp ose
▁cons ort
▁lab els
▁motor cy
▁download able
▁remix es
▁Dor othy
▁Spe aker
▁lect ure
▁devast ating
▁recall s
d o
i op
▁c ob
ew all
▁en erget
▁fact ories
▁ste aling
▁calc ium
▁integ ral
▁confron ts
an ol
▁g ases
▁pl ots
▁iss uing
bo ats
ape ake
▁star board
▁183 9
▁seek s
▁termin ated
▁hall s
▁recru iting
▁Social ist
▁Tol kien
▁Cros by
á r
▁S ap
▁S aff
▁C H
▁M atch
▁L iv
▁E ly
act ions
▁Sy rac
▁lik es
▁Kh rush
▁store y
▁nob les
▁advis ory
c het
he a
as is
▁for get
▁J ain
▁tra gedy
▁gu ilt
▁heav en
▁Hy de
▁spect acular
▁Hein rich
▁unst able
▁Gael ic
t ically
en ic
is ely
▁He p
▁am p
▁broadcast s
load ed
▁Ros a
▁Review ers
▁breat hing
▁pap al
▁iP h
▁Trin idad
M C
▁B f
▁he ights
▁r ic
▁sub pl
▁bombard ed
▁Architect ure
▁'N e
▁Dian e
L .
p arts
v ara
▁h ailed
▁H og
▁W emb
▁wh ites
▁N one
▁le v
▁Y ar
▁Y osh
▁design ing
▁deb ts
▁Air ways
atter ing
▁Em inem
▁ball ads
▁pun ct
▁Vol t
▁Abb as
▁vir uses
▁Legisl ative
▁sulf ur
▁erup ted
u j
▁ ~
▁E lement
▁ad ul
aw ak
▁cons oles
▁end emic
▁spec ially
▁rock y
▁swe ep
▁firm ly
▁deliver ing
▁neut ron
▁faith ful
▁Fel ix
▁Aub urn
▁Guerr ero
▁Khrush chev
el ius
▁H ort
▁D uff
▁E man
▁res ume
▁em issions
▁division al
▁correct ly
▁Express way
1 3
K O
▁l umin
▁B il
▁g ale
▁L ass
▁V eter
▁ne uro
▁An s
▁em blem
▁prof itable
▁stri ker
▁Voy ager
▁Sinc lair
▁b und
▁T at
▁al umni
qu is
▁kn ife
▁prompt ly
▁Plan ning
▁strand ed
s ay
▁b ord
▁not orious
▁emb assy
▁obtain ing
▁quad rup
▁Kann ada
▁c ure
▁T ul
▁P om
▁R aven
▁Ph ot
▁press ures
▁should ers
▁grad ual
▁Sol id
▁rit uals
▁mush rooms
▁Syrac use
m al
p ath
▁M off
▁pl aque
▁ab n
▁trans mit
▁trans mitted
▁Ag re
▁consult ant
▁Andre a
▁melod ic
▁memb rane
▁unnecess ary
▁m aj
▁h ire
▁H ipp
us k
▁st iff
▁R um
av ier
▁r ats
▁Com ment
▁contin uation
▁World s
▁lo ans
▁thir teenth
▁Mat ilda
▁Gi ro
▁depict ions
▁resid ences
▁Herzegov ina
▁Wemb ley
v ol
▁l unar
ra ged
▁le ased
▁ro pe
▁exp ired
▁surv ives
▁46 0
▁Ches apeake
O W
b ands
▁t ying
if a
ink s
rick en
▁Mid way
▁McC l
▁Art ists
▁Li u
▁Abd ul
p a
▁d ances
▁T rent
▁H imm
▁J ill
▁comp elling
rag ue
▁disp ersed
▁Six th
▁Represent ative
▁uncom mon
▁fus elage
▁Thurs day
el o
▁P od
ab we
▁sp erm
▁when ever
▁South west
▁Per fect
▁enc irc
▁183 5
▁Class ical
vest on
▁Kr usty
▁Wy oming
▁Eff ects
▁Britt any
▁merchand ise
▁f uck
▁H ew
▁R ide
▁L GB
iction ary
▁env ision
▁path s
▁disappoin ting
▁abst ract
▁b ust
▁M ant
▁H ale
ins ki
▁ed itors
▁rev ision
▁pers istent
▁quant um
▁Nat al
▁b inary
▁comp ass
ok en
▁comm ittees
▁30 5
▁differ ently
▁mag ist
lam m
▁kingdom s
▁ment or
▁danc er
▁emotion ally
▁Fight ing
▁besie ged
▁Ses ame
▁vin yl
▁re pt
▁H ook
us ions
ah u
▁det ection
▁Christ ina
▁hum orous
▁gr at
▁50 th
lo o
▁opt ical
▁Wat ts
▁re acted
▁R ox
ace y
row ing
▁Bo hem
▁discover ing
▁hy phae
▁Track s
▁accur ately
▁Rand olph
▁conting ent
▁curric ulum
▁Leip zig
G A
▁S ut
▁R ough
▁J ourney
gh ai
▁V iv
▁man ual
▁period ic
▁Ott omans
▁shif ts
▁reserv oir
▁depos ited
▁coinc ided
▁Vern on
▁p amph
▁B rom
▁H oney
▁sp iral
▁comp uls
▁sy ll
▁Sh annon
▁po etic
▁refer enced
ett i
▁determ ining
▁celeb rities
▁Ven et
▁concur rency
▁Bed e
▁pin ned
▁battlecru iser
▁vamp ire
▁Wander ers
r ice
▁p unt
▁G ilm
▁J MA
▁fl att
▁pop ul
▁entire ty
▁Mag gie
▁179 9
▁mem oirs
▁din osaur
▁diff ered
▁bankrupt cy
▁Hutch inson
▁t idal
▁b ark
▁B ates
▁G ospel
▁St ructure
ug ged
ris e
by e
▁Char ac
▁circ ulated
▁Gal veston
▁goaltend er
▁tob acco
▁Zimb abwe
▁t ides
▁f itness
▁n u
▁half way
▁cr ushed
▁cal ib
▁intens ification
▁dismiss al
▁Comple x
▁Tow ards
▁Aber de
e als
ð r
▁w olf
▁T uls
▁M A
▁dec oration
ram ent
▁imp ed
▁expl oring
▁constit uted
▁tal ented
enh agen
▁amphib ious
N S
▁S P
ig ion
▁N ep
▁St yles
ens en
▁183 8
▁Good man
▁Shan ghai
▁gamb ling
▁Decl aration
▁Sask at
▁L ars
▁lo osely
ien cing
isher s
▁mel ting
▁Prov idence
▁Tasman ia
▁ank le
atab ase
▁prolong ed
c ill
▁b io
▁H ipper
▁W it
▁al igned
▁N WA
op ot
▁Al leg
▁sub mission
▁short s
▁tre ason
ux e
▁rebu ild
▁Gust av
Far lane
8 0
t .
in ished
▁f ron
▁A ston
▁l ac
et ers
iv orous
▁He ights
▁vis ibility
▁Ex eter
▁sat ire
▁Clark son
▁furn iture
▁Phant om
b ot
▁a uxiliary
is y
▁C it
▁C ord
▁' I
orm an
ail able
▁prot ested
▁prop ulsion
▁discuss es
▁Tw ilight
▁mob ility
▁ham pered
▁erupt ions
▁cant ata
▁fru its
▁trem end
▁unbeat en
▁c age
▁D im
▁un ified
▁inc on
▁inc umbent
orm s
▁long time
▁ins erted
▁West on
▁ident ifying
▁Pe ak
▁insp ection
▁Sl ayer
▁Bay ern
▁182 9
occ up
▁ell ip
▁LGB T
▁C hess
ac ements
▁M CC
▁P ain
▁R ib
▁int imid
▁bal anced
▁lux ury
▁Pitch fork
▁s urn
ong s
▁sp rint
▁Rail ways
▁ris ks
▁Sil ent
▁wa ited
▁Bre ck
▁rend ering
▁obst acles
▁echo ed
▁t ill
▁c aut
▁G anes
▁sp or
iz ards
▁en roll
ib an
▁War rior
ograph ies
▁sol itary
▁186 0s
▁pred ator
▁lab elled
▁Tor ch
▁Book er
▁Magn us
chw ader
▁t rench
▁B rett
▁R ican
▁L ip
▁G ear
▁an ten
um er
00 0
▁August ine
▁Car son
▁Par ish
▁rank ings
▁Sch olars
▁except ions
▁Tre vor
▁retreat ing
▁Web b
▁recru its
▁cryst als
▁Look ing
▁Charac ters
▁h ab
▁S aid
▁B ag
▁K ant
▁David son
▁dress ing
▁Anim als
L L
g ren
u ce
▁A us
▁20 5
▁pre tend
▁ph on
▁sent ences
▁Jul ius
▁Somet hing
▁weigh ing
pow der
p ets
▁t ens
▁f iles
ph is
▁fun nel
ston ecraft
▁Parliament ary
▁exceed ing
▁infl ation
▁releg ation
▁artif acts
▁Woll stonecraft
▁iPh one
▁st ricken
▁O z
▁v est
oc o
▁rad i
▁Pres byter
▁Gl ory
▁187 0s
▁surf aced
▁spl its
▁sn ake
▁Czech osl
▁answ ered
▁verte bra
4 0
u ana
ar is
st op
▁F av
▁E gg
▁sh rine
▁su cc
ater al
▁Ge ography
▁More no
▁liber ty
▁ham mer
▁soph om
▁Uk raine
▁precurs or
b en
f a
h ot
▁to y
▁h ast
ad ian
ast rous
▁int ensive
▁tra vers
▁ph arm
▁lik ewise
▁Not e
▁ec ology
▁Vishn u
▁s ap
en za
an ic
al an
▁p ipe
▁al ike
▁L ik
▁G entle
ast ed
ob il
▁min istry
▁Ad van
▁vis itor
▁repl ica
▁object ions
▁Mer cy
▁sett ling
▁41 0
▁attract ing
agn etic
▁outf low
▁S alford
ag her
▁St reets
▁dis par
▁Y uc
▁qu ot
▁program mes
▁184 2
▁183 1
▁ens ued
▁Ca uc
▁Naz is
▁download s
▁Prog ress
▁lat itude
▁rum ours
▁reprodu ction
r atory
▁p aired
▁d w
▁D ow
▁F ast
▁N om
▁Americ as
▁contin ually
▁dist ress
▁own s
▁mar ching
▁Emp ress
▁Lad ies
▁valley s
▁intention ally
▁reprodu ctive
▁cryst all
▁haz ard
▁unemploy ment
b ons
l if
▁m ars
▁E g
▁Mar ian
▁end e
▁deb ates
▁exper iencing
▁far mer
▁recre ation
▁Nik ol
i ew
an ch
▁p atern
▁S T
st age
▁B ie
ly wood
▁P é
▁O DI
ast ically
▁un av
▁gun fire
▁Ex change
ids hips
▁sequ els
▁Sl ant
▁Not tingham
▁48 0
▁hero ic
▁Dev ils
▁happen ing
▁Chem ical
▁Batter y
▁Amaz on
▁c rick
▁l ament
▁dis astrous
ob s
▁pat ches
▁gl am
▁Sl am
▁market ed
▁ut ility
▁belong s
▁Cop enhagen
▁span ning
▁Bomb ay
▁Undert aker
n ie
▁dec ent
▁car riage
▁inst ant
▁North umberland
▁App eals
▁180 1
▁dial ect
▁insc ribed
▁moist ure
▁reconstruct ed
▁Wednes day
6 0
b ard
k an
k ov
n ance
ut a
▁repl ay
▁inform al
▁Ts ar
e ason
f inger
ar ius
▁T ip
▁E cc
▁184 3
▁grant ing
▁harm ony
▁Dream s
▁w rapped
▁M oss
im acy
▁st ressed
▁L ines
ib ald
▁Sp ike
▁war rior
▁US AF
▁Reg ular
▁stri ps
▁mor ality
▁Andrew s
▁Su ccess
▁rob ust
▁subordin ate
onom ous
▁1⁄ 2
f ight
r ath
▁a unt
▁c aves
▁b og
▁S ang
ill ance
▁St ro
▁am idships
▁story t
▁Her man
▁tot als
▁Wil f
▁exam ine
▁Winn ip
▁marg inal
▁conve x
▁M ell
▁N ES
▁or phan
ge on
▁Bar row
▁town ship
▁bow lers
▁acad emy
▁Prin z
▁Metall ica
▁Yuc at
ut z
▁st ellar
ran ger
ough ts
ah an
▁opp ose
▁Comp et
hem atic
▁broad side
▁Im ag
▁mic roph
▁row ing
▁thorough ly
▁Month ly
▁enzym es
n ar
▁M az
▁P ret
▁al pha
up s
▁pl aza
▁sp iders
▁ind ex
▁River a
▁ren umbering
▁der ives
▁den y
▁ens uring
▁181 5
▁reun ion
R NA
ot ted
▁Ad vis
▁Id aho
▁apprec iation
▁counteratt ack
▁Cret aceous
it ian
▁S K
▁B orne
▁L uz
▁E 3
▁de ities
▁ab ortion
▁sc iences
▁dis in
ob e
▁down stream
▁prot esters
▁ide ology
▁lim iting
▁Test ament
▁Gal axy
▁manufact urers
▁Let ter
▁isot ope
▁suspic ion
▁fert il
▁f rozen
▁m ates
le ased
est e
up e
▁su ite
▁rem atch
▁imp acts
▁turn pike
▁light ning
▁heav iest
▁advis ories
▁cens orship
▁unrel ated
▁Chall enge
er en
▁c roc
an us
st idia
▁B ram
▁B uc
▁D enn
▁G ott
ard i
▁Th ing
▁Cl aren
▁ext ras
▁care ful
▁Char ter
▁fail ures
▁mist akes
▁AI F
▁jack et
▁cu is
▁prosper ity
▁Agre ement
er ie
▁f ran
▁M ys
▁inc ap
▁int imate
▁ind ef
▁inst antly
au kee
▁ident ifies
▁ren ted
▁reign ing
▁grav itational
▁excav ated
▁courty ard
▁Winnip eg
1 8
i ago
ar f
ac ious
▁ar ches
ins ky
erv ing
▁expl oded
▁indic ation
▁coin age
▁Leg al
▁ir rit
▁aqu atic
▁Isab ella
▁h oly
▁C age
▁C unning
▁n atives
▁P ole
▁K ee
und a
▁sp ider
ign e
▁inf ect
▁No el
bor g
▁escort ing
▁Vlad imir
▁Georget own
▁o mitted
▁in herent
▁P hel
▁R ag
▁L ance
▁sh oes
rit e
▁V amp
▁disc arded
▁equ ality
▁23 5
▁Off ensive
▁coin ed
▁Fin anc
▁Middle ton
▁teach ings
▁Ta ft
▁Econom y
▁chore ography
▁concurrent ly
▁eleph ant
▁Observ atory
h im
▁w ag
▁S ons
ik ing
▁strong hold
▁ord in
▁food s
▁construct ing
sk irts
▁Kem p
b ank
u um
▁b ast
▁T orn
▁W orth
ag ements
▁20 3
urn al
▁ret al
▁ra iding
▁ind ie
▁cor rel
▁cult ivated
▁ball oon
▁reject ion
▁tall est
▁trust ees
▁cra fts
▁Cov enant
▁overlook ing
▁Dart mouth
▁inex per
b at
am orph
ran es
ind a
▁ep onymous
▁sl aughter
▁Pol icy
▁host ilities
▁Town s
▁mission aries
▁Nic ole
▁retrie ve
▁brut al
▁Cai ro
▁t ang
▁T ues
▁st atic
▁be et
▁K w
▁V ent
▁ro lled
▁rel ate
▁War ning
▁grad es
▁Ac ross
▁inters ecting
▁firm s
▁Ib n
at ches
▁ex otic
▁we aker
▁comm ence
▁Com merce
▁exp end
▁air play
▁govern ors
▁const ellation
▁bas al
aut s
▁Ag ent
▁Loc ke
▁superv isor
▁gran ite
p us
or row
▁c ents
▁M is
▁R az
▁F resh
ak ov
▁out skirts
▁Pl atinum
▁organ izing
▁enjoy able
▁assum ing
▁Lev ine
▁d itch
▁B aja
▁Se venth
▁Cl ose
▁Par agu
▁critic izing
▁180 9
▁cinem atic
D H
p rin
ro vers
▁S F
▁R otten
▁G M
▁G aming
▁J ump
▁Ch o
▁cl ips
▁j umped
▁Re bell
ann ers
▁Pl ain
▁mark ings
▁appe als
▁lik ened
▁pract ition
▁pers ecution
▁179 4
▁Maria h
▁Rand all
▁RO K
▁Prepar ations
k ill
▁f iscal
▁d ed
▁h Pa
▁E instein
rit ion
▁men u
▁Mad ras
▁prob able
▁model ed
▁38 0
udd y
▁Div isions
▁Comb ined
▁bot tle
▁M ih
▁B S
▁P ist
▁L ux
▁ra v
ific ent
▁German ic
▁sl ide
▁Her oes
▁bus h
▁coll ided
▁gra ves
▁question ing
▁85 0
▁superior ity
▁Leaf s
▁Fact ory
▁metall ic
en b
▁W er
▁L yr
▁St anton
▁ref urb
▁Mon ten
▁ult ra
▁asp ir
▁strateg ies
▁Matthew s
k ind
▁V id
▁res isted
▁up stream
▁Mar ion
▁occur rence
▁Altern ative
i ya
al ley
▁p ose
▁M W
▁un in
▁am alg
▁Christ ine
▁temper ate
▁179 8
▁resemb led
▁Alexand ra
▁Mem phis
▁cock pit
▁repet itive
▁cylind rical
▁Advan ced
g ency
▁b ind
▁C F
▁B ols
▁P emb
▁st ained
▁W ords
▁un ions
▁team ed
▁ind oor
▁pol es
▁eng agements
▁Bro ken
▁novel ist
▁imm inent
▁Mic key
▁Pop M
▁Field s
▁Agricult ure
▁t u
▁t in
▁w age
at ics
▁T ouch
▁E k
▁ver dict
umb led
▁z oo
▁access ion
▁ec ological
▁Cow boy
▁audition ed
▁Hab sburg
▁integr ity
▁ u
it ement
▁S ource
▁dist ract
▁aut o
▁Bar ack
▁appe aling
▁Ne gro
▁bar ometric
▁tow ed
▁Illust rated
▁fin anced
▁burn t
▁Work ers
▁sac rific
▁answ ers
▁Hass ett
▁metab ol
▁pian ist
C l
▁s a
▁The od
▁I st
▁L akers
all i
▁K et
▁att itudes
▁rep uls
▁inf lict
▁Har ald
▁ill umin
▁diss olution
▁Gib bs
▁memorial s
▁Cornwall is
▁dreadn oughts
▁facil itate
▁greet ed
▁Franç ois
▁Bism arck
k ers
u ins
▁p ond
id able
▁F rost
ond heim
▁inf lamm
▁amb ush
▁Er in
▁sle nder
hard t
ocol ate
▁digit ally
▁ineff ective
▁c odes
▁p uzzle
et ed
▁R as
▁le ak
▁tr im
▁Europe ans
▁Rev ival
▁surpris ing
▁kidn apped
1 4
or ers
▁B reat
ber n
▁U P
▁V ari
▁McC le
▁cong reg
▁Mort al
▁yield ed
▁forb idden
▁M old
▁L oyal
▁are n
▁V ett
▁back s
▁ins ight
▁X en
▁Rock ets
▁personal ities
▁emerg ence
▁Lam bert
▁Verm ont
▁preval ent
▁destruct ive
▁Claren ce
▁ ±
▁se ab
▁Am ster
▁El vis
sp e
▁techn ically
▁Bat ista
▁somew here
▁Cas ino
▁superv ised
▁upd ate
▁anth ology
▁peas ants
c over
é r
at ile
and ra
up er
oin ing
▁Re bec
▁Is m
▁pot assium
▁viol ated
▁unc overed
▁theat res
▁sevent y
▁Alb ania
▁express es
▁museum s
▁innov ation
▁Langu age
at l
▁p its
▁st alled
▁L anding
▁N g
▁out n
▁30 th
▁cor al
▁Mart y
▁Shep herd
▁Wals h
w aukee
▁ex iled
▁pl asma
▁En c
▁mus c
its u
▁22 5
▁Cal iph
▁vill ains
▁sex es
▁domin ate
gr at
▁181 4
▁181 9
▁nob ody
▁Inc .
▁frust ration
▁Emer gency
▁princ ess
▁Hep burn
c are
▁f ool
▁I B
▁K any
▁K au
pp e
▁ad olesc
▁Le h
aj i
▁Col t
▁Green land
▁bene ficial
▁intercept ion
sole te
▁affili ate
▁uncom fort
▁trunk line
▁camoufl age
a ic
▁t uber
▁b anner
▁m a
le igh
ress es
▁ass erts
▁mus k
▁Europ a
sh ine
▁Ne ville
▁intens ify
▁stra ined
▁webs ites
▁cool ing
▁coordin ated
▁mini ature
▁Rest oration
▁spokes man
v ana
▁T able
▁A ce
▁B A
▁P ond
▁On o
▁under going
▁Ed g
▁elect rom
▁gun nery
▁aff ects
▁tre asure
▁mother s
▁Bry ant
ester ly
▁complic ations
▁millimet ers
▁unexpected ly
▁Face book
▁Bott om
▁H itch
▁In form
▁dis hes
▁out post
▁vis ually
▁post season
▁problem atic
▁commission er
▁defend ant
▁unf inished
▁Bon o
agu ar
v als
w alk
▁b oring
▁n ave
ad vant
▁R ac
ill as
ong o
▁cl ients
▁pre jud
▁aut onomy
▁Man it
field s
▁Gro ves
▁disp osal
▁Old ham
▁Mur d
▁179 3
▁182 0
gl ades
lyn n
▁Bark er
▁consul ted
▁Cunning ham
▁ Ö
ip se
▁over c
▁adm iral
▁fle eing
▁viol in
▁den ounced
▁text ure
▁cert ification
▁Ra o
▁obsc ure
▁Shir ley
▁envision ed
▁Aberde en
á l
á s
ir ming
▁st ems
ch us
ul ance
ri o
▁U g
▁V ed
og le
ax ies
▁group ed
d ays
▁b ail
▁h ij
▁T aunton
▁e ch
th y
▁G C
▁E ston
ath i
▁under way
▁exp ecting
omb at
▁light ly
▁Thom son
▁Gold man
▁Cart man
▁Ever glades
▁ecc lesiastical
▁chrom os
▁Amster dam
p ole
r ill
▁l uc
▁I A
▁St am
▁off s
▁Sc outs
▁six teenth
▁cult iv
▁Far mer
▁cart oons
▁virt ue
▁culmin ating
bu ilding
▁psyched elic
▁T z
▁re work
▁' E
▁P resent
▁N HC
▁Sh arp
▁Con versely
▁dep ressed
▁Z ach
▁contrib utor
▁susp ects
▁Inst r
▁su ck
▁Y uk
▁fl uct
▁Bu ild
▁Land mark
▁explos ives
▁'R e
▁s op
▁S I
iv ities
▁L ing
▁O kin
ast ing
ep ers
▁cent red
ger ald
▁vi able
vers ion
▁Ex c
▁Br uss
ij uana
▁attract ions
▁Rel igion
▁shif ting
▁Tun is
▁oxid ation
▁Bols he
h oe
st en
▁mon k
▁prov oked
▁poss ibilities
▁We in
▁Per iod
▁Bra un
▁dead ly
▁Congress ional
▁Produ cer
▁target ing
▁Every thing
▁Els ewhere
c ats
▁c um
▁N uclear
▁v ector
▁V HS
▁char m
▁Col ony
▁mid st
aun ch
▁acqu iring
▁Wal ton
▁Rod gers
▁Bosn ian
▁Fitz gerald
▁spar row
▁Nig el
l und
l ining
▁T S
ist ice
▁r all
▁dis organ
▁Pl ans
▁Pe ggy
▁hun ter
▁doub ts
▁Gill ian
▁deliber ate
▁Stri ke
▁energet ic
▁l ocks
▁B rent
id as
▁al gor
ost ic
▁Ch amp
▁whe at
▁ob solete
▁displ aying
▁Nap les
▁Achie vement
▁d rought
▁B rest
▁D ang
ch ron
ag ua
▁inc ent
▁inter changes
▁just ified
▁hum ili
II I
▁fing ers
▁Moff at
▁Himm ler
b ath
it ius
▁I P
▁E bert
▁Sh oot
▁tw ist
▁Med ieval
▁Rh y
bour g
▁demonst rations
▁planet ary
▁Mot ors
▁consc ience
▁upgrad es
▁paras ites
▁Surviv or
▁Rebec ca
▁t ips
▁w and
▁C asc
▁I OC
▁P ione
▁ar che
▁amb ition
▁Rel ief
▁Key nes
▁Ern st
▁Gene va
▁Marl borough
▁the ology
▁c ivic
▁h ood
▁M ets
▁B elf
▁R ita
▁L ocated
▁G ul
ke f
▁char itable
▁back wards
▁ground ed
▁God win
▁177 5
▁Conc ern
▁Brun o
▁Humph rey
▁Financ ial
. N
▁s odium
▁T aking
▁C yn
▁up held
▁const raints
▁obs erver
▁29 th
▁surround ings
▁Acad emic
▁Lind say
▁elimin ating
▁rob ot
▁Dick inson
▁anticip ation
▁flex ible
▁Tud or
b eck
on ne
le en
▁S ounds
▁M orm
▁M ales
et ically
▁R ash
ile m
▁fe as
fore st
▁High land
▁Sup port
▁cost ly
▁correspond ent
▁surge on
▁Fil ip
ed o
ar an
▁p iv
▁B ax
▁P ill
ag ogue
▁K ip
ok i
ok u
▁dis advant
▁Mar se
▁15 00
ism atic
▁ref use
▁prot agonists
iment al
▁individ ually
▁Ol ivier
▁cust omer
▁agg ression
▁pan ic
▁impl ied
▁spons or
anth a
▁advis or
haw k
▁dischar ged
▁merc ury
elest ial
U P
▁m aid
▁In stitution
▁en act
▁Cl imate
▁Can ning
▁par ap
▁Ev olution
▁179 2
▁Det ective
▁column ist
▁Jenn y
▁ol ive
▁C ust
▁C ertain
▁C ensus
▁M oses
▁H ert
▁L one
ag asy
ass ment
▁government al
▁cr ater
▁capt ains
▁Bra ves
▁Not re
▁Sar awak
▁defend ants
▁pun ish
▁sight ed
▁Nob le
▁alter ations
▁continu ity
▁sus cept
▁Glac ier
tym ology
il ib
▁' M
▁D ru
th on
▁Ph ase
▁addition ally
▁ve in
▁Wil kinson
onst ruction
▁concept ion
▁plant ation
▁progress es
▁Vi ol
anth rop
▁reward ed
▁redes igned
▁Fern ando
▁Presbyter ian
▁Bruss els
o os
▁b ite
▁P D
▁P os
▁W S
▁N avig
▁out line
▁anim ators
▁Mil waukee
▁Liter ature
▁mit ochond
▁tribut ary
▁reper to
▁st aging
▁K oh
▁j un
▁Y ah
▁sub du
▁number ing
▁found ers
▁dev otion
▁185 0s
que z
▁Hon ours
▁Rome o
▁Ever ett
▁clim bs
▁excav ations
▁profession als
▁Salv ador
▁Borne o
▁PopM atters
nd on
▁d ried
▁d rif
▁C umberland
▁I TV
iv o
▁H our
pl ant
▁inf ra
▁ke eper
▁High lands
▁cat ast
▁i OS
▁touch ing
▁sevent eenth
▁interpret ations
▁astron omers
▁Amb assador
ut ies
ab y
▁dec ree
yl on
▁age nda
▁Act s
▁Wild e
▁rot ating
▁mamm al
acc ur
C ube
R L
▁p ec
▁S ale
▁The me
▁O uter
▁In ch
▁su its
▁Ch ak
▁up t
▁Se v
ans en
▁Cl iff
▁Ale c
▁Sant iago
▁vac ation
▁Mult ip
▁Brid g
t ail
v ie
▁m our
ir ie
▁R onnie
▁W enger
▁N et
▁un changed
▁fe eds
▁mod ification
▁eight y
▁arch ipelago
▁cann ons
▁fulf ill
▁Johann es
▁Municip al
v re
▁m asters
▁h orm
▁ch ords
▁Sh op
▁hel met
na i
reg or
▁lad der
▁Shank ar
f ielder
ü hrer
▁M are
▁H uff
art et
▁pl ains
▁Wh ig
▁cou ples
▁Alb anian
▁Malays ian
▁interven e
▁Pay ne
▁gram mar
▁Clif ton
▁Soft ware
▁embed ded
▁sophom ore
s m
▁t iger
▁c ope
▁c ites
▁d irt
▁B P
▁I gn
▁E rik
ber ht
▁rel ates
▁pe er
▁Min aj
▁Chap lin
▁ninet een
▁diver ted
▁ow ed
▁rehears al
▁Hi ros
▁Chop ra
▁in accur
▁l ent
▁as ylum
▁cont amin
▁Mar co
app ropri
▁fact o
▁Fre eman
▁psych ology
▁gal axies
▁Est ab
▁san ction
▁rede velopment
▁prest ige
▁Paralymp ics
▁hab its
h arm
▁l ig
ist ani
▁some body
ek s
▁All ison
▁Dav en
▁wall ed
▁Second ary
▁182 5
ici ary
▁Iran ian
▁tom bs
▁Crom well
▁ironcl ad
▁Regard ing
▁corp se
▁Rebell ion
▁c ree
▁m ould
▁d uel
▁L ana
ab i
▁K ell
▁ne o
▁Ar gy
▁Sh ock
▁21 5
▁station ary
▁wid ened
▁mer it
▁script ed
▁182 4
▁catch ing
▁Sav oy
▁symp athy
▁Maj esty
▁supple mented
▁homosexual ity
▁bicy cle
▁Azerbai jan
p ers
r í
z an
il ated
st aff
ir ling
▁con grat
▁J ut
ew ood
▁app lying
ps il
▁Am bro
▁Sol o
▁Tim othy
▁resist ant
▁178 9
▁Beaut y
▁Nass er
▁mim ic
om al
am bo
▁B iden
▁H ag
▁L ob
▁com edic
▁sh y
ath am
▁min erals
enn es
▁fin ed
▁pick s
▁fix ture
▁disagre ement
▁Legisl ature
▁bapt ism
▁Contin uing
▁S uk
▁l aser
▁M itch
iz arre
▁war ming
▁McC oy
▁Camb odia
▁ble w
▁criminal s
▁Pak istani
▁scr ut
enz ie
▁bure auc
▁T il
▁T osh
st ones
▁l ighthouse
▁W hed
ant i
▁dis orders
▁air ports
▁rest ing
▁180 4
▁179 5
▁Tri ang
▁hun ted
▁Rele ased
▁ru in
▁consult ing
▁obvious ly
▁Lion el
▁Clay ton
ur us
▁I rene
▁at om
any a
▁Ab yss
▁Gr im
▁hit ter
▁redu ces
▁municip alities
▁iP ad
▁redesign ated
▁Fow ler
▁Dors et
m ir
in itely
le af
ut nant
▁R ings
un s
▁G ob
▁bu ck
▁mat rix
▁dem ise
▁par an
▁neg atively
▁Cour se
raw l
▁Go ing
▁strike outs
ez vous
▁alleg iance
▁Phys ical
N G
at ro
it ivity
▁T otten
▁n mi
▁K art
▁cl ade
▁Rec ent
▁Sal am
▁mind ed
▁Dest roy
▁Rever end
▁rehabil itation
i u
▁ q
he ed
ic ious
▁B enson
▁he x
▁U tt
▁20 6
▁tr unc
amb a
▁Sch u
▁dev ot
▁Mal agasy
▁mission ary
▁182 1
▁kick off
▁breat h
▁glac iers
▁Case y
p ro
▁the rap
▁in und
▁m aiden
▁S earch
ol ation
ig ue
hes is
ik ini
▁dem ons
▁dam s
▁bas ically
▁181 0
▁Coast al
▁Whe el
▁trend s
▁phenomen a
▁oblig ed
or an
▁h airs
▁S ally
▁An alysis
▁Ar row
▁hy mn
het amine
▁celeb rating
▁34 0
▁Hel ena
▁Sand ers
▁satisf ying
▁Buff y
▁Ah mad
▁prol ific
▁exagger ated
▁MacD onald
on al
▁re int
▁K ombat
ob ic
▁ins ert
▁last s
pris es
ij a
▁Town send
▁hun ters
▁undert ake
▁Let ters
▁butter fly
▁inherit ance
b ral
▁ Ó
om ac
▁B elt
▁g lee
▁E cho
if iers
▁sp ells
▁Com ing
▁Z ack
▁De e
▁Her c
▁techn ological
▁invest ments
▁employ er
▁183 3
▁sen ators
▁Gra ves
▁enf orced
▁Colomb ia
▁Saff ir
b uck
▁g low
▁W ord
▁wh olly
▁L é
ill ion
▁sup reme
▁rel inqu
▁26 th
▁depart ing
ih an
▁tal ents
▁mand atory
▁retros pective
▁casem ates
▁tremend ous
▁st ir
▁St re
▁V ander
▁out rage
▁so ils
▁ed it
▁stat istical
▁campaign ing
▁relig ions
▁179 7
▁Hung arians
▁spect ral
▁explo it
▁Wolver ines
▁reperto ire
i w
r ar
t ures
in ers
ar ios
▁' S
▁later al
▁me g
▁sing ular
ll a
▁Geor ges
▁Gro ening
▁Off ic
▁treat ments
▁phot ographed
▁mind s
▁tru ce
▁folk lore
▁surve illance
▁Titan ic
▁Wilm ington
▁Cly de
▁Euras ian
