{"<unk>":0,"!":1,"\"":2,"#":3,"$":4,"%":5,"&":6,"'":7,"(":8,")":9,"*":10,"+":11,",":12,"-":13,".":14,"/":15,"0":16,"1":17,"2":18,"3":19,"4":20,"5":21,"6":22,"7":23,"8":24,"9":25,":":26,";":27,"<":28,"=":29,">":30,"?":31,"@":32,"A":33,"B":34,"C":35,"D":36,"E":37,"F":38,"G":39,"H":40,"I":41,"J":42,"K":43,"L":44,"M":45,"N":46,"O":47,"P":48,"Q":49,"R":50,"S":51,"T":52,"U":53,"V":54,"W":55,"X":56,"Y":57,"Z":58,"[":59,"\\":60,"]":61,"^":62,"_":63,"`":64,"a":65,"b":66,"c":67,"d":68,"e":69,"f":70,"g":71,"h":72,"i":73,"j":74,"k":75,"l":76,"m":77,"n":78,"o":79,"p":80,"q":81,"r":82,"s":83,"t":84,"u":85,"v":86,"w":87,"x":88,"y":89,"z":90,"{":91,"|":92,"}":93,"~":94,"¡":95,"¢":96,"£":97,"¥":98,"§":99,"«":100,"­":101,"®":102,"°":103,"±":104,"·":105,"»":106,"¿":107,"À":108,"Á":109,"Â":110,"Ä":111,"Å":112,"Æ":113,"Ç":114,"È":115,"É":116,"Í":117,"Î":118,"Ó":119,"Ö":120,"×":121,"Ø":122,"Ú":123,"Ü":124,"Þ":125,"ß":126,"à":127,"á":128,"â":129,"ã":130,"ä":131,"å":132,"æ":133,"ç":134,"è":135,"é":136,"ê":137,"ë":138,"ì":139,"í":140,"î":141,"ï":142,"ð":143,"ñ":144,"ò":145,"ó":146,"ô":147,"õ":148,"ö":149,"ø":150,"ù":151,"ú":152,"û":153,"ü":154,"ý":155,"þ":156,"ÿ":157,"Ā":158,"ā":159,"ă":160,"ą":161,"Ć":162,"ć":163,"Č":164,"č":165,"Đ":166,"đ":167,"ē":168,"ė":169,"ę":170,"ě":171,"ğ":172,"ġ":173,"ħ":174,"ĩ":175,"ī":176,"İ":177,"ı":178,"ľ":179,"Ł":180,"ł":181,"ń":182,"ņ":183,"ň":184,"ŋ":185,"Ō":186,"ō":187,"ŏ":188,"ő":189,"Œ":190,"œ":191,"ř":192,"Ś":193,"ś":194,"Ş":195,"ş":196,"Š":197,"š":198,"Ţ":199,"ţ":200,"ť":201,"ũ":202,"ū":203,"ŭ":204,"ů":205,"ų":206,"ŵ":207,"ŷ":208,"ź":209,"Ż":210,"ż":211,"Ž":212,"ž":213,"ƒ":214,"ơ":215,"ư":216,"ǎ":217,"ǐ":218,"ǒ":219,"ǔ":220,"ǫ":221,"Ș":222,"ș":223,"Ț":224,"ț":225,"ɐ":226,"ɑ":227,"ɒ":228,"ɔ":229,"ɕ":230,"ɖ":231,"ə":232,"ɛ":233,"ɜ":234,"ɟ":235,"ɡ":236,"ɣ":237,"ɦ":238,"ɨ":239,"ɪ":240,"ɫ":241,"ɬ":242,"ɯ":243,"ɲ":244,"ɾ":245,"ʀ":246,"ʁ":247,"ʂ":248,"ʃ":249,"ʊ":250,"ʋ":251,"ʌ":252,"ʒ":253,"ʔ":254,"ʕ":255,"ʻ":256,"ʼ":257,"ʾ":258,"ʿ":259,"ˀ":260,"ˈ":261,"ˌ":262,"ː":263,"́":264,"̃":265,"̆":266,"̈":267,"̊":268,"̍":269,"̝":270,"̞":271,"̠":272,"̥":273,"̩":274,"̪":275,"̯":276,"͡":277,"Α":278,"Β":279,"Γ":280,"Δ":281,"Ε":282,"Η":283,"Θ":284,"Ι":285,"Κ":286,"Λ":287,"Μ":288,"Ν":289,"Ο":290,"Π":291,"Ρ":292,"Σ":293,"Τ":294,"Υ":295,"Φ":296,"Χ":297,"Ψ":298,"Ω":299,"ά":300,"έ":301,"ή":302,"ί":303,"α":304,"β":305,"γ":306,"δ":307,"ε":308,"ζ":309,"η":310,"θ":311,"ι":312,"κ":313,"λ":314,"μ":315,"ν":316,"ξ":317,"ο":318,"π":319,"ρ":320,"ς":321,"σ":322,"τ":323,"υ":324,"φ":325,"χ":326,"ψ":327,"ω":328,"ό":329,"ύ":330,"ώ":331,"Ј":332,"А":333,"Б":334,"В":335,"Г":336,"Д":337,"Е":338,"З":339,"И":340,"К":341,"Л":342,"М":343,"Н":344,"О":345,"П":346,"Р":347,"С":348,"Т":349,"У":350,"а":351,"б":352,"в":353,"г":354,"д":355,"е":356,"ж":357,"з":358,"и":359,"й":360,"к":361,"л":362,"м":363,"н":364,"о":365,"п":366,"р":367,"с":368,"т":369,"у":370,"ф":371,"х":372,"ц":373,"ч":374,"ш":375,"ъ":376,"ы":377,"ь":378,"э":379,"ю":380,"я":381,"ё":382,"і":383,"ј":384,"ћ":385,"Ա":386,"Հ":387,"ա":388,"գ":389,"ե":390,"թ":391,"ի":392,"լ":393,"կ":394,"ղ":395,"մ":396,"յ":397,"ն":398,"ո":399,"ս":400,"վ":401,"տ":402,"ր":403,"ց":404,"ւ":405,"ք":406,"ְ":407,"ִ":408,"ֵ":409,"ֶ":410,"ַ":411,"ָ":412,"ֹ":413,"ּ":414,"א":415,"ב":416,"ג":417,"ד":418,"ה":419,"ו":420,"ז":421,"ח":422,"ט":423,"י":424,"כ":425,"ל":426,"ם":427,"מ":428,"ן":429,"נ":430,"ס":431,"ע":432,"פ":433,"צ":434,"ק":435,"ר":436,"ש":437,"ת":438,"ء":439,"أ":440,"إ":441,"ا":442,"ب":443,"ة":444,"ت":445,"ث":446,"ج":447,"ح":448,"خ":449,"د":450,"ذ":451,"ر":452,"ز":453,"س":454,"ش":455,"ص":456,"ض":457,"ط":458,"ع":459,"غ":460,"ف":461,"ق":462,"ك":463,"ل":464,"م":465,"ن":466,"ه":467,"و":468,"ى":469,"ي":470,"َ":471,"ِ":472,"ّ":473,"ْ":474,"ی":475,"ं":476,"अ":477,"क":478,"ग":479,"च":480,"ज":481,"ट":482,"ण":483,"त":484,"द":485,"ध":486,"न":487,"प":488,"ब":489,"भ":490,"म":491,"य":492,"र":493,"ल":494,"व":495,"श":496,"ष":497,"स":498,"ह":499,"ा":500,"ि":501,"ी":502,"ु":503,"ू":504,"ृ":505,"े":506,"ो":507,"्":508,"ক":509,"ল":510,"া":511,"্":512,"க":513,"ம":514,"ர":515,"ா":516,"ி":517,"்":518,"ก":519,"ข":520,"ง":521,"จ":522,"ช":523,"ด":524,"ต":525,"ท":526,"น":527,"บ":528,"ป":529,"พ":530,"ม":531,"ย":532,"ร":533,"ล":534,"ว":535,"ศ":536,"ส":537,"ห":538,"อ":539,"ะ":540,"ั":541,"า":542,"ิ":543,"ี":544,"ุ":545,"ู":546,"เ":547,"แ":548,"่":549,"้":550,"์":551,"་":552,"င":553,"ဆ":554,"န":555,"ပ":556,"ရ":557,"်":558,"ြ":559,"ა":560,"ე":561,"ი":562,"ლ":563,"მ":564,"ნ":565,"რ":566,"ს":567,"უ":568,"ត":569,"ន":570,"ម":571,"រ":572,"ស":573,"ា":574,"្":575,"ᵻ":576,"ḍ":577,"Ḥ":578,"ḥ":579,"ḷ":580,"ḻ":581,"ṃ":582,"ṅ":583,"ṇ":584,"ṛ":585,"ṣ":586,"ṭ":587,"ạ":588,"ả":589,"ấ":590,"ầ":591,"ẩ":592,"ậ":593,"ắ":594,"ẵ":595,"ế":596,"ễ":597,"ệ":598,"ị":599,"ọ":600,"ố":601,"ồ":602,"ổ":603,"ộ":604,"ớ":605,"ờ":606,"ở":607,"ợ":608,"ụ":609,"ủ":610,"ứ":611,"ử":612,"ữ":613,"ự":614,"ỳ":615,"ỹ":616,"ἀ":617,"ἄ":618,"Ἀ":619,"ἐ":620,"ἔ":621,"ἰ":622,"ἱ":623,"ὁ":624,"ὐ":625,"ὑ":626,"ὴ":627,"ὶ":628,"ὸ":629,"ᾶ":630,"ῆ":631,"ῖ":632,"ῦ":633,"ῶ":634,"​":635,"‌":636,"‍":637,"‐":638,"–":639,"—":640,"―":641,"‘":642,"’":643,"“":644,"”":645,"„":646,"†":647,"‡":648,"•":649,"‰":650,"′":651,"⁄":652,"₣":653,"₤":654,"₩":655,"€":656,"₱":657,"₹":658,"→":659,"⇌":660,"∂":661,"∈":662,"∑":663,"−":664,"∗":665,"√":666,"∞":667,"∴":668,"≈":669,"≠":670,"≡":671,"≤":672,"≥":673,"⊕":674,"⊗":675,"⋅":676,"▁":677,"☆":678,"☉":679,"♥":680,"♦":681,"♭":682,"♯":683,"⟨":684,"⟩":685,"ⴰ":686,"、":687,"〈":688,"〉":689,"「":690,"」":691,"〜":692,"あ":693,"い":694,"う":695,"え":696,"お":697,"か":698,"が":699,"き":700,"く":701,"ぐ":702,"け":703,"こ":704,"さ":705,"し":706,"じ":707,"す":708,"せ":709,"た":710,"だ":711,"ち":712,"っ":713,"つ":714,"て":715,"で":716,"と":717,"ど":718,"な":719,"に":720,"の":721,"は":722,"ば":723,"ひ":724,"ふ":725,"へ":726,"ぽ":727,"ま":728,"み":729,"め":730,"も":731,"ゃ":732,"ゆ":733,"よ":734,"ら":735,"り":736,"る":737,"れ":738,"を":739,"ん":740,"ァ":741,"ア":742,"ィ":743,"イ":744,"ウ":745,"ェ":746,"エ":747,"ォ":748,"オ":749,"カ":750,"ガ":751,"キ":752,"ギ":753,"ク":754,"グ":755,"ケ":756,"ゲ":757,"コ":758,"ゴ":759,"サ":760,"ザ":761,"シ":762,"ジ":763,"ス":764,"ズ":765,"セ":766,"ゼ":767,"ソ":768,"タ":769,"ダ":770,"チ":771,"ッ":772,"ツ":773,"テ":774,"デ":775,"ト":776,"ド":777,"ナ":778,"ニ":779,"ネ":780,"ノ":781,"ハ":782,"バ":783,"パ":784,"ヒ":785,"ビ":786,"ピ":787,"フ":788,"ブ":789,"プ":790,"ベ":791,"ペ":792,"ホ":793,"ボ":794,"ポ":795,"マ":796,"ミ":797,"ム":798,"メ":799,"モ":800,"ャ":801,"ヤ":802,"ュ":803,"ユ":804,"ョ":805,"ラ":806,"リ":807,"ル":808,"レ":809,"ロ":810,"ワ":811,"ン":812,"ヴ":813,"・":814,"ー":815,"一":816,"三":817,"上":818,"下":819,"不":820,"世":821,"个":822,"中":823,"丸":824,"主":825,"之":826,"事":827,"二":828,"五":829,"井":830,"京":831,"人":832,"代":833,"会":834,"伝":835,"作":836,"僕":837,"元":838,"光":839,"全":840,"八":841,"公":842,"内":843,"写":844,"剣":845,"劉":846,"動":847,"北":848,"十":849,"千":850,"南":851,"原":852,"台":853,"司":854,"合":855,"名":856,"君":857,"周":858,"和":859,"四":860,"国":861,"國":862,"園":863,"地":864,"型":865,"城":866,"場":867,"塊":868,"士":869,"外":870,"夜":871,"夢":872,"大":873,"天":874,"太":875,"女":876,"子":877,"学":878,"守":879,"安":880,"宗":881,"宮":882,"家":883,"寺":884,"小":885,"少":886,"山":887,"島":888,"川":889,"師":890,"平":891,"年":892,"式":893,"張":894,"後":895,"心":896,"恋":897,"愛":898,"成":899,"我":900,"戦":901,"所":902,"手":903,"政":904,"教":905,"文":906,"新":907,"方":908,"旋":909,"日":910,"明":911,"星":912,"春":913,"時":914,"書":915,"月":916,"有":917,"木":918,"本":919,"李":920,"村":921,"東":922,"林":923,"機":924,"歌":925,"正":926,"武":927,"殿":928,"氏":929,"民":930,"水":931,"永":932,"法":933,"海":934,"火":935,"物":936,"王":937,"生":938,"田":939,"界":940,"白":941,"百":942,"的":943,"真":944,"眼":945,"石":946,"社":947,"神":948,"空":949,"第":950,"紅":951,"編":952,"美":953,"者":954,"聖":955,"能":956,"艦":957,"良":958,"花":959,"草":960,"華":961,"葉":962,"藤":963,"行":964,"術":965,"西":966,"見":967,"記":968,"語":969,"説":970,"議":971,"谷":972,"賦":973,"路":974,"軍":975,"転":976,"遁":977,"道":978,"郎":979,"部":980,"野":981,"金":982,"銀":983,"長":984,"門":985,"院":986,"集":987,"雪":988,"青":989,"風":990,"香":991,"馬":992,"高":993,"鬼":994,"魂":995,"魔":996,"黄":997,"鼓":998,"龍":999,"﻿":1000,"▁t":1001,"he":1002,"▁a":1003,"in":1004,"▁the":1005,"er":1006,"on":1007,"▁,":1008,"re":1009,"▁s":1010,"ed":1011,"▁w":1012,"▁o":1013,"nd":1014,"at":1015,"▁.":1016,"or":1017,"en":1018,"▁c":1019,"it":1020,"▁f":1021,"is":1022,"es":1023,"ar":1024,"▁b":1025,"▁of":1026,"an":1027,"▁in":1028,"al":1029,"ing":1030,"▁p":1031,"as":1032,"▁and":1033,"▁to":1034,"ic":1035,"ro":1036,"▁m":1037,"▁d":1038,"▁h":1039,"ion":1040,"le":1041,"ou":1042,"▁T":1043,"▁re":1044,"▁=":1045,"▁S":1046,"il":1047,"▁A":1048,"ent":1049,"▁\"":1050,"▁1":1051,"▁th":1052,"st":1053,"el":1054,"▁C":1055,"▁l":1056,"▁@":1057,"om":1058,"▁e":1059,"am":1060,"▁n":1061,"ad":1062,"ac":1063,"▁was":1064,"▁M":1065,"▁B":1066,"ec":1067,"▁on":1068,"▁The":1069,"ly":1070,"ur":1071,"▁'":1072,"et":1073,"id":1074,"ol":1075,"▁g":1076,"im":1077,"▁I":1078,"-@":1079,"▁@-@":1080,"▁for":1081,"ir":1082,"ig":1083,"iv":1084,"ot":1085,"ter":1086,"▁H":1087,"ut":1088,"▁as":1089,"us":1090,"ow":1091,"ith":1092,"ay":1093,"▁2":1094,"▁P":1095,"▁st":1096,"▁'s":1097,"▁he":1098,"ver":1099,"ation":1100,"▁with":1101,"▁be":1102,"▁R":1103,"▁that":1104,"▁D":1105,"ce":1106,"un":1107,"em":1108,"▁W":1109,"▁wh":1110,"▁F":1111,"ch":1112,"▁by":1113,"th":1114,"▁al":1115,"▁)":1116,"▁(":1117,"▁L":1118,"ul":1119,"▁G":1120,"▁is":1121,"▁con":1122,"ers":1123,"▁at":1124,"ct":1125,"▁N":1126,"ra":1127,"os":1128,"▁19":1129,"▁an":1130,"▁it":1131,"her":1132,"rom":1133,"and":1134,"um":1135,"▁J":1136,"est":1137,"00":1138,"▁his":1139,"▁E":1140,"ag":1141,"av":1142,"ain":1143,"ri":1144,"od":1145,"▁from":1146,"▁O":1147,"ist":1148,"▁com":1149,"▁v":1150,"▁pro":1151,"op":1152,"ill":1153,"ore":1154,"if":1155,"ld":1156,"up":1157,"▁r":1158,"ew":1159,"ere":1160,"res":1161,"igh":1162,"▁In":1163,"ies":1164,"▁de":1165,"ber":1166,"art":1167,"ard":1168,"ort":1169,"▁se":1170,"ich":1171,"▁were":1172,"ate":1173,"all":1174,"ak":1175,"ant":1176,"oc":1177,"ud":1178,"ap":1179,"▁ex":1180,"qu":1181,"ong":1182,"ab":1183,"▁ch":1184,"▁or":1185,"▁K":1186,"gh":1187,"ear":1188,"ess":1189,"ated":1190,"▁pl":1191,"▁sh":1192,"ity":1193,"ip":1194,"ive":1195,"ame":1196,"▁U":1197,"▁had":1198,"ect":1199,"ack":1200,"▁St":1201,"▁su":1202,"ast":1203,"se":1204,"red":1205,"▁k":1206,"ge":1207,"▁which":1208,"our":1209,"ment":1210,"▁le":1211,"und":1212,"▁are":1213,"ov":1214,"ian":1215,"ial":1216,"▁not":1217,"ell":1218,"▁sp":1219,"ost":1220,"▁y":1221,"ight":1222,"ia":1223,"ord":1224,"ust":1225,"ary":1226,"ine":1227,"ther":1228,"pt":1229,"rit":1230,"▁3":1231,"oun":1232,"pp":1233,"ical":1234,"▁Ch":1235,"ave":1236,"▁un":1237,"▁200":1238,"cc":1239,"▁inc":1240,"fter":1241,"ould":1242,"▁V":1243,"▁but":1244,"irst":1245,"ish":1246,"ous":1247,"te":1248,"ff":1249,"ions":1250,"so":1251,"▁comp":1252,"▁20":1253,"ide":1254,"▁ro":1255,"ure":1256,"▁whe":1257,"ub":1258,"▁ar":1259,"▁cont":1260,"ie":1261,"▁;":1262,"og":1263,"ign":1264,"▁first":1265,"▁cl":1266,"wo":1267,"▁her":1268,"ry":1269,"ue":1270,"▁its":1271,"ass":1272,"▁their":1273,"orm":1274,"▁–":1275,"ok":1276,"ork":1277,"▁int":1278,"▁res":1279,"▁He":1280,"▁:":1281,"ater":1282,"▁also":1283,"▁ab":1284,"ond":1285,"▁ad":1286,"ome":1287,"out":1288,"ran":1289,"mer":1290,"ire":1291,"hed":1292,"ru":1293,"▁us":1294,"age":1295,"du":1296,"▁4":1297,"ime":1298,"low":1299,"▁per":1300,"per":1301,"▁who":1302,"▁5":1303,"▁Th":1304,"▁one":1305,"▁have":1306,"▁sc":1307,"pl":1308,"ally":1309,"own":1310,"ile":1311,"▁rec":1312,"▁18":1313,"ted":1314,".@":1315,"▁@.@":1316,"▁two":1317,"ition":1318,"ugh":1319,"iz":1320,"ree":1321,"ence":1322,"ts":1323,"uring":1324,"port":1325,"▁been":1326,"▁part":1327,"▁bec":1328,"ice":1329,"▁has":1330,"▁Al":1331,"▁ag":1332,"▁app":1333,"▁201":1334,"ough":1335,",@":1336,"▁@,@":1337,"▁j":1338,"▁en":1339,"▁dis":1340,"lud":1341,"ke":1342,"▁over":1343,"▁ser":1344,"▁this":1345,"ory":1346,"ely":1347,"▁year":1348,"ations":1349,"ember":1350,"ren":1351,"ction":1352,"ound":1353,"ach":1354,"▁off":1355,"▁after":1356,"ric":1357,"▁up":1358,"land":1359,"▁play":1360,"▁des":1361,"ace":1362,"▁It":1363,"ark":1364,"over":1365,"ance":1366,"▁out":1367,"▁they":1368,"▁man":1369,"ade":1370,"▁te":1371,"act":1372,"▁other":1373,"ib":1374,"man":1375,"ult":1376,"▁im":1377,"▁Y":1378,"ph":1379,"ress":1380,"▁includ":1381,"ced":1382,"ens":1383,"urn":1384,"wn":1385,"▁would":1386,"ind":1387,"▁time":1388,"one":1389,"▁pre":1390,"▁into":1391,"vel":1392,"▁On":1393,"▁Un":1394,"ward":1395,"we":1396,"▁we":1397,"▁him":1398,"ite":1399,"oin":1400,"ates":1401,"▁6":1402,"▁she":1403,"les":1404,"▁ev":1405,"ilm":1406,"▁att":1407,"ased":1408,"▁ne":1409,"ited":1410,"able":1411,"end":1412,"ied":1413,"ase":1414,"amp":1415,"▁comm":1416,"ors":1417,"▁inter":1418,"are":1419,"rough":1420,"oy":1421,"ons":1422,"ount":1423,"ep":1424,"form":1425,"▁all":1426,"ose":1427,"ood":1428,"ang":1429,"▁more":1430,"ces":1431,"▁work":1432,"▁7":1433,"ail":1434,"old":1435,"aw":1436,"ered":1437,"ings":1438,"ve":1439,"ild":1440,"▁An":1441,"▁new":1442,"▁sec":1443,"▁bet":1444,"▁when":1445,"inal":1446,"▁fe":1447,"▁film":1448,"ick":1449,"vi":1450,"ents":1451,"▁Se":1452,"way":1453,"att":1454,"ft":1455,"iss":1456,"aus":1457,"fer":1458,"▁8":1459,"gan":1460,"▁Mar":1461,"reat":1462,"rib":1463,"▁cons":1464,"▁Ar":1465,"round":1466,"ake":1467,"▁rem":1468,"ved":1469,"▁tr":1470,"▁dec":1471,"ason":1472,"ans":1473,"▁during":1474,"▁und":1475,"orth":1476,"ubl":1477,"▁9":1478,"hip":1479,"▁again":1480,"▁As":1481,"▁most":1482,"▁game":1483,"oth":1484,"▁them":1485,"▁199":1486,"▁only":1487,"▁pr":1488,"ath":1489,"ween":1490,"ix":1491,"▁ear":1492,"ollow":1493,"▁than":1494,"ob":1495,"rop":1496,"▁sup":1497,"ational":1498,"fore":1499,"▁New":1500,"▁about":1501,"▁produ":1502,"ug":1503,"▁cent":1504,"tern":1505,"▁kn":1506,"▁ret":1507,"ey":1508,"▁char":1509,"▁song":1510,"▁can":1511,"outh":1512,"▁between":1513,"▁later":1514,"orn":1515,"▁rele":1516,"▁under":1517,"ict":1518,"▁three":1519,"hn":1520,"ton":1521,"▁col":1522,"ron":1523,"▁act":1524,"▁00":1525,"als":1526,"▁qu":1527,"▁through":1528,"▁En":1529,"orld":1530,"ook":1531,"▁num":1532,"▁so":1533,"▁me":1534,"▁acc":1535,"▁rel":1536,"▁while":1537,"▁ra":1538,"▁end":1539,"meric":1540,"▁Le":1541,"lect":1542,"▁Americ":1543,"▁fl":1544,"ters":1545,"ock":1546,"▁pos":1547,"ral":1548,"▁sub":1549,"ever":1550,"ular":1551,"▁ass":1552,"ating":1553,"▁where":1554,"▁ver":1555,"▁day":1556,"ck":1557,"▁reg":1558,"▁second":1559,"ener":1560,"aid":1561,"▁bu":1562,"▁Com":1563,"▁made":1564,"ames":1565,"ision":1566,"ived":1567,"▁Re":1568,"▁pe":1569,"hes":1570,"▁record":1571,"son":1572,"▁def":1573,"bum":1574,"▁four":1575,"▁gro":1576,"▁follow":1577,"▁season":1578,"▁000":1579,"▁ep":1580,"▁form":1581,"▁some":1582,"▁such":1583,"▁am":1584,"ool":1585,"ished":1586,"▁mov":1587,"▁before":1588,"▁tra":1589,"▁mus":1590,"▁Sp":1591,"▁there":1592,"▁writ":1593,"hen":1594,"ics":1595,"▁Jo":1596,"io":1597,"▁spec":1598,"iel":1599,"▁10":1600,"ike":1601,"▁sy":1602,"▁years":1603,"▁team":1604,"▁At":1605,"ode":1606,"ual":1607,"▁This":1608,"ident":1609,"▁/":1610,"▁lar":1611,"▁album":1612,"▁Sh":1613,"▁ind":1614,"ros":1615,"ily":1616,"owever":1617,"▁ent":1618,"ning":1619,"▁used":1620,"▁call":1621,"ank":1622,"▁sur":1623,"ific":1624,"▁ac":1625,"▁high":1626,"ury":1627,"▁publ":1628,"▁being":1629,"▁epis":1630,"ained":1631,"▁then":1632,"led":1633,"ten":1634,"velop":1635,"aj":1636,"▁do":1637,"▁loc":1638,"▁exp":1639,"ife":1640,"ris":1641,"▁17":1642,"▁against":1643,"▁inv":1644,"▁0":1645,"▁bl":1646,"▁pres":1647,"▁show":1648,"other":1649,"▁number":1650,"▁After":1651,"▁charac":1652,"ious":1653,"▁sever":1654,"▁add":1655,"▁co":1656,"▁set":1657,"ek":1658,"ince":1659,"ject":1660,"ars":1661,"▁became":1662,"▁rece":1663,"▁Brit":1664,"ause":1665,"▁lead":1666,"▁perform":1667,"▁no":1668,"▁including":1669,"▁sing":1670,"ather":1671,"ins":1672,"▁—":1673,"ines":1674,"▁found":1675,"▁United":1676,"rans":1677,"air":1678,"▁well":1679,"ale":1680,"▁mon":1681,"▁rep":1682,"▁Sc":1683,"▁pol":1684,"▁back":1685,"▁both":1686,"ier":1687,"▁cap":1688,"▁198":1689,"▁series":1690,"▁15":1691,"▁12":1692,"ober":1693,"ram":1694,"▁Con":1695,"ik":1696,"ower":1697,"▁ship":1698,"ement":1699,"its":1700,"ert":1701,"ired":1702,"ures":1703,"ley":1704,"▁Wh":1705,"▁She":1706,"ivers":1707,"▁main":1708,"pen":1709,"▁194":1710,"▁min":1711,"iet":1712,"der":1713,"overn":1714,"▁did":1715,"ven":1716,"▁go":1717,"▁cre":1718,"elf":1719,"olog":1720,"▁imp":1721,"▁develop":1722,"▁met":1723,"az":1724,"ities":1725,"▁Eng":1726,"▁long":1727,"iver":1728,"any":1729,"ll":1730,"ised":1731,"erm":1732,"ting":1733,"uch":1734,"ared":1735,"ann":1736,"ane":1737,"ird":1738,"▁em":1739,"▁John":1740,"▁mill":1741,"ful":1742,"▁air":1743,"▁mat":1744,"▁episode":1745,"tend":1746,"irect":1747,"▁said":1748,"▁stud":1749,"▁many":1750,"ute":1751,"▁bro":1752,"ash":1753,"ative":1754,"▁dep":1755,"▁car":1756,"▁16":1757,"▁could":1758,"▁orig":1759,"▁war":1760,"▁contin":1761,"▁Cl":1762,"▁several":1763,"▁American":1764,"though":1765,"▁dif":1766,"▁Ind":1767,"ield":1768,"ah":1769,"▁inst":1770,"▁pop":1771,"ouse":1772,"ise":1773,"emb":1774,"▁known":1775,"▁197":1776,"ty":1777,"ually":1778,"▁196":1779,"▁Aust":1780,"▁11":1781,"▁conc":1782,"til":1783,"iam":1784,"▁War":1785,"view":1786,"erson":1787,"▁ob":1788,"ued":1789,"▁Ger":1790,"▁sm":1791,"▁return":1792,"▁any":1793,"▁began":1794,"▁Z":1795,"ern":1796,"▁comple":1797,"▁design":1798,"▁De":1799,"▁desc":1800,"▁sign":1801,"ople":1802,"chool":1803,"ross":1804,"my":1805,"ism":1806,"oot":1807,"▁est":1808,"0s":1809,"▁trans":1810,"ccess":1811,"▁prov":1812,"aking":1813,"▁feat":1814,"▁Bl":1815,"ided":1816,"▁inf":1817,"anc":1818,"▁run":1819,"▁early":1820,"▁art":1821,"ized":1822,"▁dist":1823,"▁music":1824,"▁own":1825,"▁near":1826,"▁released":1827,"▁until":1828,"▁called":1829,"▁eff":1830,"▁Col":1831,"imes":1832,"▁US":1833,"rid":1834,"ists":1835,"▁resp":1836,"une":1837,"▁bel":1838,"enn":1839,"▁pass":1840,"stem":1841,"ured":1842,"▁fin":1843,"ially":1844,"▁May":1845,"▁ph":1846,"ution":1847,"▁down":1848,"▁disc":1849,"ments":1850,"▁crit":1851,"osed":1852,"xt":1853,"▁direct":1854,"▁gener":1855,"▁along":1856,"ium":1857,"▁ins":1858,"▁million":1859,"ger":1860,"ull":1861,"▁British":1862,"ax":1863,"▁group":1864,"▁offic":1865,"vent":1866,"▁German":1867,"▁13":1868,"▁fam":1869,"eb":1870,"▁these":1871,"ajor":1872,"▁mod":1873,"▁may":1874,"▁$":1875,"cept":1876,"▁Ad":1877,"▁open":1878,"ange":1879,"▁mil":1880,"▁Be":1881,"▁poin":1882,"uc":1883,"gg":1884,"▁land":1885,"▁sim":1886,"▁hist":1887,"▁Aug":1888,"▁govern":1889,"▁Sept":1890,"▁success":1891,"▁September":1892,"▁August":1893,"ets":1894,"▁Ap":1895,"▁World":1896,"▁States":1897,"ible":1898,"ink":1899,"erv":1900,"▁gu":1901,"▁oper":1902,"▁count":1903,"▁attack":1904,"▁use":1905,"▁same":1906,"ys":1907,"wards":1908,"▁describ":1909,"▁people":1910,"▁Is":1911,"▁For":1912,"aced":1913,"▁character":1914,"yp":1915,"amed":1916,"▁because":1917,"▁All":1918,"els":1919,"▁vi":1920,"▁14":1921,"▁like":1922,"▁serv":1923,"▁Ju":1924,"▁Fran":1925,"ged":1926,"▁around":1927,"▁start":1928,"▁though":1929,"▁ed":1930,"▁195":1931,"▁Pl":1932,"▁Q":1933,"ner":1934,"▁win":1935,"▁km":1936,"▁const":1937,"ues":1938,"ring":1939,"▁took":1940,"▁occ":1941,"ruct":1942,"aving":1943,"▁Austral":1944,"▁batt":1945,"▁Oct":1946,"▁ann":1947,"▁support":1948,"ove":1949,"▁Nov":1950,"▁following":1951,"▁six":1952,"▁north":1953,"▁ele":1954,"▁Car":1955,"▁193":1956,"▁However":1957,"▁system":1958,"▁appear":1959,"uss":1960,"▁final":1961,"▁received":1962,"▁class":1963,"ined":1964,"▁October":1965,"▁head":1966,"ives":1967,"▁prom":1968,"▁consid":1969,"ene":1970,"ants":1971,"rad":1972,"ling":1973,"ility":1974,"ically":1975,"▁Dec":1976,"▁Pro":1977,"▁191":1978,"▁ever":1979,"▁state":1980,"▁build":1981,"ret":1982,"▁each":1983,"anu":1984,"▁ext":1985,"▁five":1986,"rist":1987,"▁aut":1988,"rol":1989,"▁York":1990,"▁century":1991,"ina":1992,"▁var":1993,"▁bo":1994,"▁will":1995,"▁area":1996,"▁They":1997,"ately":1998,"▁small":1999,"get":2000,"oss":2001,"▁partic":2002,"▁life":2003,"▁North":2004,"iving":2005,"ril":2006,"▁report":2007,"▁]":2008,"▁Me":2009,"▁[":2010,"tle":2011,"ored":2012,"▁By":2013,"▁June":2014,"ians":2015,"ording":2016,"▁city":2017,"gin":2018,"▁mar":2019,"ped":2020,"▁King":2021,"▁major":2022,"▁week":2023,"▁public":2024,"▁July":2025,"▁%":2026,"ission":2027,"▁conf":2028,"▁Har":2029,"▁band":2030,"ection":2031,"▁ref":2032,"med":2033,"▁November":2034,"inc":2035,"urch":2036,"▁rest":2037,"▁Comm":2038,"▁Will":2039,"▁world":2040,"▁Ph":2041,"▁med":2042,"▁since":2043,"esp":2044,"▁single":2045,"raft":2046,"raph":2047,"por":2048,"▁April":2049,"ble":2050,"▁Mc":2051,"ains":2052,"ried":2053,"lish":2054,"▁det":2055,"▁March":2056,"omet":2057,"▁just":2058,"▁last":2059,"ected":2060,"ural":2061,"..":2062,"ional":2063,"hest":2064,"▁Ed":2065,"aim":2066,"▁turn":2067,"ively":2068,"▁hel":2069,"ilt":2070,"▁allow":2071,"▁po":2072,"▁Can":2073,"cl":2074,"ient":2075,"▁30":2076,"vious":2077,"▁Ge":2078,"▁left":2079,"▁large":2080,"▁line":2081,"ats":2082,"▁differ":2083,"ales":2084,"▁South":2085,"▁care":2086,"▁south":2087,"▁adv":2088,"ified":2089,"▁During":2090,"▁...":2091,"▁dr":2092,"▁str":2093,"▁book":2094,"▁vers":2095,"empt":2096,"▁school":2097,"▁sl":2098,"ague":2099,"▁December":2100,"▁third":2101,"avy":2102,"▁incre":2103,"▁25":2104,"▁month":2105,"▁due":2106,"▁appro":2107,"▁played":2108,"▁much":2109,"▁event":2110,"row":2111,"▁Pr":2112,"▁if":2113,"rote":2114,"▁another":2115,"▁Janu":2116,"▁192":2117,"▁January":2118,"▁included":2119,"▁what":2120,"▁place":2121,"▁based":2122,"▁short":2123,"ne":2124,"▁II":2125,"ony":2126,"▁expl":2127,"▁government":2128,"▁person":2129,"ball":2130,"▁wrote":2131,"▁When":2132,"▁track":2133,"apan":2134,"▁camp":2135,"▁tit":2136,"▁old":2137,"▁Eu":2138,"▁bre":2139,"alf":2140,"▁name":2141,"▁death":2142,"▁port":2143,"▁elect":2144,"ently":2145,"ple":2146,"rent":2147,"▁Japan":2148,"ience":2149,"▁eng":2150,"▁won":2151,"by":2152,"▁Or":2153,"▁child":2154,"▁prot":2155,"▁lit":2156,"▁kill":2157,"▁prog":2158,"oad":2159,"▁story":2160,"ideo":2161,"ages":2162,"▁power":2163,"▁Bro":2164,"▁review":2165,"▁Te":2166,"ody":2167,"▁vis":2168,"ital":2169,"▁home":2170,"ott":2171,"▁led":2172,"ps":2173,"▁described":2174,"eng":2175,"▁requ":2176,"oman":2177,"▁previous":2178,"▁family":2179,"▁gun":2180,"rand":2181,"tain":2182,"▁way":2183,"yl":2184,"▁named":2185,"▁right":2186,"▁now":2187,"▁Mus":2188,"▁dem":2189,"urther":2190,"iod":2191,"iven":2192,"▁men":2193,"ilar":2194,"▁even":2195,"▁make":2196,"embers":2197,"▁organ":2198,"▁Gu":2199,"reen":2200,"ister":2201,"ont":2202,"cy":2203,"iversity":2204,"omin":2205,"▁attempt":2206,"▁best":2207,"itions":2208,"▁100":2209,"▁cour":2210,"▁repl":2211,"ivision":2212,"▁opp":2213,"▁leg":2214,"rench":2215,"▁games":2216,"ior":2217,"ached":2218,"▁term":2219,"▁And":2220,"▁command":2221,"ival":2222,"▁hand":2223,"▁Fl":2224,"▁poss":2225,"mp":2226,"▁'t":2227,"▁belie":2228,"▁dam":2229,"▁very":2230,"ox":2231,"▁His":2232,"▁those":2233,"▁Feb":2234,"▁Europ":2235,"▁par":2236,"▁Febru":2237,"▁February":2238,"sh":2239,"▁iss":2240,"▁still":2241,"▁top":2242,"▁next":2243,"▁species":2244,"▁Christ":2245,"▁effect":2246,"riend":2247,"▁view":2248,"ched":2249,"▁There":2250,"▁National":2251,"oci":2252,"▁original":2253,"aken":2254,"▁We":2255,"ature":2256,"ences":2257,"▁spe":2258,"lu":2259,"▁water":2260,"ness":2261,"▁addition":2262,"▁join":2263,"▁Bar":2264,"▁Europe":2265,"▁list":2266,"au":2267,"▁period":2268,"▁within":2269,"alk":2270,"▁members":2271,"▁mark":2272,"eter":2273,"▁deb":2274,"▁held":2275,"▁built":2276,"▁French":2277,"▁exper":2278,"hor":2279,"af":2280,"▁Am":2281,"▁release":2282,"▁Par":2283,"▁late":2284,"▁although":2285,"▁former":2286,"rew":2287,"▁match":2288,"▁great":2289,"augh":2290,"ridge":2291,"ney":2292,"▁cur":2293,"▁dest":2294,"▁sold":2295,"uted":2296,"▁2010":2297,"tended":2298,"▁video":2299,"▁21":2300,"ards":2301,"▁caus":2302,"▁West":2303,"line":2304,"▁storm":2305,"▁cover":2306,"▁X":2307,"ves":2308,"ech":2309,"▁init":2310,"▁role":2311,"ropical":2312,"▁tri":2313,"▁William":2314,"self":2315,"▁came":2316,"▁estab":2317,"hel":2318,"▁Her":2319,"▁days":2320,"ances":2321,"▁result":2322,"▁mid":2323,"▁present":2324,"na":2325,"lev":2326,"▁control":2327,"aged":2328,"ption":2329,"oon":2330,"ulation":2331,"▁stand":2332,"▁real":2333,"▁polit":2334,"▁however":2335,"▁Min":2336,"itary":2337,"aster":2338,"ham":2339,"▁2008":2340,"▁prop":2341,"let":2342,"ense":2343,"▁2009":2344,"▁Man":2345,"atic":2346,"ides":2347,"▁few":2348,"▁town":2349,"▁24":2350,"▁wind":2351,"▁Geor":2352,"omb":2353,"▁you":2354,"ograph":2355,"▁tw":2356,"▁side":2357,"▁sk":2358,"▁continued":2359,"▁often":2360,"▁equ":2361,"▁post":2362,"▁Ear":2363,"ays":2364,"▁local":2365,"▁2011":2366,"elt":2367,"▁Char":2368,"ator":2369,"▁among":2370,"▁Air":2371,"▁similar":2372,"ruction":2373,"ead":2374,"ches":2375,"▁Mich":2376,"ract":2377,"▁hum":2378,"▁av":2379,"▁claim":2380,"▁No":2381,"estern":2382,"omen":2383,"▁&":2384,"ung":2385,"▁England":2386,"reet":2387,"read":2388,"akes":2389,"▁different":2390,"side":2391,"ese":2392,"ops":2393,"▁my":2394,"▁del":2395,"ler":2396,"▁beh":2397,"▁Rec":2398,"ology":2399,"par":2400,"▁typ":2401,"▁22":2402,"▁further":2403,"▁sent":2404,"esc":2405,"▁Dav":2406,"ots":2407,"ested":2408,"▁level":2409,"urs":2410,"▁fre":2411,"▁considered":2412,"▁take":2413,"▁law":2414,"ery":2415,"▁El":2416,"▁tot":2417,"▁2007":2418,"gy":2419,"▁career":2420,"▁One":2421,"ront":2422,"▁production":2423,"arm":2424,"me":2425,"▁half":2426,"ices":2427,"▁Park":2428,"▁Co":2429,"▁ant":2430,".S":2431,"▁City":2432,"▁having":2433,"ampions":2434,"bo":2435,"▁Acc":2436,"▁English":2437,"▁mag":2438,"▁road":2439,"▁east":2440,"▁moved":2441,"▁dra":2442,"ering":2443,".S.":2444,"▁every":2445,"▁west":2446,"▁without":2447,"▁Although":2448,"rodu":2449,"▁cr":2450,"▁Cent":2451,"▁appe":2452,"▁plan":2453,"▁player":2454,"▁2012":2455,"ining":2456,"▁position":2457,"▁cor":2458,"▁become":2459,"▁arr":2460,"▁history":2461,"▁version":2462,"vers":2463,"▁tro":2464,"▁Cal":2465,"ford":2466,"▁Ang":2467,"ondon":2468,"ones":2469,"▁cast":2470,"▁Count":2471,"▁el":2472,"▁influ":2473,"ize":2474,"▁arm":2475,"▁23":2476,"▁London":2477,"▁house":2478,"yle":2479,"▁sound":2480,"rig":2481,"▁fore":2482,"▁commun":2483,"resent":2484,"irc":2485,"app":2486,"▁Batt":2487,"▁gr":2488,"▁club":2489,"▁sugg":2490,"roy":2491,"aul":2492,"atter":2493,"▁strong":2494,"▁invol":2495,"ai":2496,"▁written":2497,"aining":2498,"▁190":2499,"▁With":2500,"▁bas":2501,"▁stat":2502,"▁less":2503,"oung":2504,"utes":2505,"▁announ":2506,"rest":2507,"▁foot":2508,"▁River":2509,"iqu":2510,"ald":2511,"▁order":2512,"▁refer":2513,"iety":2514,"iment":2515,"▁U.S.":2516,"ges":2517,"▁prof":2518,"craft":2519,"▁Canad":2520,"ae":2521,"▁aff":2522,"▁point":2523,"sequ":2524,"▁tem":2525,"▁given":2526,"▁rad":2527,"▁low":2528,"▁trad":2529,"▁hig":2530,"▁want":2531,"▁Gener":2532,"▁University":2533,"ille":2534,"▁ke":2535,"▁gave":2536,"▁pat":2537,"uck":2538,"isc":2539,"▁import":2540,"▁Pol":2541,"▁never":2542,"aff":2543,"▁While":2544,"▁chang":2545,"▁defe":2546,"ories":2547,"▁soc":2548,"▁returned":2549,"ration":2550,"▁Ab":2551,"▁vict":2552,"▁total":2553,"▁fact":2554,"▁High":2555,"▁good":2556,"ention":2557,"▁Tr":2558,"▁company":2559,"▁fire":2560,"ailed":2561,"▁country":2562,"sp":2563,"▁went":2564,"ison":2565,"▁comb":2566,"cess":2567,"▁friend":2568,"ours":2569,"rick":2570,"▁Ex":2571,"▁capt":2572,"▁published":2573,"aun":2574,"▁produced":2575,"levision":2576,"▁find":2577,"aying":2578,"con":2579,"▁reported":2580,"▁origin":2581,"▁Sm":2582,"▁2006":2583,"aign":2584,"▁lost":2585,"▁stated":2586,"▁common":2587,"▁program":2588,"ington":2589,"▁light":2590,"yn":2591,"▁particular":2592,"ape":2593,"▁ord":2594,"echn":2595,"▁adm":2596,"▁include":2597,"ests":2598,"▁According":2599,"▁larg":2600,"ably":2601,"urric":2602,"▁compet":2603,"▁er":2604,"used":2605,"▁recorded":2606,"ief":2607,"▁building":2608,"▁press":2609,"▁Ste":2610,"▁need":2611,"▁Ne":2612,"▁bus":2613,"▁project":2614,"hing":2615,"▁forces":2616,"ument":2617,"▁nort":2618,"▁27":2619,"▁ships":2620,"▁should":2621,"▁using":2622,"▁eight":2623,"▁28":2624,"▁performance":2625,"iness":2626,"▁Sw":2627,"▁service":2628,"bs":2629,"▁popular":2630,"▁ide":2631,"ploy":2632,"▁These":2633,"▁times":2634,"▁50":2635,"osp":2636,"▁making":2637,"▁ten":2638,"▁aircraft":2639,"▁himself":2640,"oyal":2641,"▁fun":2642,"▁author":2643,"▁2013":2644,"▁father":2645,"atch":2646,"▁military":2647,"▁Australia":2648,"▁Sec":2649,"▁anim":2650,"lear":2651,"▁battle":2652,"ampionship":2653,"▁Jack":2654,"ned":2655,"▁Ass":2656,"▁sit":2657,"▁lim":2658,"▁songs":2659,"▁somet":2660,"▁read":2661,"▁Af":2662,"outher":2663,"▁critic":2664,"ensive":2665,"ither":2666,"ords":2667,"▁development":2668,"▁sw":2669,"▁how":2670,"▁gl":2671,"▁General":2672,"alth":2673,"eth":2674,"▁sol":2675,"itive":2676,"eder":2677,"ases":2678,"quad":2679,"▁26":2680,"▁40":2681,"▁State":2682,"oll":2683,"▁Cor":2684,"outhern":2685,"▁James":2686,"▁cross":2687,"cer":2688,"▁189":2689,"amb":2690,"▁represent":2691,"▁Sy":2692,"▁ground":2693,"▁destroy":2694,"acy":2695,"▁star":2696,"▁ft":2697,"▁remained":2698,"astern":2699,"▁ste":2700,"ks":2701,"rie":2702,"▁characters":2703,"▁Army":2704,"▁national":2705,"▁Pres":2706,"▁get":2707,"ries":2708,"work":2709,"▁months":2710,"▁suff":2711,"▁gen":2712,"▁Bo":2713,"▁died":2714,"aur":2715,"▁ter":2716,"▁Gl":2717,"▁Comp":2718,"ublic":2719,"▁developed":2720,"▁title":2721,"dom":2722,"▁sum":2723,"▁chart":2724,"fic":2725,"▁campaign":2726,"ream":2727,"urricane":2728,"▁force":2729,"▁League":2730,"▁children":2731,"▁introdu":2732,"lands":2733,"ency":2734,"▁pra":2735,"▁tour":2736,"▁promot":2737,"itted":2738,"isted":2739,"ael":2740,"▁son":2741,"▁signific":2742,"▁red":2743,"▁across":2744,"▁away":2745,"ression":2746,"hern":2747,"▁relations":2748,"▁obs":2749,"▁histor":2750,"▁field":2751,"▁official":2752,"▁Division":2753,"▁fav":2754,"▁felt":2755,"ole":2756,"lege":2757,"▁America":2758,"▁noted":2759,"▁fac":2760,"▁Sim":2761,"▁night":2762,"alt":2763,"▁announced":2764,"most":2765,"▁reached":2766,"▁Russ":2767,"▁intern":2768,"▁Sup":2769,"▁created":2770,"▁County":2771,"▁areas":2772,"com":2773,"▁Rep":2774,"▁Mon":2775,"▁television":2776,"▁coun":2777,"▁2005":2778,"▁Road":2779,"▁Japanese":2780,"▁station":2781,"hem":2782,"ressed":2783,"▁successful":2784,"▁Mad":2785,"▁rock":2786,"imately":2787,"▁val":2788,"▁Gr":2789,"▁Reg":2790,"ising":2791,"▁various":2792,"▁’":2793,"▁bar":2794,"▁Street":2795,"▁political":2796,"▁seen":2797,"▁followed":2798,"▁aver":2799,"field":2800,"iber":2801,"iting":2802,"▁too":2803,"▁29":2804,"▁rank":2805,"ett":2806,"▁East":2807,"ope":2808,"▁performed":2809,"cast":2810,"▁Rober":2811,"▁cult":2812,"ization":2813,"▁served":2814,"▁2014":2815,"▁players":2816,"▁front":2817,"reg":2818,"▁rev":2819,"ality":2820,"▁George":2821,"▁cond":2822,"▁full":2823,"▁prim":2824,"▁decl":2825,"▁black":2826,"ination":2827,"elling":2828,"▁begin":2829,"duct":2830,"▁fle":2831,"▁put":2832,"▁Ser":2833,"▁circ":2834,"▁conv":2835,"▁earl":2836,"▁Per":2837,"olution":2838,"▁To":2839,"▁Hen":2840,"▁cost":2841,"abor":2842,"idence":2843,"▁see":2844,"▁process":2845,"▁non":2846,"▁div":2847,"▁style":2848,"ying":2849,"▁look":2850,"▁Phil":2851,"▁seven":2852,"▁vol":2853,"▁aud":2854,"▁killed":2855,"▁Em":2856,"▁cy":2857,"▁help":2858,"rict":2859,"▁let":2860,"lished":2861,"play":2862,"▁throughout":2863,"▁Bill":2864,"▁taken":2865,"▁tropical":2866,"▁able":2867,"ana":2868,"▁fight":2869,"▁discover":2870,"▁agre":2871,"ecut":2872,"ertain":2873,"▁little":2874,"▁wid":2875,"▁becom":2876,"▁fem":2877,"▁age":2878,"urg":2879,"▁significant":2880,"▁Sch":2881,"▁hit":2882,"▁meet":2883,"▁ident":2884,"▁Thom":2885,"ways":2886,"irl":2887,"▁techn":2888,"▁special":2889,"▁cop":2890,"oice":2891,"▁writing":2892,"▁struct":2893,"▁David":2894,"▁thought":2895,"▁established":2896,"▁Part":2897,"▁broad":2898,"▁Act":2899,"enced":2900,"▁Mor":2901,"▁mm":2902,"▁appeared":2903,"▁does":2904,"▁coll":2905,"▁entire":2906,"▁Australian":2907,"aval":2908,"cil":2909,"epend":2910,"▁!":2911,"▁young":2912,"▁coast":2913,"▁points":2914,"▁miles":2915,"ius":2916,"▁body":2917,"▁award":2918,"less":2919,"▁impro":2920,"▁Rich":2921,"▁route":2922,"▁member":2923,"odes":2924,"ought":2925,"▁Med":2926,"ground":2927,"ript":2928,"▁women":2929,"▁activ":2930,"▁range":2931,"ster":2932,"ask":2933,"▁Pe":2934,"ivil":2935,"▁You":2936,"▁caused":2937,"▁started":2938,"▁decided":2939,"iers":2940,"blem":2941,"▁features":2942,"lected":2943,"day":2944,"▁Afric":2945,"▁general":2946,"▁pain":2947,"▁Qu":2948,"▁eventually":2949,"ators":2950,"iron":2951,"iec":2952,"int":2953,"umb":2954,"men":2955,"conom":2956,"oph":2957,"ogn":2958,"uk":2959,"den":2960,"▁Royal":2961,"▁race":2962,"▁arch":2963,"▁vot":2964,"here":2965,"itar":2966,"▁grow":2967,"▁manag":2968,"▁feet":2969,"pped":2970,"rison":2971,"▁toget":2972,"▁together":2973,"ush":2974,"▁added":2975,"▁Hist":2976,"▁House":2977,"▁tre":2978,"▁hold":2979,"bert":2980,"▁cut":2981,"ivid":2982,"▁188":2983,"▁white":2984,"▁once":2985,"▁nov":2986,"ample":2987,"ament":2988,"▁formed":2989,"▁arg":2990,"▁located":2991,"▁stri":2992,"reek":2993,"urb":2994,"▁conn":2995,"▁modern":2996,"off":2997,"▁Black":2998,"▁enc":2999,"▁instead":3000,"dle":3001,"▁Port":3002,"head":3003,"rought":3004,"aces":3005,"▁round":3006,"▁esc":3007,"▁31":3008,"▁ball":3009,"ara":3010,"▁mix":3011,"emy":3012,"▁Intern":3013,"ee":3014,"▁important":3015,"▁pri":3016,"cing":3017,"▁crew":3018,"▁saw":3019,"▁action":3020,"▁completed":3021,"▁redu":3022,"▁Ital":3023,"▁playing":3024,"ects":3025,"▁Indian":3026,"ids":3027,"oney":3028,"cent":3029,"rated":3030,"▁Other":3031,"ells":3032,"▁2004":3033,"ata":3034,"▁insp":3035,"▁base":3036,"▁mater":3037,"▁population":3038,"▁My":3039,"▁mot":3040,"▁surv":3041,"▁Michael":3042,"▁voc":3043,"▁ask":3044,"▁rather":3045,"▁occur":3046,"▁opened":3047,"▁stage":3048,"▁behind":3049,"▁others":3050,"▁186":3051,"ray":3052,"▁fall":3053,"▁ren":3054,"▁guns":3055,"asing":3056,"ceed":3057,"▁brother":3058,"wood":3059,"ements":3060,"igned":3061,"▁comment":3062,"lin":3063,"▁lik":3064,"stit":3065,"▁born":3066,"▁fif":3067,"▁2015":3068,"▁site":3069,"▁live":3070,"▁works":3071,"▁loss":3072,"▁France":3073,"▁bomb":3074,"▁worked":3075,"ficult":3076,"▁heavy":3077,"▁miss":3078,"▁pred":3079,"▁School":3080,"medi":3081,"rap":3082,"▁subsequ":3083,"▁lack":3084,"▁party":3085,"▁problem":3086,"nder":3087,"lection":3088,"▁difficult":3089,"▁close":3090,"▁Wash":3091,"▁construction":3092,"▁know":3093,"▁Nor":3094,"▁Some":3095,"▁relationship":3096,"▁host":3097,"▁weeks":3098,"istic":3099,"▁San":3100,"▁originally":3101,"▁separ":3102,"▁associ":3103,"arch":3104,"co":3105,"▁upon":3106,"▁pract":3107,"▁reb":3108,"▁Henry":3109,"▁leading":3110,"▁appoin":3111,"▁accom":3112,"▁vill":3113,"▁almost":3114,"▁mer":3115,"▁Robert":3116,"orts":3117,"▁peak":3118,"▁Ale":3119,"▁inj":3120,"▁damage":3121,"lic":3122,"unk":3123,"▁scored":3124,"▁fourth":3125,"osition":3126,"▁inform":3127,"▁reve":3128,"▁Music":3129,"aps":3130,"▁provided":3131,"▁Best":3132,"ming":3133,"▁case":3134,"▁Vir":3135,"▁Star":3136,"▁goal":3137,"▁clos":3138,"▁Battle":3139,"board":3140,"▁engine":3141,"▁creat":3142,"▁Red":3143,"▁accept":3144,"▁mi":3145,"▁invest":3146,"ica":3147,"oring":3148,"▁scene":3149,"ellow":3150,"▁Desp":3151,"▁human":3152,"angu":3153,"ule":3154,"ino":3155,"ological":3156,"▁brought":3157,"▁500":3158,"▁free":3159,"▁individ":3160,"▁187":3161,"▁Paul":3162,"▁featured":3163,"ula":3164,"▁mother":3165,"▁President":3166,"▁Rou":3167,"▁king":3168,"▁least":3169,"ama":3170,"▁working":3171,"aut":3172,"▁allowed":3173,"▁laun":3174,"▁resul":3175,"▁Mil":3176,"▁average":3177,"▁Cap":3178,"▁towards":3179,"▁wanted":3180,"▁mult":3181,"▁indust":3182,"▁tradition":3183,"aves":3184,"▁region":3185,"▁business":3186,"▁Washington":3187,"▁Hol":3188,"iding":3189,"azine":3190,"▁Ag":3191,"▁Que":3192,"▁ve":3193,"▁quick":3194,"▁troops":3195,"▁placed":3196,"▁either":3197,"▁ce":3198,"▁respect":3199,"ving":3200,"▁office":3201,"▁critics":3202,"ky":3203,"▁Bel":3204,"▁avail":3205,"▁hon":3206,"antic":3207,"▁reach":3208,"▁profess":3209,"▁example":3210,"▁runs":3211,"▁material":3212,"▁econom":3213,"▁recogn":3214,"▁far":3215,"ened":3216,"▁wife":3217,"ze":3218,"go":3219,"earch":3220,"chie":3221,"▁neg":3222,"to":3223,"▁estim":3224,"ential":3225,"▁army":3226,"▁foc":3227,"right":3228,"▁Despite":3229,"▁sex":3230,"▁2003":3231,"▁interest":3232,"▁Follow":3233,"▁Cour":3234,"▁sour":3235,"ength":3236,"▁generally":3237,"▁mass":3238,"r.":3239,"▁joined":3240,"▁dou":3241,"▁rail":3242,"quadron":3243,"▁Ham":3244,"▁proper":3245,"ills":3246,"▁Angel":3247,"uff":3248,"enes":3249,"▁current":3250,"▁dev":3251,"ourn":3252,"▁Hall":3253,"▁Cup":3254,"▁events":3255,"▁believed":3256,"▁Game":3257,"itch":3258,"of":3259,"▁particip":3260,"▁35":3261,"rey":3262,"be":3263,"▁fig":3264,"▁Following":3265,"▁Ke":3266,"ville":3267,"▁First":3268,"▁Mary":3269,"▁z":3270,"▁victory":3271,"▁replaced":3272,"▁Lou":3273,"▁Great":3274,"artment":3275,"▁designed":3276,"▁mph":3277,"iction":3278,"▁grad":3279,"▁Je":3280,"▁rul":3281,"itte":3282,"▁soon":3283,"▁nomin":3284,"sc":3285,"▁island":3286,"▁Gro":3287,"▁fund":3288,"xic":3289,"▁La":3290,"erous":3291,"oor":3292,"▁hours":3293,"▁European":3294,"▁Two":3295,"▁employ":3296,"▁president":3297,"▁Mal":3298,"▁room":3299,"ification":3300,"▁involved":3301,"aled":3302,"uel":3303,"▁surf":3304,"val":3305,"aper":3306,"▁finished":3307,"merc":3308,"▁stru":3309,"▁Championship":3310,"inn":3311,"inist":3312,"asion":3313,"west":3314,"▁Mart":3315,"inf":3316,"▁Play":3317,"▁break":3318,"rac":3319,"▁Roman":3320,"▁hor":3321,"rain":3322,"aren":3323,"iff":3324,"▁saying":3325,"arn":3326,"emor":3327,"▁court":3328,"▁shot":3329,"▁threat":3330,"▁Ber":3331,"▁score":3332,"▁opening":3333,"▁regular":3334,"▁Dan":3335,"BC":3336,"▁desp":3337,"▁director":3338,"▁length":3339,"▁Met":3340,"▁2000":3341,"▁Mac":3342,"▁Don":3343,"▁indic":3344,"ades":3345,"leg":3346,"cher":3347,"▁Scott":3348,"▁conduct":3349,"▁largest":3350,"▁contrib":3351,"▁travel":3352,"▁hom":3353,"oul":3354,"ki":3355,"▁possible":3356,"ecutive":3357,"▁ill":3358,"ude":3359,"now":3360,"▁minutes":3361,"▁highway":3362,"▁Route":3363,"▁southern":3364,"ishing":3365,"▁dro":3366,"▁Cro":3367,"▁hy":3368,"▁Val":3369,"icle":3370,"▁highest":3371,"▁remov":3372,"▁From":3373,"▁earlier":3374,"▁2001":3375,"▁test":3376,"▁Atl":3377,"▁initially":3378,"▁Sing":3379,"ago":3380,"▁ly":3381,"▁available":3382,"▁particularly":3383,"▁percent":3384,"ander":3385,"antry":3386,"▁hard":3387,"▁Wil":3388,"anned":3389,"▁sequ":3390,"▁training":3391,"▁Republic":3392,"▁forced":3393,"▁must":3394,"▁exist":3395,"ply":3396,"▁Mid":3397,"ipp":3398,"hib":3399,"▁Mag":3400,"▁Kingdom":3401,"▁Charles":3402,"▁Navy":3403,"ography":3404,"asy":3405,"▁°":3406,"▁park":3407,"rian":3408,"bor":3409,"ateg":3410,"▁respons":3411,"▁No.":3412,"▁ended":3413,"▁quar":3414,"▁McC":3415,"▁Off":3416,"▁turned":3417,"▁wall":3418,"▁Thomas":3419,"▁exc":3420,"▁social":3421,"▁International":3422,"uture":3423,"▁But":3424,"▁studio":3425,"▁Pal":3426,"ems":3427,"iforn":3428,"▁Res":3429,"rag":3430,"▁Dep":3431,"ios":3432,"▁change":3433,"▁White":3434,"▁langu":3435,"▁Virgin":3436,"▁praised":3437,"▁passed":3438,"▁super":3439,"▁priv":3440,"rup":3441,"▁bill":3442,"atural":3443,"▁piec":3444,"▁increased":3445,"▁object":3446,"▁Brown":3447,"▁educ":3448,"▁hurricane":3449,"▁regard":3450,"▁northern":3451,"heast":3452,"▁2002":3453,"▁keep":3454,"▁phys":3455,"▁central":3456,"ights":3457,"▁Church":3458,"itor":3459,"▁novel":3460,"▁relig":3461,"▁Canada":3462,"sel":3463,"▁speed":3464,"▁appearance":3465,"▁Californ":3466,"▁units":3467,"▁past":3468,"rem":3469,"ership":3470,"▁Rock":3471,"▁Sl":3472,"key":3473,"▁stop":3474,"▁church":3475,"▁Sen":3476,"ended":3477,"▁cou":3478,"▁immedi":3479,"▁Bay":3480,"uter":3481,"▁sym":3482,"ston":3483,"▁Mo":3484,"▁Smith":3485,"ocr":3486,"▁disp":3487,"▁meas":3488,"▁ordered":3489,"aughter":3490,"▁Mer":3491,"▁treat":3492,"ique":3493,"▁Sam":3494,"▁taking":3495,"ference":3496,"▁Richard":3497,"rying":3498,"ittee":3499,"▁independ":3500,"▁love":3501,"▁Alex":3502,"▁signed":3503,"▁move":3504,"ilities":3505,"▁California":3506,"▁achie":3507,"etwork":3508,"▁better":3509,"▁pers":3510,"ump":3511,"▁Union":3512,"itz":3513,"aker":3514,"▁God":3515,"▁ap":3516,"▁Govern":3517,"ecess":3518,"arily":3519,"▁inn":3520,"▁winds":3521,"▁Island":3522,"▁commerc":3523,"▁enough":3524,"▁wat":3525,"▁positive":3526,"ears":3527,"nel":3528,"ume":3529,"▁Court":3530,"▁according":3531,"▁hous":3532,"▁spent":3533,"elled":3534,"▁going":3535,"▁pot":3536,"▁above":3537,"▁Bra":3538,"▁slow":3539,"anks":3540,"▁outside":3541,"▁films":3542,"apt":3543,"▁Tom":3544,"▁Vict":3545,"▁Up":3546,"▁Cong":3547,"▁feel":3548,"▁told":3549,"▁football":3550,"ma":3551,"▁Award":3552,"berg":3553,"quare":3554,"▁clear":3555,"▁previously":3556,"uation":3557,"▁quest":3558,"▁states":3559,"▁recording":3560,"▁mean":3561,"anding":3562,"▁Associ":3563,"▁Ac":3564,"▁nine":3565,"het":3566,"▁pur":3567,"usion":3568,"▁subject":3569,"▁Art":3570,"▁failed":3571,"atin":3572,"ows":3573,"▁assist":3574,"▁come":3575,"▁Company":3576,"▁required":3577,"osing":3578,"▁45":3579,"reng":3580,"▁elements":3581,"▁prob":3582,"van":3583,"▁ey":3584,"ida":3585,"▁Stud":3586,"▁cru":3587,"alion":3588,"▁India":3589,"▁lower":3590,"▁Germany":3591,"▁reviews":3592,"▁interview":3593,"edy":3594,"▁phot":3595,"▁parts":3596,"▁Mark":3597,"▁Peter":3598,"▁Gold":3599,"▁itself":3600,"▁Christian":3601,"▁sil":3602,"▁nar":3603,"▁think":3604,"nes":3605,"ranch":3606,"ship":3607,"▁directed":3608,"▁abs":3609,"isl":3610,"▁esp":3611,"▁flow":3612,"ibility":3613,"▁despite":3614,"▁cred":3615,"amer":3616,"▁contract":3617,"▁185":3618,"oke":3619,"▁NY":3620,"▁60":3621,"▁That":3622,"▁debut":3623,"▁?":3624,"▁Times":3625,"▁£":3626,"▁Pat":3627,"erved":3628,"▁access":3629,"ready":3630,"leb":3631,"▁Cast":3632,"▁beginning":3633,"oid":3634,"▁bi":3635,"▁groups":3636,"▁College":3637,"▁viol":3638,"onna":3639,"▁Hill":3640,"▁section":3641,"▁UK":3642,"▁Sov":3643,"ability":3644,"hester":3645,"▁whose":3646,"▁Br":3647,"asons":3648,"▁claimed":3649,"▁Western":3650,"▁international":3651,"▁asked":3652,"▁lines":3653,"▁transfer":3654,"▁prevent":3655,"▁Dem":3656,"▁streng":3657,"▁screen":3658,"▁give":3659,"airs":3660,"▁che":3661,"▁Soviet":3662,"onse":3663,"rief":3664,"▁unc":3665,"▁beg":3666,"▁key":3667,"▁additional":3668,"▁future":3669,"▁Film":3670,"mar":3671,"▁Grand":3672,"▁Mexic":3673,"▁league":3674,"▁whom":3675,"▁Frank":3676,"▁op":3677,"▁Do":3678,"▁gold":3679,"▁Span":3680,"▁poor":3681,"▁Ben":3682,"▁Awards":3683,"▁fort":3684,"lying":3685,"▁introduced":3686,"▁evidence":3687,"▁don":3688,"▁prem":3689,"ites":3690,"onst":3691,"▁sea":3692,"▁idea":3693,"ex":3694,"▁quickly":3695,"▁cal":3696,"atory":3697,"▁already":3698,"▁Soc":3699,"▁32":3700,"▁center":3701,"▁bridge":3702,"▁frequ":3703,"▁Force":3704,"usp":3705,"▁Most":3706,"▁election":3707,"▁product":3708,"▁occup":3709,"eck":3710,"▁pil":3711,"▁except":3712,"▁Coun":3713,"back":3714,"unt":3715,"▁deal":3716,"irth":3717,"eum":3718,"ecially":3719,"▁pen":3720,"▁usually":3721,"▁musical":3722,"▁emb":3723,"▁western":3724,"▁arrived":3725,"aring":3726,"▁Rob":3727,"▁block":3728,"eal":3729,"▁radio":3730,"▁St.":3731,"▁Britain":3732,"▁civil":3733,"liam":3734,"▁cycl":3735,"ergy":3736,"ully":3737,"▁Over":3738,"▁female":3739,"▁sometimes":3740,"▁Day":3741,"▁study":3742,"▁food":3743,"▁response":3744,"▁decision":3745,"▁money":3746,"▁Pac":3747,"▁magazine":3748,"▁especially":3749,"▁Hot":3750,"▁issue":3751,"▁Later":3752,"asc":3753,"liament":3754,"▁Victor":3755,"▁Im":3756,"▁lab":3757,"▁surface":3758,"▁-":3759,"▁liter":3760,"gen":3761,"rack":3762,"▁flood":3763,"▁might":3764,"aint":3765,"▁Chic":3766,"▁env":3767,"▁Tra":3768,"▁guitar":3769,"▁carried":3770,"▁Bur":3771,"▁shows":3772,"▁community":3773,"▁construct":3774,"ena":3775,"iter":3776,"▁estimated":3777,"▁arran":3778,"▁remain":3779,"aries":3780,"▁Mill":3781,"▁1999":3782,"▁remaining":3783,"▁eastern":3784,"ha":3785,"▁minor":3786,"▁defeated":3787,"▁determ":3788,"▁Rh":3789,"inent":3790,"ession":3791,"▁Virginia":3792,"▁Early":3793,"▁approx":3794,"igan":3795,"▁larger":3796,"raw":3797,"ulf":3798,"▁becoming":3799,"▁rap":3800,"▁wood":3801,"▁complete":3802,"▁Mount":3803,"▁36":3804,"rab":3805,"ror":3806,"▁police":3807,"▁suggested":3808,"porary":3809,"▁media":3810,"▁pressure":3811,"▁entered":3812,"▁shoot":3813,"▁teams":3814,"rics":3815,"▁Los":3816,"▁Just":3817,"▁commercial":3818,"▁anal":3819,"▁Inf":3820,"▁doc":3821,"▁latter":3822,"ands":3823,"NA":3824,"▁market":3825,"erve":3826,"▁lo":3827,"▁consider":3828,"▁students":3829,"ises":3830,"▁surround":3831,"▁investig":3832,"▁brief":3833,"▁concern":3834,"▁personal":3835,"▁Second":3836,"inct":3837,"▁bur":3838,"▁If":3839,"▁Tex":3840,"▁certain":3841,"▁prison":3842,"▁acqu":3843,"▁discuss":3844,"▁Fle":3845,"▁Jackson":3846,"▁effects":3847,"▁complet":3848,"▁hop":3849,"▁appointed":3850,"alled":3851,"▁der":3852,"▁summer":3853,"▁episodes":3854,"▁Cont":3855,"▁prior":3856,"ederal":3857,"incip":3858,"▁Flor":3859,"▁sat":3860,"▁tar":3861,"change":3862,"▁emer":3863,"▁staff":3864,"enth":3865,"lymp":3866,"▁size":3867,"▁Louis":3868,"ores":3869,"▁changes":3870,"ulated":3871,"▁commission":3872,"sy":3873,"omm":3874,"tt":3875,"imate":3876,"▁winning":3877,"▁limited":3878,"▁scenes":3879,"▁Olymp":3880,"▁river":3881,"▁fleet":3882,"▁leaving":3883,"▁destroyed":3884,"iser":3885,"▁deg":3886,"▁draw":3887,"▁pay":3888,"II":3889,"▁Club":3890,"▁den":3891,"▁rid":3892,"lo":3893,"que":3894,"▁Spanish":3895,"▁75":3896,"▁self":3897,"ga":3898,"su":3899,"▁rights":3900,"ournal":3901,"▁provide":3902,"▁writer":3903,"ires":3904,"rigade":3905,"▁polic":3906,"sen":3907,"▁type":3908,"idents":3909,"▁fail":3910,"ari":3911,"ension":3912,"▁date":3913,"▁trib":3914,"▁territ":3915,"oms":3916,"▁Kh":3917,"▁girl":3918,"▁proposed":3919,"rd":3920,"▁influence":3921,"ties":3922,"▁Green":3923,"▁Party":3924,"▁overall":3925,"▁tax":3926,"▁184":3927,"▁kil":3928,"▁transport":3929,"▁structure":3930,"▁Ter":3931,"▁contro":3932,"▁equip":3933,"▁Du":3934,"▁300":3935,"▁division":3936,"▁script":3937,"▁br":3938,"iral":3939,"inese":3940,"▁Association":3941,"▁agreed":3942,"▁anti":3943,"▁intended":3944,"▁Pri":3945,"▁jud":3946,"▁bow":3947,"▁Edward":3948,"▁80":3949,"▁running":3950,"ift":3951,"ending":3952,"icles":3953,"▁Chicago":3954,"▁daughter":3955,"▁big":3956,"▁broadcast":3957,"▁purch":3958,"▁nearly":3959,"▁supported":3960,"▁Many":3961,"atives":3962,"AF":3963,"▁Adm":3964,"▁deep":3965,"▁di":3966,"▁research":3967,"▁wide":3968,"imum":3969,"▁establish":3970,"▁Ro":3971,"▁helped":3972,"▁married":3973,"▁1998":3974,"▁movement":3975,"▁Chinese":3976,"▁awarded":3977,"▁multip":3978,"▁Song":3979,"▁Ir":3980,"▁Council":3981,"ili":3982,"▁Oper":3983,"iles":3984,"atively":3985,"acing":3986,"irm":3987,"▁create":3988,"▁favor":3989,"▁intens":3990,"▁diss":3991,"▁bird":3992,"▁Sal":3993,"▁Enter":3994,"▁dark":3995,"▁susp":3996,"pris":3997,"omer":3998,"ny":3999,"teen":4000,"▁stars":4001,"che":4002,"▁longer":4003,"▁language":4004,"▁higher":4005,"▁cat":4006,"▁Ev":4007,"▁planned":4008,"mon":4009,"▁compared":4010,"▁captured":4011,"▁increasing":4012,"▁fans":4013,"▁A.":4014,"▁conclud":4015,"▁course":4016,"uz":4017,"▁changed":4018,"▁Serv":4019,"▁Super":4020,"▁Emp":4021,"▁Johnson":4022,"▁33":4023,"ounds":4024,"▁experience":4025,"▁approximately":4026,"▁related":4027,"selves":4028,"▁done":4029,"▁feature":4030,"▁fifth":4031,"▁living":4032,"enty":4033,"▁Kore":4034,"▁themselves":4035,"abit":4036,"▁History":4037,"▁producer":4038,"bers":4039,"itt":4040,"tained":4041,"arent":4042,"▁temper":4043,"▁space":4044,"▁tracks":4045,"▁mostly":4046,"▁Pacific":4047,"isions":4048,"▁withd":4049,"ss":4050,"▁Inter":4051,"▁Back":4052,"uth":4053,"anced":4054,"olic":4055,"▁Billboard":4056,"ij":4057,"▁thus":4058,"▁App":4059,"▁Bet":4060,"▁Not":4061,"can":4062,"▁woman":4063,"▁dead":4064,"umn":4065,"▁Mont":4066,"▁operations":4067,"▁imm":4068,"▁remains":4069,"▁syn":4070,"▁bring":4071,"▁quarter":4072,"thing":4073,"▁our":4074,"▁natural":4075,"▁whether":4076,"imin":4077,"vin":4078,"▁ult":4079,"oint":4080,"▁concept":4081,"▁weap":4082,"▁dram":4083,"▁Final":4084,"▁Scot":4085,"anded":4086,"▁probably":4087,"▁soldiers":4088,"▁ran":4089,"rast":4090,"▁copies":4091,"▁Sun":4092,"bour":4093,"▁buildings":4094,"▁leader":4095,"▁voice":4096,"▁1997":4097,"▁face":4098,"▁boy":4099,"▁extended":4100,"▁Since":4101,"▁lyrics":4102,"▁forward":4103,"▁depart":4104,"▁Kn":4105,"▁complex":4106,"▁board":4107,"▁Atlantic":4108,"▁react":4109,"iring":4110,"▁battles":4111,"vey":4112,"▁issued":4113,"▁heav":4114,"▁chall":4115,"riage":4116,"ging":4117,"▁really":4118,"▁countries":4119,"ospital":4120,"▁37":4121,"rate":4122,"▁suffered":4123,"▁Lake":4124,"▁Congress":4125,"▁cm":4126,"▁Love":4127,"▁Fort":4128,"▁Franc":4129,"▁goals":4130,"▁Florida":4131,"urt":4132,"▁Sever":4133,"▁includes":4134,"▁immediately":4135,"▁meth":4136,"▁Both":4137,"▁attend":4138,"▁Big":4139,"hood":4140,"▁breed":4141,"▁capital":4142,"▁manager":4143,"▁70":4144,"▁mixed":4145,"▁private":4146,"iant":4147,"▁Jim":4148,"▁Jew":4149,"▁officers":4150,"▁likely":4151,"▁Old":4152,"▁cann":4153,"▁distrib":4154,"hold":4155,"▁Ant":4156,"ien":4157,"▁mach":4158,"▁Queen":4159,"de":4160,"bury":4161,"▁removed":4162,"▁Texas":4163,"▁plant":4164,"▁initial":4165,"▁celeb":4166,"▁Sea":4167,"▁increase":4168,"venue":4169,"▁Town":4170,"▁health":4171,"▁subsequently":4172,"▁Dist":4173,"▁leave":4174,"▁plans":4175,"ria":4176,"▁always":4177,"▁focus":4178,"▁coin":4179,"▁Law":4180,"▁network":4181,"ections":4182,"▁services":4183,"▁mount":4184,"▁via":4185,"▁status":4186,"▁compan":4187,"▁Trans":4188,"▁Tor":4189,"rial":4190,"▁Pet":4191,"▁China":4192,"▁visit":4193,"▁location":4194,"order":4195,"ams":4196,"▁Another":4197,"iation":4198,"▁flag":4199,"▁problems":4200,"▁Lord":4201,"▁Camp":4202,"▁How":4203,"▁Earth":4204,"▁offered":4205,"▁instr":4206,"well":4207,"ously":4208,"aily":4209,"▁model":4210,"▁terms":4211,"▁norm":4212,"etic":4213,"▁mur":4214,"▁Const":4215,"▁colon":4216,"▁approach":4217,"▁something":4218,"▁village":4219,"▁administ":4220,"▁tons":4221,"▁fell":4222,"ounted":4223,"▁Wood":4224,"wer":4225,"▁Boy":4226,"ctor":4227,"▁Ol":4228,"▁tor":4229,"ironment":4230,"▁sch":4231,"▁majority":4232,"▁Tur":4233,"▁professional":4234,"orning":4235,"▁counter":4236,"▁183":4237,"▁Canadian":4238,"▁Its":4239,"adium":4240,"▁Rail":4241,"▁got":4242,"ibr":4243,"▁Africa":4244,"▁cause":4245,"▁Mur":4246,"▁consist":4247,"burg":4248,"aches":4249,"uries":4250,"▁inters":4251,"▁damaged":4252,"▁meeting":4253,"▁Gre":4254,"▁job":4255,"▁appears":4256,"▁adop":4257,"▁minute":4258,"▁ranked":4259,"olk":4260,"▁lay":4261,"▁Center":4262,"uf":4263,"▁individual":4264,"oes":4265,"▁composed":4266,"cean":4267,"▁revealed":4268,"▁Squadron":4269,"▁Highway":4270,"ify":4271,"▁ang":4272,"ste":4273,"▁flight":4274,"▁attacks":4275,"▁Russian":4276,"itect":4277,"▁plot":4278,"▁discovered":4279,"▁raised":4280,"lor":4281,"reak":4282,"umed":4283,"▁financ":4284,"▁Rad":4285,"▁Mel":4286,"▁respectively":4287,"▁makes":4288,"pan":4289,"▁Kent":4290,"▁Carol":4291,"▁Martin":4292,"▁Central":4293,"▁Sir":4294,"▁numerous":4295,"▁III":4296,"▁1995":4297,"▁associated":4298,"▁altern":4299,"gar":4300,"▁takes":4301,"▁Angeles":4302,"▁domin":4303,"▁needed":4304,"▁inspired":4305,"▁Bow":4306,"▁anc":4307,"▁lived":4308,"▁34":4309,"oe":4310,"ault":4311,"▁grand":4312,"▁launched":4313,"▁yet":4314,"ription":4315,"▁cand":4316,"▁nature":4317,"▁pow":4318,"▁amb":4319,"▁dig":4320,"▁coach":4321,"▁occurred":4322,"▁contains":4323,"▁DV":4324,"▁veh":4325,"estival":4326,"▁bene":4327,"▁shown":4328,"▁attempted":4329,"uals":4330,"▁attacked":4331,"▁Des":4332,"uments":4333,"▁moving":4334,"▁conditions":4335,"▁upper":4336,"▁hour":4337,"▁TV":4338,"ka":4339,"iest":4340,"down":4341,"imb":4342,"ken":4343,"▁sales":4344,"▁gra":4345,"ective":4346,"▁38":4347,"▁Group":4348,"▁Miss":4349,"joy":4350,"▁Year":4351,"▁collect":4352,"▁2016":4353,"▁Del":4354,"aught":4355,"▁Tour":4356,"▁1996":4357,"orce":4358,"▁issues":4359,"▁birth":4360,"▁Rev":4361,"▁whole":4362,"▁i":4363,"▁sal":4364,"izing":4365,"▁exam":4366,"▁cer":4367,"▁information":4368,"▁yards":4369,"▁farm":4370,"▁slight":4371,"▁Empire":4372,"▁Out":4373,"▁box":4374,"urity":4375,"▁mom":4376,"win":4377,"vert":4378,"▁referred":4379,"uing":4380,"▁critical":4381,"oly":4382,"▁19th":4383,"▁incor":4384,"reme":4385,"▁Under":4386,"▁Penn":4387,"▁Gar":4388,"▁numbers":4389,"▁finally":4390,"▁smaller":4391,"▁elected":4392,"▁selected":4393,"▁defeat":4394,"▁resulted":4395,"▁sen":4396,"▁scient":4397,"▁stay":4398,"▁bad":4399,"▁grant":4400,"▁qual":4401,"▁active":4402,"▁princip":4403,"▁singer":4404,"kin":4405,"▁standard":4406,"▁secret":4407,"▁pit":4408,"itation":4409,"▁Italian":4410,"uated":4411,"▁mission":4412,"▁industry":4413,"▁90":4414,"▁1994":4415,"enant":4416,"▁largely":4417,"▁ens":4418,"▁operation":4419,"▁sem":4420,"andon":4421,"▁Jose":4422,"▁prec":4423,"▁link":4424,"ortun":4425,"onic":4426,"oura":4427,"▁assigned":4428,"use":4429,"▁saf":4430,"▁legisl":4431,"▁earned":4432,"▁thr":4433,"▁commented":4434,"itude":4435,"▁J.":4436,"▁male":4437,"▁expected":4438,"▁DVD":4439,"▁Corps":4440,"iled":4441,"▁Dis":4442,"▁roy":4443,"▁audience":4444,"▁listed":4445,"▁suggest":4446,"▁gre":4447,"oud":4448,"▁Crit":4449,"▁Arm":4450,"▁covered":4451,"▁purp":4452,"▁unable":4453,"irection":4454,"▁sched":4455,"▁heart":4456,"▁traditional":4457,"▁Cr":4458,"▁education":4459,"▁trade":4460,"gr":4461,"▁artist":4462,"▁newsp":4463,"ya":4464,"▁double":4465,"▁friends":4466,"▁closed":4467,"▁Viet":4468,"▁underst":4469,"▁refused":4470,"▁aw":4471,"agon":4472,"▁recover":4473,"▁attention":4474,"ounts":4475,"▁method":4476,"▁primary":4477,"ighter":4478,"▁sister":4479,"ogue":4480,"▁kind":4481,"▁talk":4482,"▁Michigan":4483,"▁Pre":4484,"tered":4485,"▁reason":4486,"ffic":4487,"▁officer":4488,"▁plat":4489,"▁below":4490,"▁contem":4491,"hips":4492,"▁Wales":4493,"▁enjoy":4494,"▁ability":4495,"▁depression":4496,"▁meant":4497,"▁Mass":4498,"▁performances":4499,"▁declared":4500,"oo":4501,"▁walk":4502,"▁Nort":4503,"▁49":4504,"▁blood":4505,"isher":4506,"▁More":4507,"▁giving":4508,"▁Cath":4509,"▁letter":4510,"▁compl":4511,"▁word":4512,"undred":4513,"ples":4514,"▁fighting":4515,"▁180":4516,"▁middle":4517,"▁Cle":4518,"▁commander":4519,"▁religious":4520,"▁books":4521,"▁theat":4522,"▁max":4523,"▁hot":4524,"▁sett":4525,"▁rate":4526,"▁Ox":4527,"▁Arch":4528,"▁Step":4529,"▁Long":4530,"▁records":4531,"ils":4532,"▁matches":4533,"▁constit":4534,"▁Acad":4535,"▁names":4536,"ona":4537,"aped":4538,"▁Bec":4539,"▁Test":4540,"▁Democr":4541,"▁produce":4542,"▁question":4543,"▁Fer":4544,"▁Care":4545,"antasy":4546,"▁competition":4547,"utch":4548,"▁centre":4549,"▁serious":4550,"▁unit":4551,"ux":4552,"▁Team":4553,"odies":4554,"▁disapp":4555,"▁touch":4556,"▁vocals":4557,"ims":4558,"▁Minister":4559,"irt":4560,"▁Several":4561,"iences":4562,"▁mention":4563,"▁Zeal":4564,"osh":4565,"ounded":4566,"▁1992":4567,"▁ri":4568,"▁Major":4569,"ector":4570,"▁Cons":4571,"▁41":4572,"▁account":4573,"▁document":4574,"▁abandon":4575,"▁Wal":4576,"road":4577,"icted":4578,"▁rapid":4579,"▁energy":4580,"▁necess":4581,"ares":4582,"▁mor":4583,"quar":4584,"▁kilomet":4585,"▁Kenn":4586,"ervation":4587,"echan":4588,"▁Fore":4589,"▁dut":4590,"▁constructed":4591,"ening":4592,"▁theme":4593,"▁ris":4594,"rug":4595,"oses":4596,"▁1st":4597,"rier":4598,"▁Fox":4599,"▁Sum":4600,"▁Time":4601,"ette":4602,"▁royal":4603,"▁pick":4604,"ishop":4605,"▁stra":4606,"▁nearby":4607,"▁highly":4608,"▁separate":4609,"▁Zealand":4610,"yr":4611,"▁Er":4612,"▁continue":4613,"vention":4614,"▁prep":4615,"▁So":4616,"▁chief":4617,"▁drum":4618,"ails":4619,"▁effort":4620,"▁cas":4621,"▁presented":4622,"edic":4623,"▁Haw":4624,"▁tur":4625,"▁Sar":4626,"▁combat":4627,"▁Mexico":4628,"oper":4629,"▁positions":4630,"▁African":4631,"▁reduced":4632,"▁annual":4633,"▁Bu":4634,"ether":4635,"▁400":4636,"ibly":4637,"▁controvers":4638,"▁Chris":4639,"▁Matt":4640,"▁directly":4641,"ieut":4642,"▁Ma":4643,"▁Four":4644,"▁levels":4645,"cel":4646,"▁means":4647,"▁cle":4648,"▁neigh":4649,"▁Wall":4650,"▁notes":4651,"▁attended":4652,"▁sevent":4653,"▁practice":4654,"▁tried":4655,"shire":4656,"▁compos":4657,"▁forest":4658,"uit":4659,"emorial":4660,"▁55":4661,"▁fast":4662,"▁har":4663,"▁nuc":4664,"▁edition":4665,"▁train":4666,"▁Lit":4667,"▁Brad":4668,"▁Dar":4669,"acher":4670,"ado":4671,"▁Chart":4672,"▁Tre":4673,"▁Bob":4674,"arents":4675,"▁twenty":4676,"vement":4677,"▁metal":4678,"▁1993":4679,"▁Madonna":4680,"▁accepted":4681,"osen":4682,"▁watch":4683,"▁20th":4684,"▁stating":4685,"▁1991":4686,"▁movie":4687,"▁architect":4688,"▁text":4689,"rical":4690,"▁Hel":4691,"▁repe":4692,"▁candid":4693,"isation":4694,"track":4695,"▁concert":4696,"▁Scotland":4697,"▁advance":4698,"stitute":4699,"▁179":4700,"▁pair":4701,"▁Jones":4702,"▁portray":4703,"▁direction":4704,"irmed":4705,"house":4706,"▁fr":4707,"ersey":4708,"▁seem":4709,"▁dism":4710,"▁Their":4711,"▁schools":4712,"▁legal":4713,"▁Ann":4714,"ani":4715,"▁reject":4716,"eway":4717,"lict":4718,"inem":4719,"ih":4720,"wide":4721,"▁asp":4722,"▁Manc":4723,"icip":4724,"fall":4725,"▁ge":4726,"▁horse":4727,"▁Cross":4728,"▁thick":4729,"▁marriage":4730,"illery":4731,"▁+":4732,"aging":4733,"▁recomm":4734,"▁Greek":4735,"▁Department":4736,"light":4737,"▁efforts":4738,"▁managed":4739,"▁college":4740,"▁Dou":4741,"awn":4742,"▁39":4743,"▁purs":4744,"like":4745,"icient":4746,"▁Go":4747,"▁wing":4748,"utions":4749,"hy":4750,"▁resulting":4751,"▁ending":4752,"irit":4753,"ieutenant":4754,"▁Three":4755,"band":4756,"▁showed":4757,"▁dropped":4758,"▁responsible":4759,"▁Mic":4760,"▁Post":4761,"MS":4762,"▁Infantry":4763,"▁182":4764,"▁nation":4765,"▁display":4766,"▁inside":4767,"illed":4768,"▁Foot":4769,"ita":4770,"▁cases":4771,"▁kept":4772,"▁cust":4773,"▁environment":4774,"▁Lad":4775,"▁Bost":4776,"▁48":4777,"▁culture":4778,"▁rare":4779,"▁meaning":4780,"▁rat":4781,"▁Leg":4782,"▁cyclone":4783,"olf":4784,"▁dom":4785,"▁incorpor":4786,"▁begins":4787,"▁42":4788,"▁variety":4789,"ceeded":4790,"▁morning":4791,"pe":4792,"▁subst":4793,"▁cerem":4794,"pass":4795,"▁houses":4796,"▁Stone":4797,"▁forms":4798,"▁championship":4799,"▁Service":4800,"▁words":4801,"rane":4802,"▁arrest":4803,"▁schol":4804,"▁Creek":4805,"▁yard":4806,"peror":4807,"▁Williams":4808,"▁Hung":4809,"▁oil":4810,"▁B.":4811,"▁Records":4812,"▁Secret":4813,"▁marked":4814,"▁inches":4815,"cend":4816,"▁continues":4817,"▁spl":4818,"ini":4819,"▁science":4820,"▁BC":4821,"▁perm":4822,"▁181":4823,"▁symb":4824,"gl":4825,"▁News":4826,"gypt":4827,"ecting":4828,"ols":4829,"▁bank":4830,"▁Hal":4831,"▁Stan":4832,"▁Parliament":4833,"▁uses":4834,"▁economic":4835,"▁Sur":4836,"writ":4837,"cle":4838,"▁source":4839,"▁Games":4840,"thel":4841,"bed":4842,"ras":4843,"▁Fin":4844,"▁Tro":4845,"▁quality":4846,"▁defend":4847,"▁Pan":4848,"▁Tri":4849,"ulations":4850,"▁lear":4851,"▁hundred":4852,"▁C.":4853,"▁settle":4854,"▁impact":4855,"▁starting":4856,"▁conducted":4857,"▁Book":4858,"thur":4859,"▁specific":4860,"wh":4861,"▁strugg":4862,"▁allowing":4863,"▁Egypt":4864,"▁Dr":4865,"▁Society":4866,"▁beat":4867,"▁1942":4868,"▁presence":4869,"▁Sol":4870,"▁amount":4871,"▁du":4872,"▁Jer":4873,"▁sides":4874,"▁Oh":4875,"▁viewers":4876,"▁captain":4877,"sych":4878,"een":4879,"▁dance":4880,"▁metres":4881,"ingu":4882,"▁chap":4883,"▁univers":4884,"▁suppl":4885,"▁Lu":4886,"▁exhib":4887,"▁rule":4888,"▁ple":4889,"▁Prince":4890,"▁Southern":4891,"▁Ver":4892,"▁Stephen":4893,"▁distinct":4894,"▁multiple":4895,"▁Georg":4896,"▁Sat":4897,"ding":4898,"▁transferred":4899,"▁potential":4900,"▁Committee":4901,"▁foreign":4902,"▁47":4903,"▁Latin":4904,"▁contrast":4905,"▁Oxford":4906,"▁65":4907,"▁peaked":4908,"inet":4909,"itiz":4910,"▁enemy":4911,"▁your":4912,"arian":4913,"▁Sil":4914,"▁traffic":4915,"▁becomes":4916,"▁mess":4917,"▁Spec":4918,"ping":4919,"▁D.":4920,"▁owned":4921,"▁things":4922,"▁founded":4923,"▁greater":4924,"▁Joseph":4925,"▁Like":4926,"▁vocal":4927,"▁Admiral":4928,"▁opt":4929,"▁concluded":4930,"▁portion":4931,"very":4932,"▁castle":4933,"▁scoring":4934,"▁Camb":4935,"ider":4936,"▁respond":4937,"ym":4938,"▁stories":4939,"▁property":4940,"iance":4941,"▁attempts":4942,"▁encoun":4943,"▁Boston":4944,"rong":4945,"anes":4946,"▁relatively":4947,"kn":4948,"▁Tw":4949,"▁Chief":4950,"▁Manchester":4951,"▁primarily":4952,"▁demonst":4953,"▁Harrison":4954,"▁Jeff":4955,"▁financial":4956,"▁federal":4957,"ograp":4958,"▁Class":4959,"ressive":4960,"ellig":4961,"▁Form":4962,"▁Captain":4963,"▁Because":4964,"▁Before":4965,"▁actually":4966,"▁animals":4967,"▁Swed":4968,"▁observed":4969,"▁Hurricane":4970,"▁tourn":4971,"▁lif":4972,"▁Win":4973,"▁collection":4974,"▁Tim":4975,"▁opportun":4976,"fect":4977,"▁Vietn":4978,"▁Bat":4979,"▁titled":4980,"▁52":4981,"▁Den":4982,"▁featuring":4983,"istics":4984,"▁writers":4985,"▁46":4986,"▁write":4987,"▁1944":4988,"▁Def":4989,"▁journal":4990,"eds":4991,"▁wa":4992,"▁Bridge":4993,"ees":4994,"▁Fred":4995,"▁strength":4996,"▁wor":4997,"umber":4998,"▁inch":4999,"▁mechan":5000,"▁weaken":5001,"▁situation":5002,"▁Ott":5003,"▁spot":5004,"▁paid":5005,"▁distance":5006,"▁premi":5007,"▁parents":5008,"▁Commission":5009,"▁independent":5010,"▁Battalion":5011,"▁figure":5012,"▁share":5013,"mas":5014,"rel":5015,"▁mel":5016,"▁actor":5017,"▁64":5018,"▁acting":5019,"▁companies":5020,"▁divided":5021,"▁Little":5022,"▁Paris":5023,"▁mind":5024,"▁43":5025,"stein":5026,"▁onto":5027,"▁Produ":5028,"astic":5029,"▁Luc":5030,"▁collabor":5031,"▁Life":5032,"▁Columb":5033,"▁Carl":5034,"▁target":5035,"anna":5036,"▁slightly":5037,"▁function":5038,"▁piece":5039,"▁Series":5040,"▁reform":5041,"▁Mod":5042,"▁selling":5043,"▁44":5044,"perial":5045,"▁Entertain":5046,"aud":5047,"ricket":5048,"▁powerful":5049,"▁Gra":5050,"▁torped":5051,"▁concent":5052,"chest":5053,"▁innings":5054,"▁rating":5055,"▁Max":5056,"thlet":5057,"oration":5058,"▁BBC":5059,"▁plays":5060,"istry":5061,"▁rough":5062,"▁lot":5063,"▁today":5064,"lam":5065,"▁broke":5066,"uge":5067,"▁cho":5068,"▁era":5069,"osaur":5070,"▁Pop":5071,"annel":5072,"▁1990":5073,"▁Croat":5074,"▁actions":5075,"▁waters":5076,"▁ultimately":5077,"▁Os":5078,"▁Histor":5079,"▁trial":5080,"▁square":5081,"▁maximum":5082,"rown":5083,"ada":5084,"▁dise":5085,"▁tend":5086,"itan":5087,"▁pilot":5088,"load":5089,"▁bound":5090,"▁log":5091,"illa":5092,"▁interp":5093,"rupt":5094,"▁completely":5095,"▁Academy":5096,"▁blue":5097,"under":5098,"▁sought":5099,"▁gar":5100,"oti":5101,"▁1945":5102,"▁S.":5103,"mond":5104,"▁'m":5105,"▁scale":5106,"mark":5107,"▁society":5108,"▁Line":5109,"▁ess":5110,"▁behav":5111,"▁hus":5112,"▁Museum":5113,"▁Saint":5114,"▁mainly":5115,"▁Sk":5116,"ota":5117,"alle":5118,"▁designated":5119,"▁1941":5120,"za":5121,"▁Hor":5122,"omy":5123,"▁conver":5124,"▁officials":5125,"▁Van":5126,"▁struck":5127,"▁transl":5128,"cers":5129,"▁150":5130,"ylvan":5131,"▁activity":5132,"▁policy":5133,"▁combined":5134,"▁say":5135,"▁Way":5136,"▁influenced":5137,"▁wear":5138,"olved":5139,"▁corn":5140,"iano":5141,"▁search":5142,"AS":5143,"▁Entertainment":5144,"▁Arab":5145,"▁vess":5146,"▁Italy":5147,"ented":5148,"▁thous":5149,"▁calling":5150,"racted":5151,"▁alongside":5152,"▁northeast":5153,"▁seconds":5154,"▁batter":5155,"ala":5156,"▁Brigade":5157,"▁sout":5158,"▁Wind":5159,"orses":5160,"while":5161,"▁Americans":5162,"▁winter":5163,"▁Conf":5164,"▁sources":5165,"▁Lee":5166,"▁seg":5167,"▁background":5168,"phy":5169,"▁Ire":5170,"▁webs":5171,"aine":5172,"▁ice":5173,"▁news":5174,"udd":5175,"▁thir":5176,"▁Tod":5177,"▁theory":5178,"rative":5179,"▁recent":5180,"▁Alb":5181,"▁suc":5182,"TV":5183,"▁mem":5184,"▁crow":5185,"▁gained":5186,"▁nominated":5187,"▁platform":5188,"HL":5189,"onn":5190,"▁artists":5191,"adel":5192,"▁Regiment":5193,"▁widely":5194,"▁naval":5195,"quarters":5196,"▁systems":5197,"▁promoted":5198,"▁electric":5199,"▁confirmed":5200,"ube":5201,"▁Ireland":5202,"pson":5203,"▁reaching":5204,"▁proved":5205,"▁results":5206,"▁Avenue":5207,"▁passing":5208,"ibrary":5209,"▁Fleet":5210,"▁albums":5211,"▁Good":5212,"▁Ell":5213,"▁explained":5214,"▁subsequent":5215,"▁conflict":5216,"▁greatest":5217,"ero":5218,"▁2nd":5219,"▁wick":5220,"▁content":5221,"▁invasion":5222,"▁ir":5223,"▁sn":5224,"▁Aut":5225,"▁Ray":5226,"▁1989":5227,"▁coming":5228,"▁charge":5229,"▁hero":5230,"▁peace":5231,"▁resist":5232,"▁sixth":5233,"hew":5234,"▁northwest":5235,"▁weather":5236,"oured":5237,"▁county":5238,"▁adj":5239,"▁Orig":5240,"▁shortly":5241,"grad":5242,"▁1943":5243,"town":5244,"aga":5245,"▁Bus":5246,"▁versions":5247,"▁Sub":5248,"▁path":5249,"aling":5250,"▁serve":5251,"▁causing":5252,"▁says":5253,"▁sust":5254,"▁Lo":5255,"▁51":5256,"▁expressed":5257,"iced":5258,"▁reception":5259,"▁seek":5260,"▁Victoria":5261,"▁Sant":5262,"▁burn":5263,"itness":5264,"▁Catholic":5265,"▁residents":5266,"▁emot":5267,"bon":5268,"▁border":5269,"▁Norm":5270,"▁Charl":5271,"▁Tropical":5272,"▁Work":5273,"▁chem":5274,"▁soundtrack":5275,"ansion":5276,"▁Valley":5277,"▁cities":5278,"▁Add":5279,"▁Mat":5280,"ips":5281,"▁green":5282,"▁seasons":5283,"▁M.":5284,"tation":5285,"▁Nin":5286,"ategory":5287,"▁appearances":5288,"▁sense":5289,"▁Di":5290,"▁Light":5291,"▁sexual":5292,"▁hospital":5293,"▁require":5294,"AA":5295,"▁Dr.":5296,"infall":5297,"▁Middle":5298,"▁pun":5299,"▁physical":5300,"▁identified":5301,"▁older":5302,"ighth":5303,"▁hands":5304,"▁Live":5305,"arden":5306,"▁iron":5307,"▁Ram":5308,"▁Dun":5309,"▁Though":5310,"▁true":5311,"▁tells":5312,"▁offer":5313,"▁Liber":5314,"▁dedic":5315,"▁'re":5316,"▁kg":5317,"▁Ry":5318,"unction":5319,"▁Commun":5320,"ysis":5321,"▁artillery":5322,"ancy":5323,"▁Show":5324,"▁represented":5325,"▁Top":5326,"▁weapons":5327,"▁Vol":5328,"▁extra":5329,"▁gas":5330,"▁Football":5331,"▁ahead":5332,"▁Through":5333,"eption":5334,"▁pal":5335,"aded":5336,"▁Men":5337,"ronic":5338,"ylvania":5339,"▁eas":5340,"▁Kar":5341,"▁Jul":5342,"▁heavily":5343,"▁Bey":5344,"▁Upon":5345,"▁Young":5346,"▁supp":5347,"▁Direct":5348,"abeth":5349,"▁1980s":5350,"itable":5351,"▁Tay":5352,"▁1940":5353,"▁avoid":5354,"▁Dutch":5355,"lers":5356,"▁defense":5357,"▁challen":5358,"▁student":5359,"▁agg":5360,"▁Week":5361,"▁alone":5362,"▁image":5363,"▁spread":5364,"▁apparent":5365,"▁studies":5366,"▁officially":5367,"▁Eliz":5368,"▁husband":5369,"known":5370,"▁district":5371,"▁Ill":5372,"▁executive":5373,"▁bit":5374,"▁instit":5375,"▁Albert":5376,"▁Fre":5377,"bur":5378,"essions":5379,"▁debuted":5380,"▁wild":5381,"▁prominent":5382,"▁capture":5383,"▁pack":5384,"▁send":5385,"▁consisted":5386,"▁instrument":5387,"▁injury":5388,"▁fired":5389,"▁organization":5390,"▁equipment":5391,"▁Rog":5392,"ports":5393,"▁resc":5394,"▁stone":5395,"pool":5396,"▁pattern":5397,"▁Far":5398,"▁prepar":5399,"▁Bre":5400,"▁argued":5401,"▁Dam":5402,"▁aired":5403,"▁figures":5404,"▁Bond":5405,"▁surpris":5406,"▁exped":5407,"urban":5408,"▁growth":5409,"▁eth":5410,"▁pict":5411,"acity":5412,"▁Civil":5413,"▁Homer":5414,"▁bud":5415,"▁hun":5416,"▁couple":5417,"▁graph":5418,"▁doing":5419,"▁returning":5420,"▁magn":5421,"▁ring":5422,"▁contemporary":5423,"ushed":5424,"▁poet":5425,"▁cert":5426,"lines":5427,"rog":5428,"▁pan":5429,"▁weight":5430,"▁1970s":5431,"▁ox":5432,"▁laid":5433,"▁doub":5434,"▁habit":5435,"▁earth":5436,"▁leaders":5437,"▁step":5438,"▁floor":5439,"▁matter":5440,"▁affected":5441,"▁Northern":5442,"▁Gal":5443,"▁pieces":5444,"▁tun":5445,"▁600":5446,"appen":5447,"amber":5448,"▁propos":5449,"▁Storm":5450,"ias":5451,"▁maintained":5452,"▁1960s":5453,"inson":5454,"▁rang":5455,"▁occasion":5456,"▁shell":5457,"▁Hard":5458,"▁here":5459,"ifying":5460,"▁visited":5461,"▁Ha":5462,"▁maintain":5463,"ental":5464,"▁communic":5465,"▁Daniel":5466,"▁comes":5467,"▁speech":5468,"▁termin":5469,"▁criticized":5470,"emic":5471,"▁hyd":5472,"▁activities":5473,"stone":5474,"▁rain":5475,"rat":5476,"▁Jon":5477,"▁Carolina":5478,"ockey":5479,"▁exec":5480,"▁attract":5481,"acement":5482,"▁hall":5483,"ola":5484,"▁citiz":5485,"▁tournament":5486,"▁reign":5487,"▁emph":5488,"▁toward":5489,"ocked":5490,"▁singles":5491,"uls":5492,"▁drug":5493,"▁trees":5494,"eed":5495,"▁reference":5496,"ners":5497,"▁Scottish":5498,"▁crowd":5499,"▁Tem":5500,"▁senior":5501,"▁formation":5502,"elve":5503,"▁53":5504,"▁adapt":5505,"▁1987":5506,"▁surre":5507,"▁Rom":5508,"▁Marsh":5509,"▁setting":5510,"▁medical":5511,"ivity":5512,"▁worldwide":5513,"▁System":5514,"▁territory":5515,"▁trying":5516,"▁Government":5517,"estic":5518,"▁Holly":5519,"▁1988":5520,"uct":5521,"▁appl":5522,"▁stations":5523,"orne":5524,"ruit":5525,"▁dog":5526,"▁bul":5527,"▁negoti":5528,"▁birds":5529,"▁Writ":5530,"▁Fantasy":5531,"▁god":5532,"▁Ocean":5533,"gian":5534,"▁Operation":5535,"eller":5536,"▁doll":5537,"▁Background":5538,"▁Field":5539,"▁machine":5540,"▁fellow":5541,"▁Governor":5542,"▁murder":5543,"embly":5544,"▁Rod":5545,"▁claims":5546,"▁District":5547,"▁Home":5548,"▁cell":5549,"▁displ":5550,"▁85":5551,"▁Dev":5552,"▁historian":5553,"▁Guard":5554,"▁rainfall":5555,"▁risk":5556,"▁Che":5557,"omers":5558,"▁accident":5559,"▁Penns":5560,"▁fully":5561,"▁Colon":5562,"▁load":5563,"uled":5564,"▁value":5565,"▁therefore":5566,"ote":5567,"▁split":5568,"bit":5569,"resh":5570,"▁Duke":5571,"▁chosen":5572,"▁treatment":5573,"▁university":5574,"▁guest":5575,"▁Short":5576,"velopment":5577,"rael":5578,"▁sens":5579,"▁twice":5580,"▁Studios":5581,"▁frequently":5582,"▁Girl":5583,"▁supply":5584,"agn":5585,"▁Polish":5586,"▁Lew":5587,"▁reports":5588,"ordin":5589,"stitution":5590,"▁leaves":5591,"▁Beat":5592,"▁governor":5593,"illy":5594,"ayer":5595,"▁paper":5596,"gu":5597,"▁ut":5598,"▁Senate":5599,"▁remark":5600,"aly":5601,"▁H.":5602,"▁dyn":5603,"ampion":5604,"▁Eastern":5605,"ledge":5606,"▁label":5607,"izes":5608,"▁faced":5609,"▁MD":5610,"azz":5611,"▁opin":5612,"▁walls":5613,"▁follows":5614,"▁Corn":5615,"▁billion":5616,"▁operated":5617,"▁Bart":5618,"▁grew":5619,"antine":5620,"▁Ros":5621,"ufact":5622,"▁surrounding":5623,"▁planet":5624,"▁Mean":5625,"▁swe":5626,"rect":5627,"▁Andrew":5628,"orter":5629,"antly":5630,"▁contained":5631,"onents":5632,"gend":5633,"▁condition":5634,"resp":5635,"▁degree":5636,"▁bal":5637,"▁herself":5638,"▁horses":5639,"min":5640,"▁manufact":5641,"▁Christmas":5642,"▁Night":5643,"ety":5644,"▁color":5645,"isco":5646,"▁Jud":5647,"▁sle":5648,"▁accompan":5649,"▁wounded":5650,"rance":5651,"▁typically":5652,"▁escape":5653,"▁Allied":5654,"▁54":5655,"▁passes":5656,"▁unf":5657,"▁master":5658,"▁simply":5659,"▁Wilson":5660,"▁brown":5661,"▁fuel":5662,"isters":5663,"▁reinf":5664,"utation":5665,"▁railway":5666,"▁Inst":5667,"▁element":5668,"▁draft":5669,"▁dang":5670,"▁Taylor":5671,"aming":5672,"▁editor":5673,"▁lives":5674,"la":5675,"▁1986":5676,"▁orders":5677,"▁arms":5678,"▁Elizabeth":5679,"▁phil":5680,"fully":5681,"mit":5682,"more":5683,"▁serving":5684,"▁nothing":5685,"ographer":5686,"▁camer":5687,"▁Hum":5688,"▁Alexander":5689,"uous":5690,"▁authority":5691,"▁chose":5692,"▁Mike":5693,"▁opposed":5694,"▁workers":5695,"▁vote":5696,"▁moment":5697,"▁Gi":5698,"▁consecutive":5699,"▁cannot":5700,"ricult":5701,"▁Pen":5702,"▁Each":5703,"▁newly":5704,"▁95":5705,"▁Joe":5706,"tar":5707,"▁Of":5708,"▁native":5709,"▁Jac":5710,"▁56":5711,"▁fan":5712,"▁experiment":5713,"ucky":5714,"▁unknown":5715,"▁97":5716,"isf":5717,"▁participated":5718,"ager":5719,"rich":5720,"▁growing":5721,"▁Pers":5722,"▁website":5723,"▁casual":5724,"▁emphas":5725,"▁psych":5726,"▁attrib":5727,"ancing":5728,"▁Det":5729,"▁producers":5730,"▁bass":5731,"ef":5732,"▁newspaper":5733,"▁fair":5734,"▁Castle":5735,"▁benef":5736,"▁losing":5737,"▁Exp":5738,"▁Festival":5739,"▁Land":5740,"▁advanced":5741,"▁adopted":5742,"ilies":5743,"▁filming":5744,"imens":5745,"▁Sound":5746,"▁heard":5747,"▁spirit":5748,"▁feed":5749,"▁severe":5750,"▁Pennsylvania":5751,"pton":5752,"▁offensive":5753,"▁firm":5754,"▁opposition":5755,"then":5756,"▁fiction":5757,"ype":5758,"▁Ret":5759,"▁extend":5760,"▁What":5761,"▁guard":5762,"▁Wat":5763,"▁capacity":5764,"▁rom":5765,"▁Head":5766,"orship":5767,"▁Islands":5768,"▁basis":5769,"▁council":5770,"▁sequence":5771,"▁actors":5772,"▁Card":5773,"▁WW":5774,"zy":5775,"▁ends":5776,"▁177":5777,"▁ast":5778,"▁Reception":5779,"▁Hy":5780,"TC":5781,"anda":5782,"▁weak":5783,"▁squadron":5784,"uses":5785,"▁Gall":5786,"▁Blue":5787,"▁prin":5788,"▁compar":5789,"▁advant":5790,"▁rear":5791,"▁abandoned":5792,"ura":5793,"aven":5794,"▁Irish":5795,"▁Further":5796,"▁rival":5797,"isers":5798,"▁Tech":5799,"▁SS":5800,"ables":5801,"iated":5802,"▁prompt":5803,"▁Bab":5804,"▁kick":5805,"▁honor":5806,"▁flying":5807,"lement":5808,"▁elev":5809,"▁enter":5810,"▁coal":5811,"▁Mr.":5812,"▁bey":5813,"▁creating":5814,"ocated":5815,"▁Fam":5816,"▁Jersey":5817,"onc":5818,"▁Spain":5819,"▁launch":5820,"▁filmed":5821,"▁Harry":5822,"▁poll":5823,"BA":5824,"▁regarded":5825,"▁happen":5826,"▁normal":5827,"▁expansion":5828,"▁P.":5829,"▁criticism":5830,"▁individuals":5831,"▁homes":5832,"▁1990s":5833,"▁Cat":5834,"▁agreement":5835,"▁beyond":5836,"eld":5837,"ounger":5838,"▁Us":5839,"▁incident":5840,"▁178":5841,"▁spect":5842,"▁76":5843,"FA":5844,"▁spring":5845,"▁Square":5846,"▁delay":5847,"▁failure":5848,"apers":5849,"▁Ca":5850,"▁liber":5851,"▁Coast":5852,"▁evac":5853,"▁deploy":5854,"▁eye":5855,"▁dismiss":5856,"▁chair":5857,"▁sports":5858,"▁Lind":5859,"▁famous":5860,"iner":5861,"▁inte":5862,"▁vo":5863,"▁sail":5864,"▁Fe":5865,"▁measure":5866,"▁1939":5867,"▁Are":5868,"▁Sand":5869,"▁possibly":5870,"▁boat":5871,"imet":5872,"▁historical":5873,"▁negative":5874,"▁R.":5875,"▁bodies":5876,"▁CD":5877,"ima":5878,"▁'ve":5879,"▁Ul":5880,"▁achieved":5881,"▁mob":5882,"▁contact":5883,"▁Bul":5884,"▁Wild":5885,"▁progress":5886,"▁strike":5887,"▁silver":5888,"ifications":5889,"▁believe":5890,"ico":5891,"▁Mul":5892,"▁Public":5893,"▁End":5894,"▁Elect":5895,"▁roles":5896,"▁Broad":5897,"▁ur":5898,"iny":5899,"▁Production":5900,"▁narrow":5901,"▁Cy":5902,"▁killing":5903,"▁Ven":5904,"▁retired":5905,"▁ideas":5906,"▁Institute":5907,"▁Ly":5908,"▁Israel":5909,"ienced":5910,"▁drive":5911,"onent":5912,"▁disease":5913,"mosp":5914,"iana":5915,"hol":5916,"▁pet":5917,"▁torpedo":5918,"war":5919,"▁imag":5920,"▁briefly":5921,"kins":5922,"▁61":5923,"▁diam":5924,"▁Arthur":5925,"▁Liver":5926,"▁Revolution":5927,"imal":5928,"▁Due":5929,"▁1968":5930,"▁1985":5931,"▁task":5932,"▁effective":5933,"▁tree":5934,"▁armed":5935,"▁applic":5936,"▁arrang":5937,"edom":5938,"▁tower":5939,"▁Ash":5940,"▁66":5941,"▁Cub":5942,"▁budget":5943,"▁perman":5944,"▁receive":5945,"▁repeated":5946,"▁administration":5947,"▁granted":5948,"▁necessary":5949,"▁personnel":5950,"▁roads":5951,"▁Sund":5952,"ocks":5953,"▁rejected":5954,"▁Meanwhile":5955,"enger":5956,"▁table":5957,"▁Person":5958,"▁Republican":5959,"▁twelve":5960,"▁Clark":5961,"▁kilometres":5962,"▁inh":5963,"▁Doctor":5964,"▁gross":5965,"▁improved":5966,"▁leadership":5967,"kes":5968,"▁Album":5969,"▁column":5970,"worth":5971,"▁interchange":5972,"▁yellow":5973,"avalry":5974,"▁extensive":5975,"aved":5976,"▁data":5977,"▁1970":5978,"▁Mir":5979,"▁Ohio":5980,"▁Ty":5981,"iments":5982,"ourney":5983,"▁straight":5984,"▁turns":5985,"▁lands":5986,"▁plants":5987,"▁infantry":5988,"▁purpose":5989,"zil":5990,"▁paralle":5991,"▁Les":5992,"▁management":5993,"▁Bell":5994,"▁express":5995,"▁defin":5996,"▁Board":5997,"ić":5998,"▁seat":5999,"▁landing":6000,"och":6001,"oln":6002,"▁describes":6003,"▁expanded":6004,"▁Secretary":6005,"▁solo":6006,"▁franch":6007,"oma":6008,"▁choice":6009,"▁successfully":6010,"lusion":6011,"▁mile":6012,"▁broken":6013,"adelph":6014,"▁learn":6015,"set":6016,"▁tru":6017,"▁crossing":6018,"▁didn":6019,"▁intellig":6020,"▁animal":6021,"uate":6022,"▁1984":6023,"▁deliver":6024,"▁Sa":6025,"▁Ep":6026,"▁explos":6027,"▁Philadelph":6028,"▁fought":6029,"gers":6030,"▁chor":6031,"▁excl":6032,"▁Prot":6033,"▁Bru":6034,"▁RA":6035,"▁organized":6036,"▁caught":6037,"▁E.":6038,"▁800":6039,"erc":6040,"▁vehicles":6041,"▁commissioned":6042,"▁suggests":6043,"▁Burn":6044,"▁roof":6045,"▁glob":6046,"▁Even":6047,"▁acquired":6048,"haps":6049,"stream":6050,"etball":6051,"▁places":6052,"▁committee":6053,"▁Never":6054,"rif":6055,"▁ancient":6056,"▁drama":6057,"ev":6058,"▁IS":6059,"▁Hit":6060,"▁Georgia":6061,"▁creation":6062,"▁Sher":6063,"▁Mov":6064,"▁Cambridge":6065,"▁types":6066,"▁fat":6067,"appy":6068,"▁57":6069,"▁gives":6070,"▁Lar":6071,"▁Philadelphia":6072,"▁article":6073,"▁comedy":6074,"▁seventh":6075,"▁prefer":6076,"▁nuclear":6077,"akers":6078,"▁soft":6079,"zer":6080,"▁unsu":6081,"▁wave":6082,"ii":6083,"ms":6084,"▁120":6085,"aith":6086,"etts":6087,"▁SR":6088,"▁W.":6089,"▁authorities":6090,"▁contain":6091,"▁headquarters":6092,"▁Rel":6093,"▁Also":6094,"▁1967":6095,"▁centuries":6096,"▁commonly":6097,"▁determined":6098,"rin":6099,"▁islands":6100,"▁genus":6101,"ns":6102,"▁roll":6103,"▁Addition":6104,"▁mentioned":6105,"attle":6106,"▁Russia":6107,"▁Mah":6108,"▁bott":6109,"▁recently":6110,"▁street":6111,"▁trav":6112,"oted":6113,"umes":6114,"▁Wars":6115,"▁beaut":6116,"▁encoura":6117,"▁looking":6118,"▁Gil":6119,"▁controlled":6120,"amin":6121,"▁favour":6122,"ipl":6123,"restling":6124,"uan":6125,"▁Common":6126,"▁1980":6127,"arts":6128,"oles":6129,"▁Arg":6130,"▁sets":6131,"▁families":6132,"▁Among":6133,"▁household":6134,"▁security":6135,"▁Liverpool":6136,"▁aim":6137,"▁finds":6138,"▁62":6139,"▁advert":6140,"▁sand":6141,"▁decre":6142,"▁Nintend":6143,"▁drop":6144,"▁suppor":6145,"▁acad":6146,"▁standing":6147,"va":6148,"▁la":6149,"▁illust":6150,"ishes":6151,"▁Linc":6152,"▁unp":6153,"uting":6154,"▁Nintendo":6155,"outs":6156,"gn":6157,"▁Chap":6158,"▁singing":6159,"▁withdraw":6160,"▁Ka":6161,"▁Earl":6162,"▁fish":6163,"▁Hay":6164,"▁dial":6165,"▁ven":6166,"▁battalion":6167,"▁reflect":6168,"▁Jenn":6169,"▁Prime":6170,"▁Columbia":6171,"▁sac":6172,"▁Bad":6173,"▁unique":6174,"itled":6175,"▁deck":6176,"▁height":6177,"▁containing":6178,"▁cultural":6179,"▁entirely":6180,"▁orchest":6181,"▁protect":6182,"water":6183,"▁finish":6184,"▁Lincoln":6185,"oh":6186,"▁touchdown":6187,"▁mist":6188,"▁Singap":6189,"illing":6190,"▁contributed":6191,"▁Asia":6192,"▁try":6193,"▁themes":6194,"▁Development":6195,"▁Korean":6196,"▁younger":6197,"▁provides":6198,"▁defence":6199,"▁flooding":6200,"▁Lieutenant":6201,"▁Brazil":6202,"▁1983":6203,"pping":6204,"▁atmosp":6205,"▁58":6206,"▁Child":6207,"▁74":6208,"▁awards":6209,"room":6210,"▁titles":6211,"▁mis":6212,"ulate":6213,"▁purchased":6214,".com":6215,"▁Jewish":6216,"▁powers":6217,"inity":6218,"▁arrival":6219,"▁Hun":6220,"▁convers":6221,"▁scheduled":6222,"▁defensive":6223,"▁Francisco":6224,"respond":6225,"▁resemb":6226,"▁Rol":6227,"▁Singapore":6228,"▁thing":6229,"▁accompanied":6230,"wall":6231,"▁ceremony":6232,"icial":6233,"▁unus":6234,"▁quite":6235,"▁perfect":6236,"▁1964":6237,"▁expedition":6238,"▁People":6239,"▁worth":6240,"▁Six":6241,"wick":6242,"▁1969":6243,"atures":6244,"▁locations":6245,"▁existing":6246,"▁Dark":6247,"▁Hon":6248,"▁interact":6249,"▁advantage":6250,"▁performing":6251,"▁Pot":6252,"▁Carey":6253,"▁philos":6254,"▁Office":6255,"rons":6256,"▁dedicated":6257,"▁computer":6258,"▁Lis":6259,"▁72":6260,"▁bat":6261,"acted":6262,"ker":6263,"▁Bor":6264,"▁Disney":6265,"▁extrem":6266,"▁request":6267,"C.":6268,"laim":6269,"▁intensity":6270,"Station":6271,"▁Tam":6272,"▁Key":6273,"▁store":6274,"▁occupied":6275,"▁1914":6276,"dy":6277,"agan":6278,"▁why":6279,"▁squad":6280,"▁1918":6281,"▁PlayStation":6282,"▁fresh":6283,"▁HMS":6284,"▁carry":6285,"▁mounted":6286,"iling":6287,"▁Order":6288,"usc":6289,"▁Kel":6290,"ashion":6291,"▁nob":6292,"▁1982":6293,"▁Turn":6294,"ta":6295,"▁fix":6296,"▁tail":6297,"▁1971":6298,"▁mouth":6299,"▁Anderson":6300,"▁Brook":6301,"▁Balt":6302,"▁cricket":6303,"▁mic":6304,"fort":6305,"▁Mot":6306,"▁Steve":6307,"▁closely":6308,"rations":6309,"▁consists":6310,"▁currently":6311,"▁Lewis":6312,"mann":6313,"▁Miller":6314,"▁lic":6315,"▁session":6316,"▁1966":6317,"hens":6318,"▁Byz":6319,"▁1972":6320,"▁Radio":6321,"▁Die":6322,"▁Conference":6323,"yles":6324,"▁tim":6325,"▁1979":6326,"▁industrial":6327,"mouth":6328,"▁egg":6329,"▁Bas":6330,"▁simple":6331,"ava":6332,"▁59":6333,"▁elimin":6334,"pper":6335,"▁vari":6336,"▁piano":6337,"▁Once":6338,"▁facilities":6339,"▁cold":6340,"ilton":6341,"▁supporting":6342,"▁drawn":6343,"▁Grant":6344,"▁Olympic":6345,"▁ty":6346,"ware":6347,"▁trains":6348,"▁Conn":6349,"▁belong":6350,"▁Pu":6351,"▁Shak":6352,"▁protection":6353,"▁boats":6354,"▁Brian":6355,"▁rated":6356,"▁rise":6357,"▁defined":6358,"▁selection":6359,"▁steam":6360,"▁harm":6361,"▁row":6362,"otic":6363,"▁1965":6364,"▁regions":6365,"iro":6366,"▁Su":6367,"awa":6368,"▁Barb":6369,"▁submar":6370,"▁Railway":6371,"▁protected":6372,"▁calls":6373,"▁pros":6374,"▁hair":6375,"▁NHL":6376,"▁#":6377,"▁comic":6378,"▁Emperor":6379,"▁motion":6380,"gest":6381,"verse":6382,"▁structures":6383,"▁throw":6384,"▁lap":6385,"▁aid":6386,"▁shark":6387,"▁Att":6388,"▁labor":6389,"▁Mu":6390,"▁focused":6391,"▁opportunity":6392,"▁99":6393,"▁1975":6394,"▁engaged":6395,"▁receiving":6396,"ingly":6397,"iration":6398,"▁correspond":6399,"▁shooting":6400,"▁analysis":6401,"▁sport":6402,"▁citizens":6403,"▁motor":6404,"ba":6405,"▁observ":6406,"▁strengthen":6407,"▁Gulf":6408,"osa":6409,"▁notable":6410,"▁3rd":6411,"sey":6412,"▁adap":6413,"▁Av":6414,"▁Summer":6415,"uzz":6416,"▁Press":6417,"▁Water":6418,"▁experienced":6419,"▁Germans":6420,"▁Hollywood":6421,"ults":6422,"▁Serb":6423,"ua":6424,"▁conference":6425,"▁providing":6426,"▁holding":6427,"▁Walter":6428,"▁Inc":6429,"inger":6430,"▁visual":6431,"▁mountain":6432,"▁eyes":6433,"▁Han":6434,"▁Only":6435,"▁1974":6436,"▁resident":6437,"olid":6438,"▁18th":6439,"▁Davis":6440,"ading":6441,"▁southeast":6442,"▁mut":6443,"▁Lab":6444,"▁hired":6445,"▁charts":6446,"unior":6447,"▁viewed":6448,"FL":6449,"▁merch":6450,"▁branch":6451,"heim":6452,"ifically":6453,"inth":6454,"▁rapidly":6455,"burgh":6456,"▁rob":6457,"▁recognized":6458,"iler":6459,"▁1973":6460,"▁Gib":6461,"▁volume":6462,"▁vac":6463,"opher":6464,"▁transform":6465,"▁alle":6466,"▁Democratic":6467,"▁Review":6468,"▁prote":6469,"▁scholars":6470,"▁63":6471,"▁sites":6472,"essed":6473,"▁gain":6474,"▁77":6475,"▁Special":6476,"▁L.":6477,"▁casualties":6478,"▁teach":6479,"▁hyp":6480,"▁shared":6481,"▁concer":6482,"▁parallel":6483,"▁UN":6484,"▁73":6485,"▁Jean":6486,"▁Between":6487,"▁publication":6488,"▁Down":6489,"▁cart":6490,"▁temperature":6491,"▁digital":6492,"▁Fall":6493,"▁1976":6494,"▁moder":6495,"▁economy":6496,"▁Rome":6497,"▁Bank":6498,"▁Kir":6499,"▁developing":6500,"▁steel":6501,"▁reaction":6502,"▁edge":6503,"box":6504,"friend":6505,"standing":6506,"▁cool":6507,"roll":6508,"▁Princ":6509,"▁intersection":6510,"▁symbol":6511,"ali":6512,"zen":6513,"▁Lady":6514,"yer":6515,"▁approved":6516,"oncé":6517,"▁secondary":6518,"▁chance":6519,"▁Nap":6520,"▁Prov":6521,"▁Gord":6522,"▁Ob":6523,"▁von":6524,"▁hydro":6525,"omew":6526,"▁losses":6527,"▁myth":6528,"▁contest":6529,"rant":6530,"▁rac":6531,"rence":6532,"▁prepared":6533,"▁substant":6534,"▁Mas":6535,"▁belief":6536,"itors":6537,"▁Daily":6538,"▁Ten":6539,"▁enl":6540,"▁Musl":6541,"iful":6542,"▁letters":6543,"án":6544,"ologist":6545,"s.":6546,"ographic":6547,"▁Women":6548,"▁significantly":6549,"▁witness":6550,"▁bands":6551,"▁sort":6552,"onder":6553,"▁card":6554,"▁save":6555,"▁Naz":6556,"▁domestic":6557,"▁Syd":6558,"▁250":6559,"▁franchise":6560,"▁knew":6561,"ryst":6562,"▁goes":6563,"▁literature":6564,"▁Beyoncé":6565,"eral":6566,"▁unsuccess":6567,"▁instruct":6568,"▁heads":6569,"achus":6570,"▁southwest":6571,"▁actress":6572,"▁technology":6573,"▁semi":6574,"▁67":6575,"▁advent":6576,"break":6577,"▁descend":6578,"▁roughly":6579,"ora":6580,"range":6581,"▁urban":6582,"▁cab":6583,"asty":6584,"▁Command":6585,"▁Bern":6586,"aka":6587,"unte":6588,"▁Plan":6589,"theless":6590,"▁painting":6591,"▁adult":6592,"▁lb":6593,"▁Main":6594,"▁anything":6595,"▁cars":6596,"▁pitch":6597,"enc":6598,"▁projects":6599,"▁assault":6600,"▁Indust":6601,"▁Colonel":6602,"▁exact":6603,"ella":6604,"▁brothers":6605,"ients":6606,"▁resistance":6607,"▁gameplay":6608,"▁Point":6609,"▁core":6610,"▁Nick":6611,"▁shape":6612,"▁storyline":6613,"▁Whit":6614,"▁Supreme":6615,"▁reasons":6616,"▁Fair":6617,"▁rules":6618,"iminal":6619,"▁ign":6620,"▁employed":6621,"▁tank":6622,"▁IV":6623,"ropri":6624,"▁Var":6625,"▁Kentucky":6626,"▁daily":6627,"▁Station":6628,"▁shall":6629,"▁injured":6630,"▁1946":6631,"▁Spring":6632,"▁watched":6633,"▁1981":6634,"ati":6635,"▁agent":6636,"onym":6637,"▁popularity":6638,"▁composition":6639,"▁−":6640,"▁96":6641,"ira":6642,"▁Cur":6643,"▁perhaps":6644,"▁fit":6645,"▁isol":6646,"▁adding":6647,"▁enjoyed":6648,"▁renamed":6649,"▁opinion":6650,"▁1950s":6651,"▁Independ":6652,"▁getting":6653,"omic":6654,"▁declined":6655,"▁calc":6656,"▁Norway":6657,"oz":6658,"agement":6659,"▁Ross":6660,"▁compris":6661,"▁68":6662,"▁reputation":6663,"▁82":6664,"▁lov":6665,"▁nor":6666,"osl":6667,"inking":6668,"▁Theat":6669,"▁Prem":6670,"▁shaped":6671,"▁estate":6672,"▁connected":6673,"▁undert":6674,"▁rend":6675,"▁retire":6676,"▁drew":6677,"▁1917":6678,"▁museum":6679,"▁poem":6680,"▁regarding":6681,"bound":6682,"▁Olympics":6683,"oir":6684,"▁Mos":6685,"▁stages":6686,"ulpt":6687,"▁Philipp":6688,"▁converted":6689,"▁views":6690,"▁dry":6691,"ceived":6692,"amm":6693,"▁Golden":6694,"▁Massachus":6695,"gal":6696,"han":6697,"▁Walk":6698,"iform":6699,"▁Base":6700,"▁agricult":6701,"▁allows":6702,"▁sun":6703,"▁Sel":6704,"▁distingu":6705,"▁nick":6706,"ads":6707,"▁alternative":6708,"▁Massachusetts":6709,"▁Ball":6710,"vest":6711,"▁Abb":6712,"rets":6713,"▁bed":6714,"▁Imp":6715,"▁headed":6716,"igg":6717,"▁journey":6718,"▁87":6719,"▁Sus":6720,"▁Dream":6721,"athan":6722,"▁depth":6723,"ules":6724,"▁missing":6725,"▁cited":6726,"ato":6727,"▁increasingly":6728,"▁F.":6729,"eper":6730,"ko":6731,"▁Let":6732,"osis":6733,"▁stadium":6734,"▁Ron":6735,"▁approached":6736,"▁160":6737,"▁Airport":6738,"▁turning":6739,"▁Hart":6740,"▁responded":6741,"▁planning":6742,"▁knowledge":6743,"▁exerc":6744,"▁Vi":6745,"▁easily":6746,"▁wealth":6747,"▁1948":6748,"▁overl":6749,"▁cells":6750,"ilding":6751,"▁fashion":6752,"▁equal":6753,"▁escort":6754,"olt":6755,"▁700":6756,"▁flu":6757,"▁About":6758,"▁1960":6759,"▁collected":6760,"▁succeeded":6761,"psons":6762,"▁constitution":6763,"mod":6764,"eman":6765,"▁Ken":6766,"▁safety":6767,"▁Bal":6768,"▁rebu":6769,"▁existence":6770,"unicip":6771,"▁trip":6772,"▁pul":6773,"▁Run":6774,"wise":6775,"ignment":6776,"▁Simpsons":6777,"▁introduction":6778,"▁occas":6779,"▁auth":6780,"▁models":6781,"▁learned":6782,"▁Init":6783,"▁colle":6784,"▁sustained":6785,"rett":6786,"hi":6787,"▁tall":6788,"▁promotion":6789,"▁operating":6790,"▁69":6791,"▁1978":6792,"uration":6793,"mitted":6794,"▁McG":6795,"▁baseball":6796,"▁carrying":6797,"▁limit":6798,"▁Songs":6799,"▁exchange":6800,"▁showing":6801,"iger":6802,"▁youth":6803,"onia":6804,"▁Imperial":6805,"▁buried":6806,"engers":6807,"▁Vietnam":6808,"▁91":6809,"▁humans":6810,"eg":6811,"▁credited":6812,"▁78":6813,"come":6814,"▁depend":6815,"leton":6816,"▁arranged":6817,"▁Ottoman":6818,"▁Loc":6819,"▁improve":6820,"▁impl":6821,"▁seems":6822,"▁Jay":6823,"▁weakened":6824,"▁Cape":6825,"▁designs":6826,"▁1915":6827,"inary":6828,"▁van":6829,"▁joint":6830,"▁Shortly":6831,"▁paint":6832,"▁athlet":6833,"state":6834,"istan":6835,"▁rhy":6836,"▁producing":6837,"▁proceed":6838,"▁Poland":6839,"eler":6840,"acts":6841,"▁shel":6842,"▁Sydney":6843,"▁freeway":6844,"▁Moore":6845,"oli":6846,"▁1977":6847,"▁earliest":6848,"▁flat":6849,"▁Who":6850,"▁lasted":6851,"▁Maryland":6852,"▁landfall":6853,"▁settlement":6854,"put":6855,"▁Pict":6856,"▁note":6857,"▁Roy":6858,"▁description":6859,"▁retained":6860,"▁acres":6861,"▁ton":6862,"▁brand":6863,"▁Stew":6864,"▁94":6865,"▁1950":6866,"▁Rem":6867,"▁Naval":6868,"▁MTV":6869,"▁AD":6870,"▁laws":6871,"▁appoint":6872,"▁Cra":6873,"ivalent":6874,"▁genre":6875,"▁programs":6876,"▁consc":6877,"ources":6878,"▁assistant":6879,"rell":6880,"▁playoff":6881,"ivered":6882,"▁Jes":6883,"▁replace":6884,"ader":6885,"▁install":6886,"bell":6887,"▁reserve":6888,"issance":6889,"▁statement":6890,"▁virt":6891,"▁applied":6892,"▁catch":6893,"▁trust":6894,"▁1963":6895,"▁violence":6896,"▁neut":6897,"▁scientific":6898,"insula":6899,"▁81":6900,"▁Arts":6901,"▁entrance":6902,"▁coastal":6903,"othes":6904,"▁Pass":6905,"▁tick":6906,"iege":6907,"▁hits":6908,"tical":6909,"▁consequ":6910,"avig":6911,"▁98":6912,"▁exclus":6913,"▁synt":6914,"▁Greg":6915,"▁sculpt":6916,"▁patrol":6917,"▁battery":6918,"▁Fire":6919,"math":6920,"▁items":6921,"▁Ari":6922,"▁candidate":6923,"▁towns":6924,"lee":6925,"▁indicated":6926,"▁Bowl":6927,"▁uns":6928,"▁gradually":6929,"▁distribution":6930,"time":6931,"▁1916":6932,"▁Edu":6933,"▁politics":6934,"lan":6935,"▁Rid":6936,"▁delivered":6937,"oard":6938,"▁stopped":6939,"▁filled":6940,"▁ban":6941,"▁independence":6942,"▁tact":6943,"izations":6944,"eke":6945,"▁sections":6946,"▁details":6947,"pet":6948,"▁Jan":6949,"▁IG":6950,"▁Confeder":6951,"▁Mulder":6952,"eless":6953,"▁cinem":6954,"▁select":6955,"▁combination":6956,"▁71":6957,"▁emp":6958,"▁supplies":6959,"▁ways":6960,"▁glass":6961,"▁parties":6962,"ender":6963,"▁stream":6964,"▁engines":6965,"ushing":6966,"▁prisoners":6967,"▁camera":6968,"▁Gordon":6969,"▁appeal":6970,"▁Stadium":6971,"▁AC":6972,"▁Band":6973,"▁1919":6974,"▁register":6975,"▁Rhodes":6976,"▁campus":6977,"▁bask":6978,"emies":6979,"▁Well":6980,"▁1962":6981,"▁acts":6982,"▁mig":6983,"▁Bon":6984,"▁extremely":6985,"▁89":6986,"▁entitled":6987,"▁secure":6988,"reets":6989,"rec":6990,"ela":6991,"▁Ra":6992,"▁finding":6993,"AT":6994,"▁online":6995,"▁decade":6996,"inois":6997,"▁Univers":6998,"▁tal":6999,"▁Prof":7000,"poration":7001,"iques":7002,"▁Theatre":7003,"acter":7004,"▁winner":7005,"▁Staff":7006,"iversary":7007,"▁arc":7008,"ropol":7009,"▁evening":7010,"▁Cop":7011,"▁regiment":7012,"▁1938":7013,"▁Kim":7014,"▁investigation":7015,"▁88":7016,"▁threatened":7017,"▁bought":7018,"▁message":7019,"▁adapted":7020,"ja":7021,"▁somew":7022,"▁survived":7023,"▁knots":7024,"▁consum":7025,"▁studied":7026,"▁Bir":7027,"▁Anth":7028,"▁proposal":7029,"ador":7030,"▁writes":7031,"▁address":7032,"ashed":7033,"▁Vill":7034,"▁deaths":7035,"▁Justice":7036,"iat":7037,"▁routes":7038,"▁wars":7039,"▁download":7040,"▁ruled":7041,"▁fear":7042,"▁Nic":7043,"▁Instead":7044,"▁relief":7045,"▁religion":7046,"▁males":7047,"▁reduce":7048,"▁voted":7049,"BS":7050,"ighters":7051,"ieval":7052,"ano":7053,"▁revolution":7054,"▁specifically":7055,"▁spons":7056,"▁crown":7057,"▁phase":7058,"▁duty":7059,"met":7060,"▁fict":7061,"phoon":7062,"▁kingdom":7063,"▁Age":7064,"▁recalled":7065,"bourne":7066,"▁ec":7067,"▁portrayed":7068,"▁soul":7069,"▁implement":7070,"ctions":7071,"▁Circ":7072,"▁controversy":7073,"▁emerg":7074,"▁Here":7075,"▁Memorial":7076,"hat":7077,"▁et":7078,"▁causes":7079,"BN":7080,"▁Ast":7081,"ervative":7082,"▁ble":7083,"mun":7084,"▁1956":7085,"▁everything":7086,"▁breeding":7087,"apes":7088,"adow":7089,"chers":7090,"aug":7091,"▁sell":7092,"▁stret":7093,"▁references":7094,"▁175":7095,"ician":7096,"▁bottom":7097,"▁ago":7098,"▁capable":7099,"▁T.":7100,"▁Tony":7101,"▁convin":7102,"▁teacher":7103,"▁importance":7104,"▁Po":7105,"▁Coll":7106,"▁entry":7107,"▁meters":7108,"▁McK":7109,"▁offers":7110,"▁Singles":7111,"▁Id":7112,"▁Nel":7113,"▁Kong":7114,"▁tanks":7115,"▁Od":7116,"▁79":7117,"senal":7118,"▁Power":7119,"▁1930s":7120,"bro":7121,"▁Ur":7122,"▁sufficient":7123,"▁Director":7124,"entially":7125,"▁owner":7126,"▁internal":7127,"▁arrested":7128,"▁opera":7129,"ridges":7130,"▁Adams":7131,"▁admitted":7132,"▁nomination":7133,"arp":7134,"▁Ok":7135,"▁corner":7136,"▁bor":7137,"▁Jord":7138,"▁Moon":7139,"▁copy":7140,"▁Alan":7141,"▁1936":7142,"▁FA":7143,"▁crossed":7144,"▁climb":7145,"▁products":7146,"▁Dougl":7147,"wich":7148,"uro":7149,"▁Critical":7150,"bar":7151,"▁installed":7152,"▁equipped":7153,"▁Beach":7154,"▁Alf":7155,"▁IGN":7156,"▁preced":7157,"▁concerns":7158,"aki":7159,"▁mort":7160,"▁overse":7161,"▁autom":7162,"▁Hamilton":7163,"▁invited":7164,"▁Simon":7165,"▁Maria":7166,"▁Engine":7167,"▁convoy":7168,"▁ones":7169,"▁conqu":7170,"▁interested":7171,"▁fly":7172,"▁Adam":7173,"▁starts":7174,"▁crime":7175,"▁principal":7176,"▁Gram":7177,"hr":7178,"▁acid":7179,"▁130":7180,"ranean":7181,"▁tell":7182,"▁Your":7183,"▁recommended":7184,"▁alt":7185,"andy":7186,"▁Jane":7187,"▁unl":7188,"ructure":7189,"▁Plot":7190,"▁remainder":7191,"▁medal":7192,"▁shut":7193,"ansas":7194,"▁actual":7195,"ca":7196,"▁snow":7197,"▁retreat":7198,"▁UTC":7199,"▁92":7200,"▁stock":7201,"▁vent":7202,"▁upgrad":7203,"espread":7204,"▁1920":7205,"▁charged":7206,"▁VII":7207,"▁solid":7208,"▁apart":7209,"▁Bos":7210,"▁price":7211,"▁objects":7212,"▁Cart":7213,"▁funds":7214,"▁door":7215,"▁Track":7216,"▁1961":7217,"▁Forest":7218,"osaurus":7219,"ilation":7220,"▁composer":7221,"vis":7222,"▁84":7223,"▁females":7224,"▁Video":7225,"▁consisting":7226,"▁gall":7227,"aked":7228,"▁promote":7229,"▁Death":7230,"▁page":7231,"▁milit":7232,"iy":7233,"▁NBA":7234,"▁Indones":7235,"▁considerable":7236,"mb":7237,"▁Found":7238,"▁Prog":7239,"▁dates":7240,"▁poly":7241,"▁Int":7242,"iller":7243,"hus":7244,"▁Nether":7245,"▁Gen":7246,"▁1953":7247,"▁typical":7248,"▁grounds":7249,"▁Kennedy":7250,"erted":7251,"▁Gun":7252,"▁correct":7253,"▁Today":7254,"▁duties":7255,"▁extension":7256,"▁blow":7257,"cks":7258,"rete":7259,"▁evolution":7260,"▁93":7261,"▁someone":7262,"▁Transport":7263,"▁cong":7264,"▁rural":7265,"▁penal":7266,"▁'d":7267,"▁Military":7268,"▁Sunday":7269,"▁eighth":7270,"BI":7271,"vements":7272,"▁Indiana":7273,"▁spin":7274,"▁sole":7275,"▁Project":7276,"▁hotel":7277,"▁Howard":7278,"osite":7279,"▁decades":7280,"▁Norwe":7281,"king":7282,"▁images":7283,"▁Pit":7284,"▁driving":7285,"▁reading":7286,"▁identity":7287,"▁Scully":7288,"▁Hou":7289,"▁zone":7290,"▁Marc":7291,"add":7292,"▁occurs":7293,"▁1930":7294,"hetic":7295,"▁Leon":7296,"▁manner":7297,"▁Bry":7298,"▁subs":7299,"▁skin":7300,"▁challenge":7301,"▁Hitler":7302,"▁lane":7303,"▁remix":7304,"▁tow":7305,"▁Kat":7306,"▁aspects":7307,"▁permanent":7308,"▁aer":7309,"▁Tar":7310,"▁17th":7311,"▁brigade":7312,"▁Ta":7313,"▁frag":7314,"▁1947":7315,"▁volcan":7316,"▁dated":7317,"▁ham":7318,"▁1958":7319,"▁Cult":7320,"▁Five":7321,"▁Gill":7322,"▁vir":7323,"▁Portug":7324,"▁noting":7325,"▁restaur":7326,"ez":7327,"▁Brist":7328,"▁colour":7329,"after":7330,"ione":7331,"▁Drag":7332,"ubb":7333,"▁supporters":7334,"▁WWE":7335,"▁slowly":7336,"▁clean":7337,"▁Ba":7338,"▁posted":7339,"▁Pear":7340,"▁86":7341,"ensus":7342,"▁Turk":7343,"ivals":7344,"▁Rose":7345,"iley":7346,"▁1957":7347,"veland":7348,"cknow":7349,"▁Science":7350,"▁describing":7351,"▁Research":7352,"▁G.":7353,"▁involving":7354,"▁speak":7355,"▁vessels":7356,"▁entering":7357,"▁enemies":7358,"▁1937":7359,"▁Assembly":7360,"▁dress":7361,"▁equivalent":7362,"▁Mr":7363,"aware":7364,"▁Ryan":7365,"▁Hug":7366,"▁classes":7367,"▁bra":7368,"▁debate":7369,"▁settled":7370,"nic":7371,"▁din":7372,"▁Ak":7373,"▁department":7374,"▁obtained":7375,"▁Constitution":7376,"regon":7377,"▁accur":7378,"▁armor":7379,"▁parliament":7380,"▁Rolling":7381,"▁Disc":7382,"erto":7383,"▁Magazine":7384,"▁tele":7385,"▁Mountain":7386,"▁Argent":7387,"▁songwrit":7388,"▁basic":7389,"risis":7390,"▁purchase":7391,"agues":7392,"fl":7393,"▁pup":7394,"▁folk":7395,"▁nest":7396,"▁oldest":7397,"▁Cleveland":7398,"▁faith":7399,"▁Space":7400,"▁Pier":7401,"▁Lenn":7402,"▁concerned":7403,"▁departure":7404,"▁widespread":7405,"▁decline":7406,"▁formal":7407,"▁connection":7408,"▁Illinois":7409,"cation":7410,"ophy":7411,"▁income":7412,"▁attached":7413,"hered":7414,"▁recognition":7415,"▁Now":7416,"▁integ":7417,"▁Douglas":7418,"▁memorial":7419,"▁outer":7420,"▁Throughout":7421,"▁certified":7422,"heastern":7423,"▁deleg":7424,"▁accused":7425,"▁<":7426,"▁sequel":7427,"orney":7428,"▁Weekly":7429,"▁derived":7430,"▁decor":7431,"▁Sav":7432,"rates":7433,"▁mode":7434,"▁Ira":7435,"▁ha":7436,"▁Stand":7437,"▁Rele":7438,"aret":7439,"▁Andy":7440,"▁wearing":7441,"▁Jordan":7442,"icit":7443,"▁hip":7444,"▁assumed":7445,"▁disturb":7446,"▁swim":7447,"western":7448,"▁wed":7449,"▁Oregon":7450,"▁1959":7451,"▁acknow":7452,"▁4th":7453,"▁Stanley":7454,"▁torn":7455,"▁Freder":7456,"▁”":7457,"▁acclaim":7458,"▁110":7459,"ooth":7460,"▁survey":7461,"▁committed":7462,"iot":7463,"▁foss":7464,"▁Arsenal":7465,"▁Media":7466,"▁Feder":7467,"▁hosted":7468,"RA":7469,"▁Third":7470,"▁returns":7471,"▁valley":7472,"▁segment":7473,"▁Roger":7474,"▁sessions":7475,"ekend":7476,"▁Dal":7477,"▁populations":7478,"▁Philip":7479,"agonist":7480,"▁denied":7481,"▁fine":7482,"▁Mediter":7483,"▁Treat":7484,"▁Recording":7485,"▁temple":7486,"▁Family":7487,"▁hang":7488,"wan":7489,"▁champion":7490,"▁flo":7491,"▁Beatles":7492,"▁charges":7493,"▁Tenn":7494,"▁Low":7495,"▁literary":7496,"▁Bruce":7497,"▁Kevin":7498,"▁canc":7499,"▁regional":7500,"▁thousands":7501,"▁Norwegian":7502,"▁1954":7503,"▁terminus":7504,"▁transition":7505,"▁1955":7506,"▁Mediterranean":7507,"▁circum":7508,"iva":7509,"▁supposed":7510,"▁warm":7511,"▁wickets":7512,"▁Bristol":7513,"▁“":7514,"▁demand":7515,"▁Es":7516,"▁Az":7517,"▁Dig":7518,"▁ans":7519,"▁shots":7520,"hedral":7521,"▁ISBN":7522,"▁Rain":7523,"udden":7524,"▁strongly":7525,"heme":7526,"achel":7527,"▁circulation":7528,"▁Bush":7529,"▁intelligence":7530,"▁sailed":7531,"▁passengers":7532,"▁possibility":7533,"▁generation":7534,"IA":7535,"▁hope":7536,"▁fictional":7537,"emed":7538,"▁animated":7539,"▁thirty":7540,"▁freedom":7541,"▁downtown":7542,"▁Channel":7543,"organ":7544,"▁Ho":7545,"▁Federal":7546,"eing":7547,"ito":7548,"▁hill":7549,"▁rich":7550,"▁minister":7551,"▁behavior":7552,"▁cloud":7553,"▁Mexican":7554,"rage":7555,"▁×":7556,"CA":7557,"▁assistance":7558,"▁replacement":7559,"▁begun":7560,"▁Pur":7561,"▁fruit":7562,"ami":7563,"▁commanded":7564,"▁Web":7565,"▁destruction":7566,"atinum":7567,"▁moves":7568,"mes":7569,"▁Bol":7570,"▁criminal":7571,"char":7572,"▁missed":7573,"▁missions":7574,"▁Conc":7575,"▁exception":7576,"▁costs":7577,"▁Der":7578,"▁crash":7579,"orced":7580,"▁Row":7581,"upt":7582,"▁highlight":7583,"▁bringing":7584,"▁tied":7585,"▁Master":7586,"▁Cas":7587,"lig":7588,"▁Eric":7589,"▁commit":7590,"isms":7591,"▁Korea":7592,"▁Within":7593,"▁intention":7594,"▁feeling":7595,"▁Bah":7596,"onto":7597,"▁speaking":7598,"▁unusual":7599,"▁Lisa":7600,"oral":7601,"elsh":7602,"▁Additionally":7603,"▁Fame":7604,"▁intercept":7605,"▁finishing":7606,"▁alleged":7607,"lets":7608,"▁Nar":7609,"▁demol":7610,"▁properties":7611,"▁incorporated":7612,"▁opposite":7613,"▁stayed":7614,"▁Sab":7615,"▁attributed":7616,"▁shop":7617,"▁Phill":7618,"▁volunte":7619,"▁recovered":7620,"borne":7621,"▁sons":7622,"▁Color":7623,"▁breaking":7624,"▁emerged":7625,"▁83":7626,"▁serves":7627,"▁1952":7628,"▁atmosphere":7629,"▁Morgan":7630,"▁Morris":7631,"▁dipl":7632,"▁chorus":7633,"▁theatre":7634,"▁Norman":7635,"▁occasionally":7636,"rating":7637,"▁driven":7638,"othing":7639,"olec":7640,"▁Scient":7641,"aire":7642,"▁Ele":7643,"▁strateg":7644,"▁Robinson":7645,"▁Kr":7646,"enses":7647,"umin":7648,"▁Ever":7649,"riers":7650,"▁classic":7651,"▁spok":7652,"▁ready":7653,"▁Prior":7654,"▁effectively":7655,"▁regularly":7656,"aza":7657,"▁cavalry":7658,"▁establishment":7659,"▁Sky":7660,"▁prey":7661,"▁courts":7662,"▁Raj":7663,"▁methods":7664,"thm":7665,"▁vary":7666,"▁1933":7667,"▁sounds":7668,"oslav":7669,"▁Hawai":7670,"▁divers":7671,"ogen":7672,"▁Television":7673,"▁superv":7674,"▁Similar":7675,"▁176":7676,"pective":7677,"▁dream":7678,"▁Around":7679,"▁completion":7680,"don":7681,"▁shore":7682,"▁Unlike":7683,"▁materials":7684,"▁CE":7685,"▁Construction":7686,"▁Gh":7687,"uty":7688,"▁responsibility":7689,"▁dissip":7690,"▁warning":7691,"▁USA":7692,"▁accommod":7693,"wen":7694,"▁Cab":7695,"▁Finn":7696,"▁heat":7697,"▁attracted":7698,"▁fields":7699,"▁surviving":7700,"▁province":7701,"▁entertain":7702,"▁persu":7703,"▁Nelson":7704,"▁Iron":7705,"rim":7706,"▁global":7707,"nold":7708,"ece":7709,"▁Nich":7710,"▁Francis":7711,"▁mo":7712,"▁quant":7713,"▁classified":7714,"▁kid":7715,"sole":7716,"▁differences":7717,"▁Premier":7718,"▁DE":7719,"▁Lanc":7720,"icks":7721,"▁divisions":7722,"▁technical":7723,"vens":7724,"▁Sweden":7725,"▁interpret":7726,"▁brain":7727,"▁1935":7728,"ban":7729,"▁Ford":7730,"▁Techn":7731,"▁1910":7732,"▁cruiser":7733,"▁Patrick":7734,"▁Budd":7735,"ipe":7736,"▁passage":7737,"emeter":7738,"abled":7739,"▁Anton":7740,"▁aboard":7741,"▁none":7742,"▁Mit":7743,"inton":7744,"▁sam":7745,"oyd":7746,"▁PA":7747,"▁Temple":7748,"weight":7749,"▁clubs":7750,"▁stood":7751,"▁association":7752,"▁ratings":7753,"▁neither":7754,"▁eleven":7755,"ji":7756,"▁musicians":7757,"▁rooms":7758,"nce":7759,"▁1951":7760,"▁1949":7761,"▁medic":7762,"▁reinforce":7763,"idden":7764,"omot":7765,"▁Hell":7766,"▁desire":7767,"nings":7768,"▁hal":7769,"▁separated":7770,"▁Toronto":7771,"▁Welsh":7772,"▁climate":7773,"▁Anne":7774,"agle":7775,"▁squ":7776,"▁Nations":7777,"▁shif":7778,"▁outbreak":7779,"▁classification":7780,"▁ancest":7781,"▁Dog":7782,"ón":7783,"▁vehicle":7784,"▁Marg":7785,"▁reality":7786,"▁predecess":7787,"▁seemed":7788,"▁Byzantine":7789,"▁chemical":7790,"▁votes":7791,"▁picture":7792,"teenth":7793,"▁Allen":7794,"▁battleships":7795,"▁rose":7796,"▁Chron":7797,"▁3D":7798,"▁13th":7799,"▁memory":7800,"▁hoped":7801,"ici":7802,"▁Profess":7803,"▁movements":7804,"▁ment":7805,"▁requested":7806,"▁Open":7807,"▁Netherlands":7808,"▁Journal":7809,"▁16th":7810,"▁Belg":7811,"▁Sn":7812,"ogy":7813,"▁raise":7814,"▁historians":7815,"▁ille":7816,"▁Every":7817,"▁Matthew":7818,"▁Pow":7819,"burn":7820,"▁map":7821,"▁difficulty":7822,"reck":7823,"▁basketball":7824,"inder":7825,"▁Whe":7826,"ewhere":7827,"ige":7828,"▁expect":7829,"▁vide":7830,"abil":7831,"▁communities":7832,"▁restored":7833,"▁raid":7834,"▁teen":7835,"▁remember":7836,"▁Bang":7837,"▁Sports":7838,"▁programme":7839,"▁Jews":7840,"▁premiere":7841,"▁pure":7842,"▁Dean":7843,"har":7844,"▁fal":7845,"▁delayed":7846,"▁Jacob":7847,"▁fer":7848,"▁relative":7849,"▁inspiration":7850,"▁Sax":7851,"▁discovery":7852,"▁gal":7853,"▁otherwise":7854,"▁greatly":7855,"▁USS":7856,"▁anniversary":7857,"▁injuries":7858,"▁Design":7859,"▁Again":7860,"▁neighbor":7861,"▁satisf":7862,"▁accounts":7863,"hire":7864,"▁funding":7865,"▁surrounded":7866,"▁flank":7867,"▁Domin":7868,"▁depict":7869,"▁praise":7870,"▁Ult":7871,"▁penalty":7872,"▁spoke":7873,"ilers":7874,"▁batting":7875,"▁needs":7876,"▁1900":7877,"▁Iraq":7878,"iate":7879,"▁dens":7880,"▁strate":7881,"▁die":7882,"▁partner":7883,"▁crop":7884,"▁Wright":7885,"▁Marine":7886,"▁massive":7887,"▁weapon":7888,"▁photograph":7889,"▁I.":7890,"▁recru":7891,"▁claiming":7892,"▁cra":7893,"▁Dor":7894,"▁7th":7895,"anth":7896,"▁Bishop":7897,"▁suit":7898,"▁assemb":7899,"▁lat":7900,"▁astron":7901,"▁tries":7902,"▁forming":7903,"▁strategy":7904,"▁wrong":7905,"real":7906,"▁legend":7907,"▁Oak":7908,"▁accompl":7909,"▁documentary":7910,"▁Armen":7911,"▁fled":7912,"▁crosses":7913,"▁Glob":7914,"▁worst":7915,"▁Hop":7916,"▁Croatian":7917,"▁Heart":7918,"▁Da":7919,"▁stands":7920,"gets":7921,"▁Thompson":7922,"▁architecture":7923,"▁ash":7924,"▁Last":7925,"uther":7926,"▁temporary":7927,"▁Jam":7928,"▁girls":7929,"uble":7930,"▁determine":7931,"▁chairman":7932,"▁Dick":7933,"▁Russell":7934,"▁dismissed":7935,"aired":7936,"▁Islam":7937,"▁involvement":7938,"▁Stra":7939,"▁bombard":7940,"▁sale":7941,"▁category":7942,"▁Trib":7943,"▁rot":7944,"formula":7945,"▁plane":7946,"▁5th":7947,"▁Centre":7948,"▁inner":7949,"▁remn":7950,"▁adaptation":7951,"▁<formula":7952,"▁<formula>":7953,"▁Mars":7954,"▁hear":7955,"rum":7956,"going":7957,"▁ensure":7958,"▁convinced":7959,"onds":7960,"▁sight":7961,"▁enf":7962,"lyn":7963,"▁NC":7964,"▁cul":7965,"▁weekend":7966,"▁06":7967,"▁Holy":7968,"▁NFL":7969,"▁Puerto":7970,"▁Front":7971,"▁resources":7972,"▁somewhat":7973,"▁reserv":7974,"▁Carter":7975,"▁interests":7976,"▁Winter":7977,"▁Rick":7978,"wing":7979,"▁scheme":7980,"▁medieval":7981,"▁immediate":7982,"▁Kelly":7983,"▁Hend":7984,"▁streets":7985,"agre":7986,"▁presidential":7987,"▁Modern":7988,"▁library":7989,"▁Ker":7990,"▁ray":7991,"oster":7992,"▁carbon":7993,"▁absor":7994,"▁consp":7995,"▁Cooper":7996,"body":7997,"▁ic":7998,"▁Spe":7999,"itzer":8000,"po":8001,"▁falling":8002,"▁colonial":8003,"▁Dra":8004,"▁Along":8005,"▁techniques":8006,"▁ori":8007,"▁classical":8008,"▁sed":8009,"▁fighter":8010,"▁ninth":8011,"▁Niel":8012,"▁Rang":8013,"▁appropri":8014,"▁throne":8015,"▁Gard":8016,"▁starred":8017,"▁Brother":8018,"▁academic":8019,"▁eggs":8020,"▁Free":8021,"▁Network":8022,"▁races":8023,"▁bright":8024,"icide":8025,"aya":8026,"▁adults":8027,"▁'ll":8028,"▁Pak":8029,"▁convent":8030,"▁commemor":8031,"▁passenger":8032,"▁surviv":8033,"▁loyal":8034,"▁Hungarian":8035,"▁Nob":8036,"▁6th":8037,"▁meets":8038,"▁lake":8039,"night":8040,"▁Wy":8041,"▁Gri":8042,"▁reviewer":8043,"ester":8044,"▁alien":8045,"▁Thus":8046,"▁1913":8047,"▁premiered":8048,"▁submarine":8049,"rine":8050,"▁Bou":8051,"▁absence":8052,"▁Batman":8053,"bec":8054,"wealth":8055,"▁seeing":8056,"▁renew":8057,"▁fitted":8058,"▁Labor":8059,"▁else":8060,"▁superior":8061,"osure":8062,"▁interior":8063,"arsh":8064,"▁favorite":8065,"▁Parker":8066,"▁engineer":8067,"ronze":8068,"▁dub":8069,"PA":8070,"▁Est":8071,"▁airport":8072,"▁partn":8073,"▁Tok":8074,"▁deemed":8075,"▁attacking":8076,"▁Harris":8077,"omp":8078,"▁conclusion":8079,"▁appearing":8080,"acent":8081,"▁visible":8082,"▁1926":8083,"▁dating":8084,"ivan":8085,"▁synthes":8086,"▁Bi":8087,"using":8088,"▁characteristics":8089,"▁romantic":8090,"▁x":8091,"▁leads":8092,"▁elections":8093,"▁rum":8094,"▁operate":8095,"▁facility":8096,"▁encouraged":8097,"▁1927":8098,"▁municip":8099,"▁12th":8100,"▁Library":8101,"▁afterwards":8102,"▁retirement":8103,"▁DNA":8104,"▁landed":8105,"book":8106,"▁colony":8107,"▁convection":8108,"▁Murray":8109,"▁temperatures":8110,"▁buy":8111,"▁1921":8112,"▁everyone":8113,"chang":8114,"▁AI":8115,"▁doct":8116,"oen":8117,"▁suffering":8118,"▁credit":8119,"▁1934":8120,"▁legislation":8121,"▁holds":8122,"▁Knight":8123,"▁modified":8124,"▁lies":8125,"▁challeng":8126,"▁Education":8127,"▁Ts":8128,"▁Late":8129,"aver":8130,"▁painted":8131,"▁controversial":8132,"▁wings":8133,"eor":8134,"▁san":8135,"▁gone":8136,"ania":8137,"roit":8138,"ossible":8139,"▁Houston":8140,"▁believes":8141,"ixon":8142,"▁code":8143,"urches":8144,"▁distributed":8145,"▁od":8146,"▁Brand":8147,"▁Commander":8148,"▁attempting":8149,"▁08":8150,"▁Police":8151,"asure":8152,"▁Berlin":8153,"▁Palace":8154,"uster":8155,"▁standards":8156,"▁looked":8157,"▁rescue":8158,"▁900":8159,"▁authors":8160,"▁secured":8161,"▁Advent":8162,"▁1912":8163,"▁monarch":8164,"▁depicted":8165,"▁Ut":8166,"▁cancer":8167,"tic":8168,"▁archae":8169,"▁dominated":8170,"▁FI":8171,"▁battleship":8172,"▁grass":8173,"▁habitat":8174,"▁anyone":8175,"scape":8176,"apse":8177,"▁Yug":8178,"▁continuing":8179,"coming":8180,"▁judge":8181,"▁wel":8182,"▁longest":8183,"▁immig":8184,"▁Story":8185,"▁Santa":8186,"eline":8187,"▁biggest":8188,"▁Swedish":8189,"li":8190,"aws":8191,"▁Commonwealth":8192,"▁unsuccessful":8193,"▁union":8194,"▁graphics":8195,"▁Get":8196,"▁pound":8197,"encies":8198,"▁neck":8199,"▁obtain":8200,"▁Li":8201,"▁Simpson":8202,"▁Roberts":8203,"▁trained":8204,"ache":8205,"▁Ot":8206,"▁Yan":8207,"▁sudden":8208,"▁wins":8209,"▁Hospital":8210,"▁1932":8211,"ultane":8212,"▁Obs":8213,"▁jump":8214,"inals":8215,"▁arrangement":8216,"▁carrier":8217,"aska":8218,"▁railroad":8219,"owa":8220,"▁Indians":8221,"20":8222,"▁Ey":8223,"▁acknowled":8224,"▁Lyn":8225,"▁Silver":8226,"▁nickn":8227,"▁Mort":8228,"oming":8229,"opes":8230,"▁informed":8231,"▁measures":8232,"eenth":8233,"▁Cook":8234,"hess":8235,"▁RAAF":8236,"▁belt":8237,"▁representing":8238,"emetery":8239,"▁releases":8240,"▁Corporation":8241,"▁achieve":8242,"▁Social":8243,"▁NBC":8244,"▁Warner":8245,"ternal":8246,"ching":8247,"▁sees":8248,"▁09":8249,"▁Merc":8250,"▁garrison":8251,"▁Yugoslav":8252,"▁convention":8253,"ture":8254,"una":8255,"▁formerly":8256,"▁Jason":8257,"▁grade":8258,"▁bab":8259,"▁generated":8260,"▁styles":8261,"▁closer":8262,"▁deployed":8263,"▁emergency":8264,"▁Anthony":8265,"▁bats":8266,"elle":8267,"▁alleg":8268,"tenance":8269,"▁questions":8270,"olph":8271,"▁moderate":8272,"fare":8273,"▁historic":8274,"▁gets":8275,"▁veter":8276,"▁trials":8277,"▁festival":8278,"▁cycle":8279,"▁molec":8280,"hemat":8281,"▁ster":8282,"▁siege":8283,"▁influential":8284,"▁Cru":8285,"▁emotional":8286,"▁Hin":8287,"▁Croatia":8288,"▁Detroit":8289,"▁Tal":8290,"otype":8291,"▁owners":8292,"▁novels":8293,"agu":8294,"uts":8295,"▁RAF":8296,"▁successor":8297,"▁influences":8298,"▁narrative":8299,"▁Gaga":8300,"▁1929":8301,"aria":8302,"▁Bure":8303,"▁thin":8304,"▁Chamber":8305,"aints":8306,"▁stead":8307,"▁ru":8308,"▁1911":8309,"▁eat":8310,"▁excess":8311,"▁journalist":8312,"▁Author":8313,"▁childhood":8314,"▁Gilbert":8315,"▁constant":8316,"▁experiences":8317,"mate":8318,"▁pregn":8319,"▁defended":8320,"▁veget":8321,"▁discussed":8322,"▁Princess":8323,"▁v.":8324,"▁legs":8325,"▁apparently":8326,"▁alco":8327,"▁instruments":8328,"▁Rap":8329,"▁assass":8330,"▁Spears":8331,"▁victims":8332,"▁treated":8333,"▁140":8334,"▁giant":8335,"▁environmental":8336,"▁diplom":8337,"fire":8338,"arked":8339,"▁executed":8340,"imore":8341,"▁detail":8342,"▁Asian":8343,"▁coins":8344,"▁1931":8345,"▁1922":8346,"▁depos":8347,"anny":8348,"▁offices":8349,"▁PC":8350,"obi":8351,"▁factors":8352,"▁mine":8353,"▁Jesus":8354,"yard":8355,"usted":8356,"iens":8357,"▁bear":8358,"▁concur":8359,"rams":8360,"▁Desc":8361,"achment":8362,"▁enters":8363,"▁hunting":8364,"▁Somers":8365,"▁wooden":8366,"▁Melbourne":8367,"noon":8368,"▁Evans":8369,"▁Nielsen":8370,"▁Pope":8371,"▁Atlant":8372,"aste":8373,"▁channel":8374,"▁hundreds":8375,"▁ride":8376,"▁Vice":8377,"▁resigned":8378,"▁Guy":8379,"▁ocean":8380,"rot":8381,"▁Clinton":8382,"▁Xbox":8383,"iliar":8384,"▁gay":8385,"▁uniform":8386,"▁Mun":8387,"▁skills":8388,"▁Bed":8389,"▁navig":8390,"▁Organ":8391,"▁reveals":8392,"alo":8393,"▁Nevertheless":8394,"▁spend":8395,"▁chapter":8396,"▁Category":8397,"▁enh":8398,"▁pointed":8399,"▁ridge":8400,"text":8401,"▁clim":8402,"ES":8403,"orous":8404,"▁Wing":8405,"▁watching":8406,"▁Stewart":8407,"▁bon":8408,"▁prevented":8409,"usic":8410,"▁Muslim":8411,"▁05":8412,"▁preferred":8413,"lie":8414,"utt":8415,"▁Real":8416,"rees":8417,"▁pushed":8418,"▁pull":8419,"▁format":8420,"icians":8421,"▁locomot":8422,"▁footage":8423,"▁flew":8424,"▁languages":8425,"▁Heavy":8426,"▁difference":8427,"▁opponents":8428,"▁happened":8429,"▁Tower":8430,"▁formally":8431,"▁thereafter":8432,"▁drums":8433,"▁intent":8434,"▁reportedly":8435,"▁check":8436,"itter":8437,"▁facing":8438,"▁Benn":8439,"▁resign":8440,"▁relationships":8441,"▁accomp":8442,"▁Origin":8443,"▁chain":8444,"▁intense":8445,"▁Carib":8446,"▁thousand":8447,"▁Bulgar":8448,"▁Turkish":8449,"▁handed":8450,"▁Samuel":8451,"▁Express":8452,"oto":8453,"tty":8454,"▁device":8455,"▁notably":8456,"▁Sarah":8457,"▁animation":8458,"▁Rey":8459,"▁Lim":8460,"ogether":8461,"▁firing":8462,"▁Lennon":8463,"▁vision":8464,"▁inhabit":8465,"▁existed":8466,"▁visitors":8467,"▁Bird":8468,"idi":8469,"▁surrender":8470,"ski":8471,"▁Aud":8472,"▁gather":8473,"▁employees":8474,"MA":8475,"▁Greece":8476,"▁Baltimore":8477,"▁bes":8478,"onies":8479,"▁accompany":8480,"▁Austria":8481,"▁Queens":8482,"mad":8483,"▁170":8484,"▁Albums":8485,"roc":8486,"bean":8487,"▁Hans":8488,"▁Ark":8489,"spec":8490,"▁departed":8491,"▁linked":8492,"▁hearing":8493,"▁exposed":8494,"▁participate":8495,"▁poetry":8496,"▁dialogue":8497,"stic":8498,"ds":8499,"hatt":8500,"▁extent":8501,"ois":8502,"▁fil":8503,"▁Stock":8504,"da":8505,"▁detailed":8506,"▁announce":8507,"olis":8508,"▁Colorado":8509,"▁substantial":8510,"yo":8511,"ican":8512,"▁learning":8513,"▁beach":8514,"▁audio":8515,"▁Cam":8516,"▁Raw":8517,"▁instance":8518,"▁universe":8519,"▁Lane":8520,"ropolitan":8521,"▁rebell":8522,"▁cruisers":8523,"▁residential":8524,"jo":8525,"unes":8526,"▁impressed":8527,"prise":8528,"▁Writing":8529,"▁Marshall":8530,"orage":8531,"▁Horn":8532,"▁vul":8533,"orial":8534,"▁periods":8535,"▁avo":8536,"▁Initially":8537,"endment":8538,"▁Cz":8539,"▁ske":8540,"▁Foundation":8541,"▁mart":8542,"▁huge":8543,"▁plate":8544,"▁publisher":8545,"ullivan":8546,"▁Malays":8547,"▁util":8548,"▁15th":8549,"▁hat":8550,"▁taught":8551,"▁easy":8552,"igen":8553,"▁Dave":8554,"▁afternoon":8555,"▁enthus":8556,"lock":8557,"ologists":8558,"▁tempor":8559,"▁stem":8560,"▁Frederick":8561,"▁Jr":8562,"▁territories":8563,"▁driver":8564,"▁imprison":8565,"▁reviewers":8566,"▁testing":8567,"ribed":8568,"▁Ern":8569,"▁videos":8570,"boy":8571,"▁1928":8572,"▁Wrestling":8573,"opter":8574,"▁happy":8575,"▁upd":8576,"▁tests":8577,"viation":8578,"▁Banks":8579,"▁Having":8580,"iami":8581,"▁Horse":8582,"▁stable":8583,"▁teeth":8584,"▁feud":8585,"▁reprodu":8586,"▁sympt":8587,"▁understand":8588,"▁isolated":8589,"▁ca":8590,"roph":8591,"ogan":8592,"▁negotiations":8593,"▁vessel":8594,"▁Somerset":8595,"▁diameter":8596,"▁inher":8597,"▁agents":8598,"▁sleep":8599,"otes":8600,"▁picked":8601,"▁Jess":8602,"▁10th":8603,"atically":8604,"▁Anna":8605,"▁1925":8606,"▁Buck":8607,"▁bridges":8608,"▁Know":8609,"▁Mario":8610,"▁goods":8611,"▁encountered":8612,"cho":8613,"▁dangerous":8614,"▁junior":8615,"▁withdrew":8616,"▁Release":8617,"▁diagn":8618,"▁lob":8619,"▁simultane":8620,"roke":8621,"▁aged":8622,"▁founder":8623,"▁reun":8624,"▁Anglo":8625,"▁behavi":8626,"▁factor":8627,"▁normally":8628,"▁upgraded":8629,"sea":8630,"▁Giants":8631,"▁keeping":8632,"▁fur":8633,"▁Miami":8634,"▁specimens":8635,"▁window":8636,"borough":8637,"▁tie":8638,"▁pounds":8639,"mission":8640,"▁Seattle":8641,"▁deter":8642,"▁medium":8643,"▁satell":8644,"etime":8645,"▁relie":8646,"▁frequent":8647,"olas":8648,"▁sure":8649,"▁1924":8650,"▁collaps":8651,"▁ethnic":8652,"bridge":8653,"▁toll":8654,"▁mir":8655,"▁diet":8656,"idae":8657,"▁partly":8658,"▁Player":8659,"▁Ext":8660,"▁lowest":8661,"▁Championships":8662,"chen":8663,"▁crisis":8664,"▁prohib":8665,"▁resear":8666,"▁engineering":8667,"▁Trek":8668,"▁Call":8669,"▁apprec":8670,"▁Soon":8671,"▁Alab":8672,"▁outf":8673,"▁traveled":8674,"▁vic":8675,"▁Cre":8676,"▁whereas":8677,"▁organizations":8678,"helm":8679,"iable":8680,"▁proced":8681,"away":8682,"▁designer":8683,"▁ped":8684,"▁rarely":8685,"▁lose":8686,"▁Op":8687,"▁refers":8688,"▁tone":8689,"amese":8690,"▁Hand":8691,"▁doesn":8692,"▁turrets":8693,"usal":8694,"▁1920s":8695,"▁technique":8696,"iece":8697,"brid":8698,"▁insc":8699,"▁Human":8700,"▁Treaty":8701,"▁Iowa":8702,"gery":8703,"ée":8704,"▁vice":8705,"▁orb":8706,"▁ax":8707,"igs":8708,"▁spending":8709,"▁finale":8710,"▁07":8711,"▁criticised":8712,"▁advice":8713,"▁permission":8714,"▁maintenance":8715,"▁lad":8716,"▁ML":8717,"▁platinum":8718,"ennis":8719,"▁uncertain":8720,"▁difficulties":8721,"▁phen":8722,"ila":8723,"xual":8724,"ygen":8725,"▁complic":8726,"▁partially":8727,"▁restric":8728,"▁policies":8729,"▁Alabama":8730,"ls":8731,"▁bypass":8732,"▁personality":8733,"▁agree":8734,"▁verse":8735,"▁mainstream":8736,"▁Forces":8737,"▁compete":8738,"▁ranking":8739,"▁indicate":8740,"▁liqu":8741,"▁excell":8742,"▁Dur":8743,"▁proport":8744,"▁recordings":8745,"inction":8746,"ilst":8747,"uscript":8748,"▁Caribbean":8749,"▁unn":8750,"oked":8751,"▁comments":8752,"▁remove":8753,"▁anticip":8754,"FC":8755,"col":8756,"▁Napole":8757,"▁mamm":8758,"▁Then":8759,"▁finals":8760,"▁refuge":8761,"▁Buff":8762,"▁Mississ":8763,"▁safe":8764,"▁Lawrence":8765,"attered":8766,"▁concerts":8767,"▁1923":8768,"▁windows":8769,"▁Yanke":8770,"▁Canal":8771,"▁strip":8772,"▁seats":8773,"uda":8774,"▁14th":8775,"▁restrict":8776,"▁moral":8777,"▁symp":8778,"chell":8779,"▁Charlie":8780,"▁overs":8781,"▁monument":8782,"▁km2":8783,"▁rates":8784,"▁jur":8785,"▁repair":8786,"▁extreme":8787,"▁falls":8788,"▁fighters":8789,"▁Ah":8790,"▁recur":8791,"▁Minnes":8792,"▁recommend":8793,"▁Nat":8794,"▁pitched":8795,"▁Bros":8796,"▁representative":8797,"▁covers":8798,"▁Crown":8799,"▁alter":8800,"▁McD":8801,"▁truth":8802,"▁9th":8803,"▁Senator":8804,"▁tenth":8805,"▁diff":8806,"enh":8807,"▁Mach":8808,"▁prompted":8809,"power":8810,"isd":8811,"▁forcing":8812,"rang":8813,"▁describe":8814,"▁protest":8815,"▁hockey":8816,"▁CR":8817,"▁Ian":8818,"▁phr":8819,"▁tub":8820,"▁Ministry":8821,"▁reconst":8822,"▁shear":8823,"▁destroyers":8824,"Ar":8825,"mates":8826,"▁minimum":8827,"▁underw":8828,"▁MP":8829,"▁Brig":8830,"▁Garden":8831,"▁Township":8832,"sk":8833,"▁pric":8834,"▁hull":8835,"▁Hu":8836,"▁churches":8837,"▁neighborhood":8838,"ifer":8839,"▁Dead":8840,"▁friendly":8841,"▁Grammy":8842,"▁bases":8843,"▁boys":8844,"▁examples":8845,"▁Æ":8846,"▁USD":8847,"▁Health":8848,"▁Blood":8849,"▁Hungary":8850,"urance":8851,"▁drawing":8852,"▁Country":8853,"▁Polit":8854,"▁Nazi":8855,"▁pin":8856,"▁Benj":8857,"▁travelled":8858,"mers":8859,"▁Ban":8860,"▁bombers":8861,"▁inaug":8862,"▁doctor":8863,"▁Roc":8864,"▁Dance":8865,"▁dynasty":8866,"▁adjacent":8867,"▁mand":8868,"▁approval":8869,"▁housing":8870,"▁displayed":8871,"▁Hamp":8872,"▁Return":8873,"▁Australians":8874,"▁Belgium":8875,"▁creator":8876,"▁credits":8877,"▁ju":8878,"▁Christopher":8879,"▁turb":8880,"▁01":8881,"▁grown":8882,"▁joining":8883,"▁listing":8884,"▁collapse":8885,"▁tribute":8886,"▁aware":8887,"▁Diego":8888,"▁partnership":8889,"▁Shakesp":8890,"eu":8891,"▁protagonist":8892,"zz":8893,"iac":8894,"▁fung":8895,"▁Cold":8896,"▁Event":8897,"▁Rand":8898,"odore":8899,"ante":8900,"▁explo":8901,"▁Medal":8902,"▁moments":8903,"▁acted":8904,"▁changing":8905,"▁creative":8906,"▁*":8907,"alions":8908,"ods":8909,"▁designation":8910,"wa":8911,"icy":8912,"▁powered":8913,"▁Gab":8914,"▁Kal":8915,"ugby":8916,"▁instrumental":8917,"▁Represent":8918,"itud":8919,"▁Much":8920,"▁refere":8921,"▁trend":8922,"▁Laure":8923,"▁asks":8924,"▁Children":8925,"▁Camer":8926,"▁DC":8927,"onnaissance":8928,"velt":8929,"▁radar":8930,"▁canal":8931,"bra":8932,"▁storms":8933,"▁Michel":8934,"▁Hud":8935,"▁arts":8936,"▁villages":8937,"▁Cred":8938,"▁Ll":8939,"▁possession":8940,"▁1905":8941,"▁appointment":8942,"▁advis":8943,"▁1908":8944,"▁dollars":8945,"imeter":8946,"▁treaty":8947,"▁scientists":8948,"die":8949,"▁1909":8950,"ounced":8951,"▁Khan":8952,"sters":8953,"otten":8954,"▁rounds":8955,"▁Record":8956,"▁victories":8957,"▁survive":8958,"▁Guardian":8959,"▁eliminated":8960,"▁paintings":8961,"▁Benjamin":8962,"▁covering":8963,"▁Legacy":8964,"▁wheel":8965,"▁minimal":8966,"▁els":8967,"▁precip":8968,"▁Roose":8969,"▁Hockey":8970,"cop":8971,"▁elsewhere":8972,"▁telling":8973,"icts":8974,"▁Vietnamese":8975,"▁Hills":8976,"▁newspapers":8977,"▁innov":8978,"▁surprise":8979,"▁benefit":8980,"30":8981,"ivated":8982,"active":8983,"ecraft":8984,"▁seeking":8985,"▁AR":8986,"▁arriving":8987,"▁analy":8988,"▁helping":8989,"▁occupation":8990,"▁rhythm":8991,"▁suicide":8992,"▁Minnesota":8993,"ouri":8994,"▁purposes":8995,"▁Fal":8996,"▁Alfred":8997,"vy":8998,"▁unlike":8999,"▁Thor":9000,"▁11th":9001,"▁values":9002,"▁dispute":9003,"▁occasions":9004,"▁brick":9005,"▁gard":9006,"▁Hind":9007,"▁smooth":9008,"▁loan":9009,"▁21st":9010,"▁pool":9011,"▁Set":9012,"▁Manhatt":9013,"▁twin":9014,"▁Tun":9015,"▁wet":9016,"rupted":9017,"▁option":9018,"roid":9019,"▁Manhattan":9020,"▁Div":9021,"uman":9022,"▁manuscript":9023,"ographical":9024,"orious":9025,"▁soil":9026,"▁fishing":9027,"▁gat":9028,"▁Kurt":9029,"▁Franklin":9030,"▁Interstate":9031,"▁struggle":9032,"▁Walker":9033,"▁cryst":9034,"overs":9035,"▁murd":9036,"rm":9037,"▁105":9038,"▁balance":9039,"no":9040,"▁Lin":9041,"▁Aff":9042,"▁Administ":9043,"TA":9044,"▁Son":9045,"▁125":9046,"▁helic":9047,"▁degrees":9048,"▁Anim":9049,"▁Roosevelt":9050,"▁04":9051,"▁preserved":9052,"▁Trust":9053,"gon":9054,"▁schedule":9055,"esh":9056,"▁Comb":9057,"▁Shel":9058,"▁flash":9059,"▁Perform":9060,"▁1907":9061,"▁categ":9062,"▁cooper":9063,"▁Flight":9064,"▁circumst":9065,"rix":9066,"▁Peninsula":9067,"acks":9068,"▁publicly":9069,"▁Hong":9070,"atherine":9071,"▁violent":9072,"▁candidates":9073,"▁resumed":9074,"▁Beck":9075,"rome":9076,"orph":9077,"▁emperor":9078,"▁164":9079,"acle":9080,"▁Bull":9081,"▁honour":9082,"nik":9083,"▁Ice":9084,"▁Kansas":9085,"▁competed":9086,"▁pilots":9087,"▁wedding":9088,"▁Fried":9089,"▁survivors":9090,"ishment":9091,"incial":9092,"munition":9093,"▁dies":9094,"▁abilities":9095,"▁Industry":9096,"▁Bh":9097,"▁procl":9098,"▁neutral":9099,"▁Nash":9100,"action":9101,"A.":9102,"sky":9103,"▁cook":9104,"ulating":9105,"▁span":9106,"▁Satur":9107,"mph":9108,"oking":9109,"▁beautiful":9110,"▁bid":9111,"▁Lith":9112,"▁Mississipp":9113,"▁impossible":9114,"▁Portland":9115,"▁coordin":9116,"▁intensified":9117,"▁Born":9118,"▁alignment":9119,"▁argument":9120,"▁multi":9121,".m":9122,"▁teaching":9123,"fted":9124,"▁advoc":9125,"▁custom":9126,"▁assisted":9127,"▁poison":9128,"▁wrest":9129,"▁lem":9130,"▁defeating":9131,"▁consult":9132,"▁electronic":9133,"obile":9134,"▁concrete":9135,"▁lists":9136,"▁prosp":9137,"▁Hotel":9138,"▁overt":9139,"▁nations":9140,"▁Wolf":9141,"▁Ple":9142,"▁serial":9143,"▁simpl":9144,"▁rivers":9145,"ensions":9146,"▁discip":9147,"▁absol":9148,"▁Building":9149,"aph":9150,"▁py":9151,"▁Ward":9152,"▁Digital":9153,"▁assists":9154,"▁foundation":9155,"▁elabor":9156,"▁Brun":9157,"isp":9158,"▁VI":9159,"▁opponent":9160,"▁Jos":9161,"▁interesting":9162,"▁danc":9163,"ilty":9164,"▁agricultural":9165,"▁businesses":9166,"▁backing":9167,"▁oxygen":9168,"▁suitable":9169,"▁165":9170,"▁Cole":9171,"eare":9172,"▁parent":9173,"▁mines":9174,"▁signing":9175,"▁submitted":9176,"▁tunnel":9177,"▁fifteen":9178,"▁understanding":9179,"▁scholar":9180,"▁Hem":9181,"▁grey":9182,"▁Cob":9183,"▁Lam":9184,"rows":9185,"▁encounter":9186,"▁symptoms":9187,"▁Blues":9188,"iveness":9189,"itated":9190,"▁Dw":9191,"face":9192,"▁citing":9193,"▁waves":9194,"icer":9195,"▁behalf":9196,"▁Halo":9197,"▁orbit":9198,"▁Alexand":9199,"▁Shakespeare":9200,"▁spiritual":9201,"▁sunk":9202,"▁Dom":9203,"ctic":9204,"▁percentage":9205,"▁Native":9206,"▁parish":9207,"▁sank":9208,"▁Wol":9209,"agen":9210,"▁forests":9211,"▁Area":9212,"▁Tenness":9213,"▁Hindu":9214,"bl":9215,"▁ninet":9216,"▁forty":9217,"▁situated":9218,"unch":9219,"▁signs":9220,"▁closing":9221,"▁subjects":9222,"▁Campbell":9223,"SP":9224,"▁Vinc":9225,"▁Athlet":9226,"onymous":9227,"alities":9228,"▁ammunition":9229,"▁voiced":9230,"dale":9231,"▁Prom":9232,"▁Kings":9233,"▁usual":9234,"▁illness":9235,"▁nom":9236,"▁Non":9237,"▁Tag":9238,"▁repairs":9239,"▁Sullivan":9240,"▁Hero":9241,"▁resolution":9242,"▁corpor":9243,"asters":9244,"▁Steven":9245,"▁imperial":9246,"▁Lucas":9247,"▁Dest":9248,"▁asking":9249,"▁Box":9250,"▁disaster":9251,"▁functions":9252,"▁collaboration":9253,".m.":9254,"▁assess":9255,"▁attendance":9256,"▁controll":9257,"▁restaurant":9258,"lah":9259,"▁Friend":9260,"▁lieutenant":9261,"▁Egyptian":9262,"father":9263,"▁evil":9264,"▁audiences":9265,"▁feelings":9266,"▁string":9267,"▁underground":9268,"▁deliber":9269,"▁worship":9270,"▁junction":9271,"▁Ren":9272,"▁flights":9273,"▁Stevens":9274,"▁portra":9275,"▁affairs":9276,"▁suspended":9277,"uv":9278,"▁Margaret":9279,"amic":9280,"▁skull":9281,"▁Tennessee":9282,"▁Rab":9283,"▁exit":9284,"▁Mississippi":9285,"aron":9286,"osm":9287,"sex":9288,"▁Race":9289,"odge":9290,"amps":9291,"▁pron":9292,"▁willing":9293,"▁Josh":9294,"▁targets":9295,"▁Louisiana":9296,"▁cargo":9297,"▁initi":9298,"▁earthqu":9299,"rator":9300,"▁recre":9301,"▁1906":9302,"▁Mack":9303,"▁affair":9304,"▁funeral":9305,"▁Montreal":9306,"idd":9307,"▁prol":9308,"▁operational":9309,"▁McL":9310,"▁Historic":9311,"resents":9312,"ques":9313,"▁Warren":9314,"▁abol":9315,"▁poorly":9316,"▁Labour":9317,"rus":9318,"▁lect":9319,"▁measured":9320,"▁360":9321,"▁1904":9322,"▁compilation":9323,"▁Palest":9324,"▁documents":9325,"▁mountains":9326,"▁Missouri":9327,"▁filed":9328,"▁aimed":9329,"rants":9330,"uable":9331,"racts":9332,"▁circuit":9333,"▁registered":9334,"▁anch":9335,"▁Ku":9336,"weet":9337,"▁Depression":9338,"▁Philippines":9339,"▁conscious":9340,"▁Tan":9341,"▁statue":9342,"▁favorable":9343,"CC":9344,"▁elder":9345,"▁subt":9346,"▁affili":9347,"▁rout":9348,"▁liked":9349,"▁Apple":9350,"▁adopt":9351,"▁Mitchell":9352,"anium":9353,"▁Nag":9354,"andal":9355,"▁Stat":9356,"▁bot":9357,"▁recognised":9358,"▁explosion":9359,"▁Dragon":9360,"▁Billy":9361,"ateur":9362,"▁represents":9363,"▁professor":9364,"▁entertainment":9365,"▁jazz":9366,"fe":9367,"▁temporarily":9368,"ception":9369,"ori":9370,"▁sector":9371,"▁Str":9372,"▁ben":9373,"▁Cow":9374,"▁Joh":9375,"▁Small":9376,"▁sequences":9377,"▁Critics":9378,"▁replacing":9379,"10":9380,"ika":9381,"▁fifty":9382,"▁Ped":9383,"overe":9384,"▁Kirk":9385,"gate":9386,"▁offering":9387,"▁shells":9388,"▁cyl":9389,"idel":9390,"adi":9391,"▁artwork":9392,"▁Ring":9393,"▁Vis":9394,"▁Graham":9395,"▁Independent":9396,"▁wore":9397,"▁residence":9398,"▁interpre":9399,"▁preparation":9400,"era":9401,"▁Fem":9402,"inea":9403,"▁margin":9404,"▁03":9405,"species":9406,"▁Magn":9407,"▁Business":9408,"▁Czech":9409,"orders":9410,"issions":9411,"▁reflected":9412,"▁restoration":9413,"▁nucle":9414,"▁alliance":9415,"▁prime":9416,"▁reluct":9417,"▁directors":9418,"▁expensive":9419,"▁Mess":9420,"▁rig":9421,"▁Lov":9422,"▁terror":9423,"▁touring":9424,"▁Snow":9425,"▁Near":9426,"▁UE":9427,"ancell":9428,"ylan":9429,"▁overw":9430,"inental":9431,"▁alcohol":9432,"▁completing":9433,"▁amongst":9434,"▁thinking":9435,"race":9436,"▁Ye":9437,"▁suggesting":9438,"▁Maur":9439,"artney":9440,"▁Mes":9441,"unc":9442,"▁Ariz":9443,"▁banks":9444,"▁horror":9445,"▁grav":9446,"▁D.C.":9447,"bishop":9448,"ellect":9449,"▁Cuba":9450,"▁cancelled":9451,"▁Seven":9452,"▁rebuilt":9453,"▁coverage":9454,"▁cod":9455,"▁Frid":9456,"DS":9457,"quir":9458,"▁pulled":9459,"▁reven":9460,"▁decides":9461,"▁escaped":9462,"▁dimens":9463,"▁Guide":9464,"▁erupt":9465,"▁bay":9466,"▁wasn":9467,"▁amounts":9468,"▁Chand":9469,"▁Edge":9470,"▁cous":9471,"iph":9472,"▁lacked":9473,"▁tribes":9474,"overeign":9475,"rep":9476,"▁racing":9477,"▁dramatic":9478,"▁Phoen":9479,"▁clearly":9480,"▁communication":9481,"▁garden":9482,"▁patterns":9483,"▁Tamil":9484,"▁Files":9485,"▁familiar":9486,"▁predomin":9487,"urally":9488,"▁engagement":9489,"▁frig":9490,"▁rit":9491,"▁ownership":9492,"apping":9493,"▁argues":9494,"rak":9495,"▁Cher":9496,"▁marks":9497,"uary":9498,"▁Arizona":9499,"▁saved":9500,"▁Indies":9501,"▁armored":9502,"▁perspective":9503,"▁Sony":9504,"okes":9505,"▁mathemat":9506,"▁colonies":9507,"▁Persian":9508,"▁gang":9509,"▁wicket":9510,"▁drove":9511,"je":9512,"▁Grey":9513,"▁Saturday":9514,"▁contributions":9515,"▁merchant":9516,"▁solution":9517,"▁Dylan":9518,"storm":9519,"▁print":9520,"▁fastest":9521,"ti":9522,"▁playoffs":9523,"▁artistic":9524,"▁administrative":9525,"▁seed":9526,"▁Scout":9527,"▁remnants":9528,"ieties":9529,"▁tag":9530,"▁execut":9531,"▁characterized":9532,"▁false":9533,"▁Marie":9534,"athy":9535,"▁boundary":9536,"idency":9537,"▁rising":9538,"▁militia":9539,"▁kings":9540,"▁115":9541,"▁severely":9542,"fish":9543,"▁crews":9544,"exp":9545,"▁institutions":9546,"▁armament":9547,"oga":9548,"▁disappoin":9549,"▁Las":9550,"▁badly":9551,"▁retail":9552,"▁depending":9553,"▁flagship":9554,"▁Confederate":9555,"▁earning":9556,"▁bulk":9557,"▁Bureau":9558,"bre":9559,"▁genetic":9560,"▁distinctive":9561,"ova":9562,"▁bowling":9563,"▁explains":9564,"▁ideal":9565,"▁bran":9566,"▁Pa":9567,"▁EP":9568,"▁notice":9569,"▁recip":9570,"▁Bros.":9571,"orer":9572,"itting":9573,"▁bronze":9574,"omber":9575,"▁fallen":9576,"▁excav":9577,"▁Oklah":9578,"▁restricted":9579,"▁ranks":9580,"cru":9581,"▁context":9582,"equ":9583,"▁frust":9584,"▁comparison":9585,"ses":9586,"▁threw":9587,"▁Nik":9588,"ectic":9589,"▁Sin":9590,"▁Liz":9591,"elli":9592,"▁demonstrated":9593,"mented":9594,"▁explain":9595,"▁condem":9596,"▁ranging":9597,"▁earn":9598,"▁quiet":9599,"uations":9600,"▁poems":9601,"▁inland":9602,"▁174":9603,"▁controls":9604,"▁inhabitants":9605,"life":9606,"▁arrive":9607,"▁Switzer":9608,"▁Wilhelm":9609,"▁riders":9610,"▁Murphy":9611,"▁trick":9612,"▁sisters":9613,"▁Amy":9614,"▁gap":9615,"▁Program":9616,"▁practices":9617,"▁loop":9618,"▁Lang":9619,"▁kW":9620,"▁wants":9621,"▁mental":9622,"▁maneu":9623,"▁8th":9624,"▁Harvey":9625,"▁Such":9626,"▁faster":9627,"▁Econom":9628,"▁vel":9629,"▁conservative":9630,"▁electron":9631,"▁Broadway":9632,"▁ABC":9633,"ivia":9634,"formation":9635,"▁meat":9636,"▁wider":9637,"▁Switzerland":9638,"lings":9639,"acon":9640,"▁shield":9641,"▁synd":9642,"▁obvious":9643,"▁revol":9644,"▁kit":9645,"oven":9646,"ocking":9647,"tha":9648,"▁Na":9649,"▁surge":9650,"▁exclud":9651,"▁spotted":9652,"otton":9653,"▁Barry":9654,"▁acceler":9655,"▁vulner":9656,"▁reaches":9657,"pha":9658,"▁1901":9659,"▁distinguished":9660,"▁pace":9661,"▁plus":9662,"▁northward":9663,"ré":9664,"▁evolved":9665,"▁exhibition":9666,"anton":9667,"▁application":9668,"asts":9669,"▁gate":9670,"▁Oklahoma":9671,"▁Tel":9672,"▁millimet":9673,"▁Austrian":9674,"EC":9675,"hu":9676,"▁quarterback":9677,"▁nominations":9678,"▁agency":9679,"▁triple":9680,"▁protein":9681,"▁subspecies":9682,"▁Federation":9683,"▁frame":9684,"ruption":9685,"▁satellite":9686,"▁Clar":9687,"▁tip":9688,"▁autobi":9689,"▁Original":9690,"▁dominant":9691,"▁prepare":9692,"▁households":9693,"▁predicted":9694,"▁palace":9695,"inations":9696,"▁Delaware":9697,"AC":9698,"▁wreck":9699,"uma":9700,"▁tex":9701,"eton":9702,"▁storage":9703,"▁slaves":9704,"▁1903":9705,"▁Bomb":9706,"urer":9707,"AR":9708,"▁Rat":9709,"sequently":9710,"grade":9711,"▁intellect":9712,"▁155":9713,"▁1902":9714,"▁abund":9715,"▁Lithuan":9716,"▁thor":9717,"eland":9718,"▁articles":9719,"▁printed":9720,"uki":9721,"▁vast":9722,"▁02":9723,"▁carriers":9724,"▁attained":9725,"▁Perry":9726,"▁repeatedly":9727,"IS":9728,"▁fixed":9729,"▁predecessor":9730,"▁allies":9731,"▁vertical":9732,"▁surgery":9733,"▁Leslie":9734,"▁stores":9735,"▁outl":9736,"din":9737,"▁strict":9738,"▁signal":9739,"▁Mik":9740,"▁peaking":9741,"▁Harv":9742,"lus":9743,"imen":9744,"▁Fif":9745,"▁philosophy":9746,"▁yield":9747,"▁phenomen":9748,"▁adventure":9749,"▁biographer":9750,"ascar":9751,"▁excellent":9752,"oned":9753,"▁boss":9754,"▁Rih":9755,"▁blocks":9756,"▁disagre":9757,"▁Baby":9758,"▁tack":9759,"▁DS":9760,"▁Originally":9761,"▁pretty":9762,"▁illegal":9763,"riptions":9764,"▁Ve":9765,"▁bombs":9766,"▁Ald":9767,"▁Hur":9768,"▁perceived":9769,"▁Mother":9770,"iders":9771,"▁seriously":9772,"▁choose":9773,"▁Tokyo":9774,"vant":9775,"icate":9776,"▁Rico":9777,"▁Less":9778,"▁comfort":9779,"▁apartment":9780,"▁Denmark":9781,"▁remarked":9782,"▁westward":9783,"▁Jonathan":9784,"▁Ridge":9785,"▁useful":9786,"▁waiting":9787,"▁tight":9788,"rose":9789,"▁circumstances":9790,"aughters":9791,"▁Bernard":9792,"▁Baseball":9793,"yler":9794,"▁curren":9795,"▁Players":9796,"▁Atlanta":9797,"▁Rihanna":9798,"aro":9799,"▁sket":9800,"▁coinc":9801,"▁surrend":9802,"▁meetings":9803,"▁drugs":9804,"▁101":9805,"▁battalions":9806,"itage":9807,"▁Chel":9808,"▁dollar":9809,"▁Hann":9810,"▁Abbey":9811,"▁sick":9812,"▁Johnny":9813,"▁institution":9814,"▁Nixon":9815,"▁phone":9816,"▁breat":9817,"▁civilian":9818,"▁layer":9819,"▁Wor":9820,"▁Territ":9821,"▁armour":9822,"▁readers":9823,"▁Ton":9824,"▁whilst":9825,"azing":9826,"▁Roll":9827,"▁gust":9828,"▁chamber":9829,"▁matters":9830,"▁casting":9831,"▁friendship":9832,"rings":9833,"▁tiss":9834,"▁Pil":9835,"emen":9836,"apolis":9837,"▁Juan":9838,"▁strengthened":9839,"▁horn":9840,"▁visiting":9841,"▁planets":9842,"▁holid":9843,"▁rub":9844,"▁Campaign":9845,"ng":9846,"inian":9847,"▁Maj":9848,"▁reconnaissance":9849,"▁168":9850,"mi":9851,"▁retain":9852,"▁similarly":9853,"▁Pitts":9854,"▁simultaneously":9855,"estone":9856,"▁Inn":9857,"▁Edwards":9858,"mingham":9859,"rint":9860,"▁Chen":9861,"▁Arnold":9862,"▁legacy":9863,"esses":9864,"▁alternate":9865,"▁demanded":9866,"LC":9867,"onomy":9868,"▁typhoon":9869,"▁Opp":9870,"rik":9871,"▁empt":9872,"▁Ay":9873,"▁Wag":9874,"▁panel":9875,"TW":9876,"acc":9877,"▁Ral":9878,"▁justice":9879,"gro":9880,"▁Lex":9881,"▁enlisted":9882,"arth":9883,"▁Soul":9884,"▁alive":9885,"▁insisted":9886,"▁Railroad":9887,"▁Iran":9888,"jan":9889,"▁revers":9890,"▁Prize":9891,"▁hook":9892,"▁Rub":9893,"estyle":9894,"▁shipping":9895,"▁McM":9896,"▁Madag":9897,"▁Keith":9898,"▁Jimmy":9899,"rov":9900,"▁roots":9901,"▁neighb":9902,"▁revenue":9903,"entle":9904,"▁promised":9905,"▁demands":9906,"▁bombing":9907,"▁Internet":9908,"▁Sem":9909,"▁personally":9910,"▁lanes":9911,"▁athletes":9912,"▁Rachel":9913,"▁console":9914,"▁propag":9915,"▁Micro":9916,"aration":9917,"▁mainland":9918,"▁drivers":9919,"▁struggled":9920,"▁definition":9921,"▁looks":9922,"▁portions":9923,"▁pione":9924,"▁Pars":9925,"▁backed":9926,"▁continu":9927,"▁audition":9928,"▁orchestra":9929,"▁behaviour":9930,"lain":9931,"▁sung":9932,"ghan":9933,"▁Jar":9934,"▁diver":9935,"▁Cost":9936,"▁Shaw":9937,"acre":9938,"▁artific":9939,"▁guilty":9940,"▁guitarist":9941,"▁Yankees":9942,"▁μ":9943,"otyp":9944,"▁Bach":9945,"▁jobs":9946,"▁166":9947,"▁marketing":9948,"odox":9949,"▁oblig":9950,"▁armies":9951,"arant":9952,"agh":9953,"regation":9954,"▁Fat":9955,"▁surpass":9956,"▁Gray":9957,"▁Birmingham":9958,"▁demolished":9959,"▁Tracy":9960,"▁dancing":9961,"itis":9962,"▁Lost":9963,"▁starring":9964,"▁Furthermore":9965,"▁Mans":9966,"▁ruling":9967,"▁cup":9968,"iti":9969,"▁indu":9970,"ication":9971,"inding":9972,"▁feels":9973,"▁Nine":9974,"▁Vik":9975,"atern":9976,"▁Obama":9977,"▁Hugh":9978,"▁Fel":9979,"▁compens":9980,"azines":9981,"▁increases":9982,"▁profile":9983,"▁factory":9984,"▁Constant":9985,"▁Eventually":9986,"avery":9987,"▁compliment":9988,"▁essential":9989,"▁109":9990,"▁punk":9991,"▁Sak":9992,"▁mining":9993,"▁heading":9994,"▁Universal":9995,"▁theater":9996,"▁counties":9997,"▁Canter":9998,"folk":9999,"▁pages":10000,"▁Sig":10001,"▁obst":10002,"▁expression":10003,"▁organisation":10004,"▁McCartney":10005,"▁Enterprise":10006,"▁pursue":10007,"ouver":10008,"▁discont":10009,"▁believing":10010,"▁affect":10011,"▁discovers":10012,"umps":10013,"apped":10014,"raction":10015,"▁patron":10016,"▁delivery":10017,"▁bonus":10018,"▁multipl":10019,"▁Baker":10020,"▁Buddh":10021,"▁Phoenix":10022,"▁salt":10023,"▁Jup":10024,"▁clothing":10025,"▁173":10026,"▁Comple":10027,"▁stick":10028,"▁ports":10029,"▁succeed":10030,"▁Hudson":10031,"▁Tol":10032,"py":10033,"▁Publ":10034,"▁mobile":10035,"▁sad":10036,"▁Kl":10037,"▁crest":10038,"fle":10039,"▁elevation":10040,"▁K.":10041,"▁acou":10042,"▁kiss":10043,"▁Bobby":10044,"▁Wayne":10045,"▁Karl":10046,"cles":10047,"ultan":10048,"▁Girls":10049,"▁Connectic":10050,"▁Si":10051,"▁Pearl":10052,"▁drink":10053,"▁secretary":10054,"▁doubt":10055,"▁Impact":10056,"▁Madagascar":10057,"▁sq":10058,"▁accum":10059,"▁forecast":10060,"▁orn":10061,"▁engage":10062,"tario":10063,"▁horiz":10064,"▁Todd":10065,"▁Connecticut":10066,"bird":10067,"▁Peace":10068,"▁Defence":10069,"▁democr":10070,"▁chest":10071,"▁Bosn":10072,"OS":10073,"irty":10074,"▁altered":10075,"aux":10076,"▁Morrison":10077,"▁overseas":10078,"▁mayor":10079,"▁baby":10080,"▁Hold":10081,"▁Rights":10082,"▁deterior":10083,"inces":10084,"▁listen":10085,"▁Patt":10086,"ello":10087,"▁Ontario":10088,"▁expand":10089,"▁Deb":10090,"owed":10091,"▁Kit":10092,"▁defences":10093,"▁erected":10094,"▁renov":10095,"▁Potter":10096,"▁Diam":10097,"▁cancel":10098,"warf":10099,"asant":10100,"irts":10101,"▁voy":10102,"shore":10103,"▁stress":10104,"▁compounds":10105,"▁settlers":10106,"▁Friday":10107,"▁musician":10108,"▁Canterbury":10109,"mund":10110,"pent":10111,"oker":10112,"acked":10113,"▁Works":10114,"stan":10115,"▁Goth":10116,"▁legislature":10117,"mat":10118,"▁pale":10119,"▁Spart":10120,"▁Manu":10121,"▁Ran":10122,"▁objective":10123,"yrus":10124,"▁Community":10125,"▁Leonard":10126,"▁Farm":10127,"▁152":10128,"▁decisions":10129,"▁raising":10130,"▁highways":10131,"▁aerial":10132,"▁liquid":10133,"oons":10134,"▁disl":10135,"▁conversion":10136,"aks":10137,"▁Allies":10138,"▁solar":10139,"▁aftermath":10140,"▁soldier":10141,"▁concentration":10142,"▁scen":10143,"ensively":10144,"▁campaigns":10145,"rous":10146,"▁Bath":10147,"▁sitting":10148,"▁Cycl":10149,"▁AS":10150,"▁indicating":10151,"▁conspir":10152,"▁happ":10153,"ulous":10154,"ifies":10155,"▁exactly":10156,"▁NAS":10157,"▁hidden":10158,"▁prove":10159,"▁Foreign":10160,"▁organised":10161,"▁wealthy":10162,"▁acknowledged":10163,"aments":10164,"▁Pruss":10165,"▁permitted":10166,"▁danger":10167,"▁wrestling":10168,"▁trouble":10169,"▁radical":10170,"oa":10171,"▁Lat":10172,"▁Kan":10173,"▁improvements":10174,"▁dissipated":10175,"▁Griff":10176,"▁realized":10177,"▁ski":10178,"▁striking":10179,"▁graduated":10180,"▁dressed":10181,"▁Windows":10182,"▁Napoleon":10183,"▁Ted":10184,"▁Boys":10185,"▁appropriate":10186,"▁confron":10187,"▁execution":10188,".e":10189,"ratropical":10190,"▁anth":10191,"▁meter":10192,"▁Ze":10193,"▁UEFA":10194,"▁Py":10195,"▁observations":10196,"▁mac":10197,"▁raids":10198,"▁lin":10199,"▁Legend":10200,"uese":10201,"▁profit":10202,"▁Outstanding":10203,"▁encl":10204,"▁removal":10205,"▁interpretation":10206,"▁Laur":10207,"▁fewer":10208,"▁travels":10209,"otte":10210,"▁sky":10211,"▁celebrated":10212,"▁venue":10213,"▁net":10214,"▁sharp":10215,"▁publications":10216,"▁initiated":10217,"▁aggressive":10218,"▁Vanc":10219,"▁Season":10220,"▁turret":10221,"▁Gary":10222,"▁theatrical":10223,"▁chapel":10224,"atus":10225,"▁publishing":10226,"▁requires":10227,"▁evacuated":10228,"▁jurisd":10229,"inister":10230,"ivation":10231,"▁Lion":10232,"▁Vancouver":10233,"▁Dall":10234,"▁debt":10235,"itudes":10236,"▁founding":10237,"▁origins":10238,"▁Mint":10239,"▁originated":10240,"▁tort":10241,"itals":10242,"ipper":10243,"▁172":10244,"▁stationed":10245,"▁cannon":10246,"▁Gate":10247,"▁explan":10248,"▁Symph":10249,"▁connect":10250,"▁Edin":10251,"▁brill":10252,"▁Jupiter":10253,"olly":10254,"▁defending":10255,"▁Abd":10256,"▁establishing":10257,"run":10258,"▁supple":10259,"ugg":10260,"▁mush":10261,"▁considering":10262,"▁steps":10263,"▁rebellion":10264,"▁shorter":10265,"▁arrangements":10266,"▁announcement":10267,"adier":10268,"▁Mem":10269,"▁Champions":10270,"▁cutting":10271,"▁Pakistan":10272,"▁bones":10273,"▁Mountains":10274,"▁fantasy":10275,"▁guarant":10276,"annon":10277,"▁magic":10278,"itively":10279,"rapped":10280,"▁Drive":10281,"OT":10282,"▁TNA":10283,"▁Lib":10284,"▁magazines":10285,"▁connecting":10286,"autical":10287,"▁aspect":10288,"▁Tit":10289,"▁Cov":10290,"▁err":10291,"▁approaching":10292,"▁Bradman":10293,"ais":10294,"▁memor":10295,"▁Champion":10296,"aja":10297,"▁extratropical":10298,"▁hosts":10299,"▁donated":10300,"▁walking":10301,"▁Æthel":10302,"▁ing":10303,"▁placing":10304,"phone":10305,"ennium":10306,"▁strategic":10307,"▁Our":10308,"▁insects":10309,"▁Portuguese":10310,"▁lying":10311,"▁Triple":10312,"▁Administration":10313,"▁e.":10314,"▁ongoing":10315,"▁Len":10316,"▁discussion":10317,"hears":10318,"▁104":10319,"▁funny":10320,"▁colleagues":10321,"▁talent":10322,"▁Ship":10323,"▁cub":10324,"▁Stu":10325,"▁edited":10326,"▁youngest":10327,"▁glac":10328,"▁Alice":10329,"▁predict":10330,"▁closest":10331,"▁mal":10332,"▁qualified":10333,"▁hypothes":10334,"▁gathered":10335,"▁forth":10336,"▁battlecru":10337,"▁tubes":10338,"asa":10339,"▁decide":10340,"▁Trophy":10341,"▁volumes":10342,"ecution":10343,"▁Joy":10344,"▁putting":10345,"▁landscape":10346,"▁rede":10347,"▁indicates":10348,"▁coup":10349,"▁watershed":10350,"onium":10351,"adal":10352,"▁strongest":10353,"▁switch":10354,"▁withdrawal":10355,"▁Dwight":10356,"bow":10357,"fts":10358,"▁Gene":10359,"venth":10360,"▁Isa":10361,"▁1893":10362,"▁angle":10363,"▁forg":10364,"▁caps":10365,"▁supplied":10366,"hous":10367,"▁markets":10368,"▁identify":10369,"▁gray":10370,"▁les":10371,"▁exposure":10372,"▁circle":10373,"▁Marvel":10374,"▁Fleming":10375,"▁neighbour":10376,"▁desert":10377,"▁specimen":10378,"▁confront":10379,"▁merely":10380,"▁collapsed":10381,"atra":10382,"▁Ches":10383,"▁Pap":10384,"▁Anc":10385,"▁1896":10386,"▁partial":10387,"▁challenged":10388,"earing":10389,"elta":10390,"▁Reserve":10391,"▁Honor":10392,"▁beam":10393,"▁Dub":10394,"anner":10395,"▁density":10396,"▁Hampshire":10397,"▁NCAA":10398,"▁brig":10399,"▁Mission":10400,"▁Edinburgh":10401,"▁cock":10402,"▁bare":10403,"▁shift":10404,"avel":10405,"▁visits":10406,"▁limits":10407,"▁dubbed":10408,"▁spac":10409,"▁feeding":10410,"join":10411,"▁Pam":10412,"▁Stri":10413,"▁Oliver":10414,"▁hydrogen":10415,"▁Bak":10416,"▁provision":10417,"g.":10418,"soft":10419,"ieth":10420,"▁Those":10421,"agger":10422,"▁clin":10423,"▁prize":10424,"▁educational":10425,"▁conventional":10426,"▁Dod":10427,"▁Meteor":10428,"▁Beng":10429,"▁plain":10430,"enna":10431,"ista":10432,"▁Somet":10433,"▁Flying":10434,"▁seized":10435,"ocy":10436,"athers":10437,"▁Afghan":10438,"▁duo":10439,"▁Years":10440,"▁annually":10441,"▁Tob":10442,"▁bearing":10443,"▁corps":10444,"▁concentrated":10445,"▁topped":10446,"irates":10447,"otal":10448,"▁exha":10449,"▁marry":10450,"▁membership":10451,"▁champions":10452,"▁1898":10453,"amental":10454,"▁attending":10455,"▁Say":10456,"iper":10457,"▁assembly":10458,"▁parody":10459,"▁bacter":10460,"▁ranges":10461,"▁Mosc":10462,"▁Charts":10463,"▁dogs":10464,"hard":10465,"▁Natural":10466,"▁offense":10467,"▁navy":10468,"▁Type":10469,"▁furn":10470,"arr":10471,"▁Tig":10472,"▁emphasis":10473,"▁Pin":10474,"▁Princip":10475,"▁Monte":10476,"igenous":10477,"▁111":10478,"▁weekly":10479,"▁Begin":10480,"▁productions":10481,"▁exercise":10482,"▁unless":10483,"▁legit":10484,"▁talking":10485,"▁ticket":10486,"▁Meg":10487,"▁investigate":10488,"▁List":10489,"▁N.":10490,"▁trough":10491,"▁Kap":10492,"▁basin":10493,"▁350":10494,"▁anime":10495,"▁Finally":10496,"▁Ralph":10497,"ür":10498,"▁promotional":10499,"▁cruc":10500,"olve":10501,"terior":10502,"▁Victorian":10503,"▁bond":10504,"▁Personal":10505,"▁bone":10506,"▁Democrats":10507,"▁jury":10508,"▁portrayal":10509,"▁Ax":10510,"▁Mand":10511,"oys":10512,"▁Deep":10513,"▁Yorkshire":10514,"▁ceased":10515,"▁fortress":10516,"▁flooded":10517,"uzzle":10518,"erk":10519,"▁127":10520,"▁advertising":10521,"▁fill":10522,"▁Celt":10523,"▁Om":10524,"▁regime":10525,"▁Argentina":10526,"▁uncom":10527,"ported":10528,"▁conservation":10529,"rising":10530,"▁uncle":10531,"▁birthday":10532,"▁Lloyd":10533,"onica":10534,"▁Pink":10535,"▁Ko":10536,"▁invent":10537,"▁coff":10538,"▁employment":10539,"▁persons":10540,"▁MS":10541,"▁output":10542,"▁queen":10543,"▁Convention":10544,"▁ballad":10545,"▁sending":10546,"▁Where":10547,"▁Christianity":10548,"▁attitude":10549,"▁experimental":10550,"▁Village":10551,"▁photographs":10552,"▁bishop":10553,"▁eval":10554,"▁software":10555,"▁1940s":10556,"▁Brothers":10557,"▁hitting":10558,"▁questioned":10559,"▁Haz":10560,"▁Jerry":10561,"aders":10562,"ović":10563,"▁guide":10564,"▁Overall":10565,"▁Tak":10566,"▁163":10567,"▁provincial":10568,"▁Chronicle":10569,"▁Lt":10570,"▁scattered":10571,"pled":10572,"▁drinking":10573,"▁translation":10574,"▁aggreg":10575,"▁Prop":10576,"▁unclear":10577,"▁underwent":10578,"▁mature":10579,"▁Fund":10580,"▁Kam":10581,"hammad":10582,"▁1899":10583,"▁overwhel":10584,"hin":10585,"▁outd":10586,"▁endors":10587,"▁replied":10588,"▁assembled":10589,"▁cousin":10590,"ications":10591,"rapy":10592,"▁Collins":10593,"▁cens":10594,"▁papers":10595,"▁Mong":10596,"▁clock":10597,"▁representatives":10598,"▁liberal":10599,"▁coat":10600,"▁Prim":10601,"▁lawyer":10602,"▁Craig":10603,"▁swimming":10604,"ashes":10605,"▁Marge":10606,"▁Cad":10607,"ayan":10608,"rawn":10609,"▁external":10610,"▁commentary":10611,"▁wire":10612,"ologies":10613,"▁proclaim":10614,"▁Apoll":10615,"▁Andre":10616,"▁thirteen":10617,"▁imagery":10618,"▁Finland":10619,"▁stere":10620,"aft":10621,"▁shr":10622,"▁trail":10623,"▁monaster":10624,"▁Books":10625,"▁empire":10626,"▁comprom":10627,"assador":10628,"▁Maya":10629,"▁wait":10630,"▁loved":10631,"▁Glen":10632,"▁Howe":10633,"▁Gor":10634,"▁lawsu":10635,"▁terrain":10636,"▁acoustic":10637,"idal":10638,"▁slave":10639,"▁pictures":10640,"▁exclusive":10641,"▁duration":10642,"▁NO":10643,"▁electricity":10644,"imm":10645,"▁streak":10646,"▁daughters":10647,"amas":10648,"▁movies":10649,"▁108":10650,"owski":10651,"▁sang":10652,"▁Eug":10653,"▁devast":10654,"▁Turner":10655,"ioc":10656,"▁cad":10657,"▁Wii":10658,"▁accompanying":10659,"▁expert":10660,"▁branches":10661,"▁surrendered":10662,"ersed":10663,"▁arrives":10664,"▁tenure":10665,"atever":10666,"ensed":10667,"▁stronger":10668,"▁identical":10669,"▁Sle":10670,"▁Jun":10671,"pler":10672,"▁burial":10673,"▁Hardy":10674,"▁succession":10675,"▁Pad":10676,"▁Similarly":10677,"▁dread":10678,"aman":10679,"▁beats":10680,"riors":10681,"▁Norfolk":10682,"▁Queensland":10683,"▁reverse":10684,"▁components":10685,"▁charter":10686,"▁Protest":10687,"▁169":10688,"▁Heritage":10689,"▁Jama":10690,"▁Boat":10691,"▁reducing":10692,"▁prices":10693,"▁scar":10694,"▁reveal":10695,"▁e.g.":10696,"▁Sign":10697,"ellation":10698,"place":10699,"▁reinforcements":10700,"rod":10701,"▁Burton":10702,"▁Hawaii":10703,"erg":10704,"▁Din":10705,"▁prev":10706,"▁trading":10707,"▁Belgian":10708,"▁penet":10709,"▁Nicholas":10710,"▁Professor":10711,"illes":10712,"▁spaces":10713,"▁destroying":10714,"▁push":10715,"▁Ric":10716,"▁failing":10717,"▁mechanical":10718,".e.":10719,"▁competing":10720,"▁isot":10721,"▁recall":10722,"▁Beaut":10723,"▁exclusively":10724,"olen":10725,"▁Communist":10726,"▁Bennett":10727,"▁component":10728,"▁quad":10729,"▁stops":10730,"▁atomic":10731,"eyer":10732,"▁Rangers":10733,"▁myst":10734,"▁Cricket":10735,"▁Davies":10736,"▁counterp":10737,"▁Services":10738,"hell":10739,"err":10740,"onian":10741,"▁slavery":10742,"▁Emmy":10743,"▁precipitation":10744,"▁dict":10745,"▁Lock":10746,"▁developers":10747,"▁Vincent":10748,"▁Dak":10749,"ricts":10750,"▁devices":10751,"▁fossil":10752,"ibilities":10753,"▁polar":10754,"▁governments":10755,"▁traded":10756,"esty":10757,"▁Credits":10758,"▁Catherine":10759,"▁i.e.":10760,"case":10761,"▁reward":10762,"▁mini":10763,"▁confirm":10764,"▁pole":10765,"▁elig":10766,"▁consistent":10767,"▁Liberal":10768,"▁banned":10769,"uras":10770,"▁Living":10771,"abe":10772,"▁Thunder":10773,"▁centers":10774,"▁Medical":10775,"▁wish":10776,"▁Yellow":10777,"▁varied":10778,"▁Swift":10779,"▁obsc":10780,"▁flowers":10781,"▁Malt":10782,"▁Dram":10783,"▁artificial":10784,"▁Lem":10785,"IV":10786,"▁tube":10787,"▁pel":10788,"▁Ni":10789,"▁radiation":10790,"▁Hughes":10791,"▁waste":10792,"▁Hob":10793,"▁Rud":10794,"▁considers":10795,"▁redes":10796,"▁platforms":10797,"▁virus":10798,"▁tomb":10799,"▁incom":10800,"▁Local":10801,"▁Transportation":10802,"▁bath":10803,"▁Curt":10804,"▁Look":10805,"▁ow":10806,"▁vs.":10807,"▁Donald":10808,"legraph":10809,"▁contribution":10810,"▁disb":10811,"▁electrical":10812,"▁earthquake":10813,"pike":10814,"▁Tax":10815,"ethel":10816,"▁Guitar":10817,"itarian":10818,"▁hybrid":10819,"▁Training":10820,"▁burned":10821,"▁Must":10822,"angel":10823,"▁1897":10824,"▁Prix":10825,"▁humor":10826,"▁architectural":10827,"▁songwriter":10828,"▁reviewed":10829,"▁ecc":10830,"▁proceeded":10831,"▁fourteen":10832,"▁boilers":10833,"▁Next":10834,"▁profession":10835,"▁Market":10836,"▁advised":10837,"rastructure":10838,"▁understood":10839,"onald":10840,"▁frequency":10841,"▁Peters":10842,"▁Harvard":10843,"▁handled":10844,"enesis":10845,"▁intersects":10846,"▁talks":10847,"gs":10848,"▁CO":10849,"acles":10850,"▁destroyer":10851,"▁improvement":10852,"▁lie":10853,"▁heir":10854,"▁Bald":10855,"▁amateur":10856,"▁copper":10857,"▁Ara":10858,"▁Darwin":10859,"▁Saxon":10860,"▁texts":10861,"MI":10862,"rost":10863,"▁requirements":10864,"▁theore":10865,"ön":10866,"▁conceived":10867,"▁Swiss":10868,"▁samples":10869,"uating":10870,"asm":10871,"▁Dyn":10872,"▁106":10873,"▁conflic":10874,"▁phrase":10875,"TS":10876,"▁induct":10877,"▁portr":10878,"itely":10879,"▁investment":10880,"▁Cameron":10881,"▁rein":10882,"▁Kate":10883,"▁Blu":10884,"▁sixteen":10885,"▁referring":10886,"▁reduction":10887,"▁Moscow":10888,"bal":10889,"mith":10890,"▁shares":10891,"ensis":10892,"▁Oslo":10893,"encing":10894,"▁users":10895,"ulty":10896,"▁recon":10897,"▁airfield":10898,"▁Gallery":10899,"▁Pittsburgh":10900,"eding":10901,"▁worn":10902,"umble":10903,"▁charity":10904,"▁certainly":10905,"rehens":10906,"▁weigh":10907,"axy":10908,"▁Harbor":10909,"▁voting":10910,"▁Indonesia":10911,"▁Pic":10912,"▁respective":10913,"▁cleared":10914,"▁167":10915,"▁praising":10916,"▁soph":10917,"▁Phys":10918,"▁Geoff":10919,"▁parks":10920,"▁labour":10921,"▁Craw":10922,"▁constitutional":10923,"eto":10924,"▁exceed":10925,"strong":10926,"▁lock":10927,"▁nit":10928,"▁Inv":10929,"▁154":10930,"▁connections":10931,"▁photography":10932,"▁flows":10933,"▁tactics":10934,"▁AM":10935,"▁grossing":10936,"▁spoken":10937,"▁toured":10938,"ffield":10939,"▁qualifying":10940,"haw":10941,"▁blind":10942,"▁survival":10943,"ingham":10944,"tery":10945,"etheless":10946,"eping":10947,"▁autumn":10948,"▁shoulder":10949,"▁Terry":10950,"▁sweet":10951,"gom":10952,"rh":10953,"avor":10954,"▁continuous":10955,"▁fisher":10956,"▁Ali":10957,"▁ruler":10958,"▁reorgan":10959,"▁stuff":10960,"▁Alaska":10961,"▁commenced":10962,"▁commanding":10963,"ean":10964,"▁PS":10965,"▁Antonio":10966,"▁nautical":10967,"▁Mond":10968,"▁Mason":10969,"▁patients":10970,"▁Tow":10971,"▁unw":10972,"▁confidence":10973,"▁taxes":10974,"▁legislative":10975,"▁Broadcast":10976,"▁tonnes":10977,"▁unlik":10978,"▁fold":10979,"icated":10980,"▁opportunities":10981,"▁enthusi":10982,"▁fasc":10983,"▁exists":10984,"▁attorney":10985,"▁transported":10986,"▁Wallace":10987,"▁Sweet":10988,"▁Rest":10989,"▁signature":10990,"▁communist":10991,"▁Som":10992,"▁competitive":10993,"▁camps":10994,"▁uranium":10995,"▁Microsoft":10996,"▁relocated":10997,"▁translated":10998,"hum":10999,"▁nat":11000,"▁'A":11001,"▁melody":11002,"pot":11003,"▁JTW":11004,"▁Still":11005,"▁JTWC":11006,"ario":11007,"▁Mayor":11008,"▁Stef":11009,"▁tested":11010,"▁Got":11011,"▁Ent":11012,"▁indeed":11013,"▁minority":11014,"▁Upper":11015,"porting":11016,"▁Syria":11017,"▁rocks":11018,"▁reinforced":11019,"▁fulf":11020,"▁AP":11021,"▁Aftermath":11022,"▁traveling":11023,"▁Sid":11024,"▁HD":11025,"ashi":11026,"▁Clay":11027,"▁fairly":11028,"▁sovereign":11029,"▁moon":11030,"illo":11031,"cester":11032,"▁dece":11033,"▁commanders":11034,"▁revised":11035,"▁revolt":11036,"minster":11037,"▁pairs":11038,"▁1890":11039,"ambers":11040,"▁Past":11041,"▁noble":11042,"▁Ori":11043,"▁impression":11044,"▁cartoon":11045,"bes":11046,"▁RP":11047,"▁Emer":11048,"▁Grace":11049,"▁manga":11050,"▁explicit":11051,"expected":11052,"▁uncon":11053,"▁withdrawn":11054,"▁Stars":11055,"▁Sheffield":11056,"▁crops":11057,"▁Aer":11058,"anger":11059,"▁See":11060,"▁blues":11061,"▁Adv":11062,"▁Exper":11063,"▁programming":11064,"tes":11065,"▁accord":11066,"urricanes":11067,"ye":11068,"▁dischar":11069,"▁extending":11070,"▁Israeli":11071,"▁Larry":11072,"eared":11073,"▁fram":11074,"▁Ec":11075,"▁displaced":11076,"▁Ru":11077,"▁Fr":11078,"oca":11079,"▁experiments":11080,"▁Security":11081,"▁hole":11082,"▁1895":11083,"▁Officer":11084,"▁Trail":11085,"▁principles":11086,"▁Luke":11087,"▁voices":11088,"▁pap":11089,"▁Half":11090,"▁promin":11091,"▁extinct":11092,"where":11093,"▁Cass":11094,"▁Fu":11095,"avia":11096,"▁provinces":11097,"▁chron":11098,"▁Vel":11099,"▁representation":11100,"▁magnitude":11101,"▁learns":11102,"cott":11103,"isive":11104,"▁conce":11105,"seud":11106,"▁characteristic":11107,"ussion":11108,"▁prisoner":11109,"▁enforce":11110,"oda":11111,"▁distant":11112,"▁catal":11113,"▁Jefferson":11114,"asks":11115,"uto":11116,"▁Osc":11117,"▁171":11118,"▁summ":11119,"▁Herald":11120,"▁GameS":11121,"▁culmin":11122,"▁Pictures":11123,"▁Dallas":11124,"▁sample":11125,"▁wonder":11126,"▁craft":11127,"▁abuse":11128,"▁marine":11129,"▁lights":11130,"▁Bryan":11131,"▁interpreted":11132,"▁Clarke":11133,"▁Johnston":11134,"lad":11135,"itious":11136,"▁Together":11137,"▁Cyrus":11138,"umph":11139,"▁warfare":11140,"▁nerv":11141,"car":11142,"aching":11143,"▁relatives":11144,"utton":11145,"▁compound":11146,"▁practical":11147,"rooms":11148,"▁hem":11149,"▁approaches":11150,"▁rivalry":11151,"▁id":11152,"▁herit":11153,"▁Quest":11154,"▁Mix":11155,"▁Austin":11156,"▁Guinea":11157,"▁victim":11158,"▁cuts":11159,"▁Malaysia":11160,"▁Performance":11161,"▁Daw":11162,"▁Chile":11163,"▁airing":11164,"▁Defense":11165,"▁displays":11166,"zed":11167,"▁102":11168,"▁traditions":11169,"▁judg":11170,"▁burning":11171,"▁proposals":11172,"▁shifted":11173,"▁bull":11174,"▁Owen":11175,"▁carries":11176,"▁skill":11177,"▁lighting":11178,"▁rehears":11179,"▁Wells":11180,"▁Orange":11181,"uez":11182,"▁warnings":11183,"▁Steel":11184,"▁Woman":11185,"▁Eis":11186,"▁chore":11187,"▁blocked":11188,"▁girlfriend":11189,"▁multiplayer":11190,"▁sings":11191,"▁restore":11192,"▁myster":11193,"▁Neil":11194,"▁graduate":11195,"▁medicine":11196,"▁Parsons":11197,"▁FBI":11198,"▁Nord":11199,"▁participation":11200,"▁Official":11201,"▁Greater":11202,"ationally":11203,"▁web":11204,"▁rebels":11205,"▁thunder":11206,"▁Eight":11207,"ags":11208,"▁mans":11209,"▁absent":11210,"▁transportation":11211,"▁preparing":11212,"▁121":11213,"▁scores":11214,"▁Falls":11215,"▁Priv":11216,"iciency":11217,"▁Liter":11218,"▁conven":11219,"▁march":11220,"▁Chelsea":11221,"alia":11222,"▁Tai":11223,"umped":11224,"▁valuable":11225,"▁Danish":11226,"▁interviews":11227,"▁CS":11228,"▁protests":11229,"▁cyclones":11230,"▁Formation":11231,"▁brilliant":11232,"▁wished":11233,"▁Sac":11234,"urd":11235,"▁riding":11236,"aha":11237,"▁salary":11238,"▁Classic":11239,"▁filmm":11240,"▁Nev":11241,"len":11242,"merce":11243,"▁passion":11244,"▁salv":11245,"▁Armstrong":11246,"▁Description":11247,"yd":11248,"▁pier":11249,"▁Sega":11250,"▁Brazilian":11251,"▁unlikely":11252,"▁creek":11253,"▁Hav":11254,"▁infl":11255,"▁recovery":11256,"▁McKin":11257,"leans":11258,"berry":11259,"▁cabinet":11260,"▁Eve":11261,"ocity":11262,"▁Quebec":11263,"▁maintaining":11264,"▁Fisher":11265,"▁districts":11266,"▁Beginning":11267,"aters":11268,"▁162":11269,"▁Studio":11270,"▁AT":11271,"▁Rena":11272,"▁Greatest":11273,"▁reforms":11274,"▁cinema":11275,"▁fest":11276,"▁Yam":11277,"▁intervention":11278,"▁garn":11279,"▁arguing":11280,"▁estimates":11281,"▁courses":11282,"▁grandfather":11283,"▁drummer":11284,"▁Fourth":11285,"▁Kaiser":11286,"▁racial":11287,"▁contend":11288,"▁clar":11289,"▁amph":11290,"▁aft":11291,"▁beneath":11292,"▁recurring":11293,"▁Actor":11294,"▁Salt":11295,"▁Rio":11296,"▁Ga":11297,"▁releg":11298,"▁Spirit":11299,"▁significance":11300,"▁petition":11301,"▁vulnerable":11302,"▁eating":11303,"▁NS":11304,"aze":11305,"▁kills":11306,"▁towers":11307,"▁Link":11308,"▁Eff":11309,"▁upset":11310,"▁advertis":11311,"▁accurate":11312,"eston":11313,"ource":11314,"uri":11315,"▁Il":11316,"▁Gay":11317,"▁diverse":11318,"▁Eth":11319,"▁valid":11320,"aser":11321,"lete":11322,"▁Cathedral":11323,"▁Authority":11324,"▁Plant":11325,"▁statistics":11326,"▁communications":11327,"▁Constantin":11328,"▁O.":11329,"▁Agency":11330,"▁Vers":11331,"▁Reich":11332,"▁sponsored":11333,"▁cant":11334,"onge":11335,"▁paras":11336,"▁applications":11337,"▁hind":11338,"beat":11339,"▁Susan":11340,"▁Jr.":11341,"▁clothes":11342,"▁Orleans":11343,"nt":11344,"iar":11345,"▁shock":11346,"▁answ":11347,"▁Kane":11348,"osexual":11349,"▁numbered":11350,"▁efficient":11351,"▁Utah":11352,"▁Poly":11353,"▁unexpected":11354,"achute":11355,"▁airline":11356,"▁Harold":11357,"▁Cultural":11358,"▁Mend":11359,"▁Ivan":11360,"abilities":11361,"▁surve":11362,"▁Serbian":11363,"▁Globe":11364,"▁toler":11365,"▁Sug":11366,"▁Junior":11367,"▁158":11368,"▁steep":11369,"▁morph":11370,"▁sacrif":11371,"▁decorated":11372,"▁CBS":11373,"▁Amb":11374,"▁shallow":11375,"utor":11376,"▁inclusion":11377,"▁lasting":11378,"itate":11379,"▁faces":11380,"▁essentially":11381,"▁answer":11382,"ucker":11383,"wright":11384,"▁tale":11385,"▁pm":11386,"▁mate":11387,"▁gender":11388,"▁Scar":11389,"▁iP":11390,"▁FIFA":11391,"ét":11392,"erver":11393,"▁consolid":11394,"▁113":11395,"▁1861":11396,"▁surprised":11397,"ME":11398,"ipped":11399,"affe":11400,"▁161":11401,"▁charted":11402,"ATO":11403,"▁mood":11404,"oting":11405,"▁chronic":11406,"▁jet":11407,"▁Richmond":11408,"▁1889":11409,"▁emotion":11410,"▁liner":11411,"▁Panzer":11412,"▁Muhammad":11413,"▁′":11414,"▁deeply":11415,"OC":11416,"mn":11417,"▁Newton":11418,"▁beaten":11419,"rary":11420,"▁theories":11421,"asha":11422,"▁squadrons":11423,"▁MI":11424,"landers":11425,"anche":11426,"▁1894":11427,"▁ratio":11428,"▁fate":11429,"▁merged":11430,"▁Province":11431,"dess":11432,"hers":11433,"▁manage":11434,"▁summit":11435,"▁potentially":11436,"▁Constantine":11437,"aiden":11438,"oria":11439,"▁drafted":11440,"keeper":11441,"▁Republicans":11442,"▁suspic":11443,"▁Tyler":11444,"▁153":11445,"levard":11446,"▁tours":11447,"castle":11448,"▁processes":11449,"▁ho":11450,"iko":11451,"▁Scientology":11452,"vet":11453,"▁Pok":11454,"▁grave":11455,"reated":11456,"▁Minor":11457,"▁swit":11458,"▁1891":11459,"▁proportion":11460,"akh":11461,"▁crimes":11462,"Arthur":11463,"▁descent":11464,"▁Stuart":11465,"▁sentence":11466,"▁dancers":11467,"▁dual":11468,"enson":11469,"▁demo":11470,"▁1000":11471,"▁Ferr":11472,"▁beating":11473,"opp":11474,"▁scr":11475,"▁YouT":11476,"▁merc":11477,"▁civilians":11478,"▁segments":11479,"▁persuaded":11480,"▁dense":11481,"▁Fighter":11482,"▁beauty":11483,"▁dim":11484,"ocation":11485,"▁funded":11486,"▁implemented":11487,"▁heritage":11488,"▁hills":11489,"▁bell":11490,"▁boot":11491,"▁Ins":11492,"▁Orchest":11493,"▁accommodate":11494,"▁Apollo":11495,"▁YouTube":11496,"▁reactions":11497,"▁Picture":11498,"▁altitude":11499,"▁Product":11500,"▁Mrs.":11501,"▁Sout":11502,"▁manip":11503,"▁colors":11504,"▁XII":11505,"▁Bes":11506,"▁Full":11507,"és":11508,"▁presentation":11509,"▁golden":11510,"▁agriculture":11511,"▁Indonesian":11512,"▁wine":11513,"▁Buffalo":11514,"▁pip":11515,"▁Amendment":11516,"▁structural":11517,"▁complained":11518,"born":11519,"▁rib":11520,"▁Tang":11521,"istent":11522,"▁proof":11523,"aping":11524,"▁feared":11525,"▁156":11526,"▁administer":11527,"▁1892":11528,"▁devoted":11529,"▁Alt":11530,"▁evident":11531,"▁columns":11532,"▁addressed":11533,"▁southeastern":11534,"▁Cardiff":11535,"▁nurs":11536,"▁requiring":11537,"▁sailing":11538,"▁dwarf":11539,"▁rejoin":11540,"▁Symphony":11541,"▁Sultan":11542,"boards":11543,"▁oriented":11544,"onsin":11545,"▁triang":11546,"▁Quar":11547,"▁Had":11548,"▁135":11549,"▁McN":11550,"▁breaks":11551,"▁Days":11552,"▁Conservation":11553,"▁fame":11554,"▁Wa":11555,"heric":11556,"▁Kyle":11557,"yself":11558,"▁observation":11559,"▁Hunter":11560,"▁AA":11561,"▁Wisc":11562,"▁error":11563,"▁1800":11564,"▁jack":11565,"▁tribe":11566,"▁truck":11567,"▁Burns":11568,"▁Brooks":11569,"▁voyage":11570,"sts":11571,"▁Wonder":11572,"▁Without":11573,"▁Ground":11574,"▁followers":11575,"▁recept":11576,"▁mythology":11577,"▁kidn":11578,"▁cards":11579,"isons":11580,"▁Sox":11581,"▁Register":11582,"▁interaction":11583,"▁pregnant":11584,"▁Johann":11585,"▁pink":11586,"▁Danny":11587,"▁confusion":11588,"▁judges":11589,"▁gene":11590,"▁Ruth":11591,"▁knee":11592,"ocket":11593,"▁researchers":11594,"▁rect":11595,"▁Aber":11596,"▁quarters":11597,"▁Electric":11598,"usalem":11599,"▁holiday":11600,"▁jurisdiction":11601,"▁Section":11602,"ulus":11603,"ospel":11604,"▁Cavalry":11605,"▁Walt":11606,"rific":11607,"gie":11608,"sor":11609,"▁Nature":11610,"▁Heb":11611,"▁intermedi":11612,"othy":11613,"▁operates":11614,"▁Islamic":11615,"▁Mall":11616,"▁suddenly":11617,"▁categories":11618,"▁Side":11619,"▁Pant":11620,"▁Prest":11621,"▁Until":11622,"▁diplomatic":11623,"anted":11624,"▁sugar":11625,"▁writings":11626,"▁240":11627,"▁commenting":11628,"▁superst":11629,"▁opens":11630,"izer":11631,"iously":11632,"osaurs":11633,"V.":11634,"nels":11635,"▁Fitz":11636,"arks":11637,"▁Actress":11638,"▁embarked":11639,"rob":11640,"▁Titan":11641,"lon":11642,"▁tension":11643,"▁Metropolitan":11644,"▁physics":11645,"▁⁄":11646,"▁Hope":11647,"▁advancing":11648,"▁sculpture":11649,"▁highlighted":11650,"cha":11651,"▁extensively":11652,"▁Airlines":11653,"▁1870":11654,"sburg":11655,"▁sized":11656,"▁Jerusalem":11657,"master":11658,"▁₹":11659,"▁fert":11660,"▁thrown":11661,"▁bears":11662,"▁Gang":11663,"oded":11664,"quest":11665,"▁assum":11666,"▁similarities":11667,"▁principle":11668,"▁Wisconsin":11669,"amount":11670,"▁gaining":11671,"imp":11672,"▁ages":11673,"▁studying":11674,"lington":11675,"▁Boeing":11676,"▁Justin":11677,"▁challenges":11678,"enos":11679,"▁mud":11680,"▁Bible":11681,"▁Abu":11682,"NC":11683,"▁tooth":11684,"urst":11685,"▁manif":11686,"▁Executive":11687,"▁Trade":11688,"▁drown":11689,"▁gardens":11690,"▁2000s":11691,"▁Edition":11692,"▁lifetime":11693,"HS":11694,"▁Kid":11695,"▁Start":11696,"▁Env":11697,"▁equally":11698,"▁sentenced":11699,"▁statements":11700,"I.":11701,"▁Meth":11702,"▁knocked":11703,"▁Legisl":11704,"▁Typhoon":11705,"▁infrastructure":11706,"▁m2":11707,"▁orange":11708,"▁fee":11709,"▁constitu":11710,"▁gift":11711,"▁rivals":11712,"▁locally":11713,"▁Barnes":11714,"▁Schum":11715,"▁educated":11716,"▁universal":11717,"▁disturbance":11718,"▁divorce":11719,"▁Crus":11720,"ín":11721,"thodox":11722,"pine":11723,"edia":11724,"▁Based":11725,"▁predators":11726,"▁Mind":11727,"▁traditionally":11728,"▁dealing":11729,"▁boundaries":11730,"osph":11731,"▁variation":11732,"▁Grade":11733,"▁priest":11734,"▁ties":11735,"▁gh":11736,"chi":11737,"▁Nas":11738,"▁Sean":11739,"▁sword":11740,"▁Independence":11741,"▁overlook":11742,"ancellor":11743,"atched":11744,"▁Miles":11745,"▁documented":11746,"▁Sud":11747,"▁explaining":11748,"▁empty":11749,"▁Trad":11750,"▁resolved":11751,"▁Baron":11752,"▁Montgom":11753,"▁Saturn":11754,"▁Montgomery":11755,"▁Bud":11756,"▁UC":11757,"▁1888":11758,"▁Attorney":11759,"▁stretch":11760,"▁receives":11761,"▁Patri":11762,"▁Rogers":11763,"▁rings":11764,"▁spawn":11765,"phan":11766,"▁Leaf":11767,"▁Century":11768,"▁villain":11769,"▁scre":11770,"▁enabled":11771,"▁settlements":11772,"piece":11773,"▁112":11774,"▁Control":11775,"ulsion":11776,"▁recruited":11777,"aple":11778,"▁supern":11779,"▁Scots":11780,"▁discontin":11781,"▁garnered":11782,"▁tape":11783,"▁forb":11784,"unning":11785,"▁1885":11786,"▁MacArthur":11787,"▁considerably":11788,"▁Turkey":11789,"▁travelling":11790,"ni":11791,"▁urg":11792,"▁Tu":11793,"▁Syn":11794,"▁naming":11795,"▁explore":11796,"▁commercially":11797,"▁benefits":11798,"▁cry":11799,"▁Cemetery":11800,"▁helps":11801,"▁tickets":11802,"▁lift":11803,"▁strand":11804,"▁Fact":11805,"ometric":11806,"▁hostile":11807,"backs":11808,"▁rescued":11809,"▁Wes":11810,"▁seas":11811,"▁smoke":11812,"▁options":11813,"▁Icel":11814,"▁crashed":11815,"▁substitute":11816,"▁ashore":11817,"▁Winn":11818,"▁involves":11819,"▁weakening":11820,"▁μm":11821,"▁Toy":11822,"rien":11823,"▁cliff":11824,"▁Lev":11825,"▁Christians":11826,"▁flex":11827,"▁Sherman":11828,"▁Pul":11829,"▁disorder":11830,"▁batted":11831,"▁dimin":11832,"▁guy":11833,"▁tasked":11834,"▁proteins":11835,"cut":11836,"▁Ages":11837,"▁Bert":11838,"▁concerning":11839,"D.":11840,"wald":11841,"▁dying":11842,"▁spar":11843,"▁housed":11844,"▁Movie":11845,"▁escorted":11846,"▁Pierre":11847,"uters":11848,"rift":11849,"rene":11850,"▁doors":11851,"▁detect":11852,"▁CP":11853,"▁assert":11854,"▁Midd":11855,"hill":11856,"▁styl":11857,"lights":11858,"agers":11859,"ovak":11860,"▁depicts":11861,"ellar":11862,"▁epic":11863,"▁Beh":11864,"▁Flore":11865,"zing":11866,"▁inning":11867,"▁vig":11868,"▁Spider":11869,"anne":11870,"▁circular":11871,"▁elaborate":11872,"▁innoc":11873,"▁pursuit":11874,"▁Baltic":11875,"▁borrow":11876,"▁volunteers":11877,"▁concurrent":11878,"▁Iceland":11879,"▁Cer":11880,"▁gods":11881,"▁Judge":11882,"▁Aren":11883,"▁Krist":11884,"gged":11885,"▁dinner":11886,"▁imprisoned":11887,"én":11888,"▁inhib":11889,"▁nut":11890,"▁Flow":11891,"▁Und":11892,"▁Management":11893,"sa":11894,"▁tel":11895,"▁reass":11896,"▁Ce":11897,"▁Fish":11898,"▁Fern":11899,"▁Thames":11900,"▁authorized":11901,"▁collections":11902,"▁Romney":11903,"▁warships":11904,"olar":11905,"▁Neb":11906,"▁Ref":11907,"▁editions":11908,"▁competitions":11909,"▁conflicts":11910,"▁teammate":11911,"▁Tourn":11912,"▁pursued":11913,"ía":11914,"▁Fil":11915,"▁Hearts":11916,"▁Athens":11917,"▁145":11918,"▁tempo":11919,"▁1865":11920,"▁Barbara":11921,"kh":11922,"▁pill":11923,"▁revival":11924,"lane":11925,"▁Stein":11926,"▁fra":11927,"▁liver":11928,"▁ramp":11929,"ardo":11930,"▁eventual":11931,"▁favourite":11932,"▁politicians":11933,"▁978":11934,"uction":11935,"ourag":11936,"▁Reagan":11937,"▁Evil":11938,"▁harbour":11939,"tains":11940,"▁virtually":11941,"▁Code":11942,"▁Crow":11943,"▁Bask":11944,"▁opposing":11945,"▁drain":11946,"▁Regional":11947,"▁Mang":11948,"▁conj":11949,"▁Comedy":11950,"▁screenplay":11951,"▁chemistry":11952,"▁urged":11953,"▁NATO":11954,"▁159":11955,"▁manufacturing":11956,"▁beliefs":11957,"▁Against":11958,"▁renewed":11959,"▁cam":11960,"▁Branch":11961,"▁Hunt":11962,"▁Pas":11963,"▁abroad":11964,"▁Zone":11965,"▁handling":11966,"▁veteran":11967,"▁Representatives":11968,"▁chase":11969,"▁census":11970,"▁Nancy":11971,"▁mixture":11972,"▁cable":11973,"▁Fight":11974,"▁portrait":11975,"▁velocity":11976,"▁stones":11977,"▁leaf":11978,"▁unve":11979,"▁117":11980,"cliff":11981,"▁examination":11982,"▁suspected":11983,"▁universities":11984,"ao":11985,"▁Sonic":11986,"▁Any":11987,"▁medals":11988,"eling":11989,"▁stolen":11990,"▁participants":11991,"▁congress":11992,"isition":11993,"▁rushing":11994,"ublin":11995,"▁verte":11996,"▁promise":11997,"gow":11998,"▁laps":11999,"▁Face":12000,"▁spur":12001,"▁Report":12002,"▁Tribune":12003,"onation":12004,"▁trailer":12005,"▁cow":12006,"roe":12007,"izz":12008,"arest":12009,"▁colours":12010,"▁Nova":12011,"▁possess":12012,"▁promoting":12013,"▁rendered":12014,"▁remembered":12015,"▁cattle":12016,"anim":12017,"▁thereby":12018,"▁organisms":12019,"ando":12020,"ridor":12021,"▁sharks":12022,"▁inherited":12023,"inery":12024,"▁Tru":12025,"▁Chad":12026,"▁V.":12027,"▁pitcher":12028,"mo":12029,"▁taste":12030,"▁apply":12031,"▁interven":12032,"▁Saf":12033,"▁comics":12034,"▁Newcastle":12035,"▁Portugal":12036,"▁sor":12037,"itic":12038,"▁Invest":12039,"▁capturing":12040,"▁Ernest":12041,"point":12042,"▁Gran":12043,"▁Bright":12044,"otion":12045,"▁trapped":12046,"▁decreased":12047,"▁loud":12048,"▁Draft":12049,"▁prox":12050,"ocal":12051,"▁decay":12052,"▁positively":12053,"▁114":12054,"▁tracked":12055,"▁costume":12056,"▁bombardment":12057,"▁tissue":12058,"▁118":12059,"▁Constantinople":12060,"▁vital":12061,"▁hopes":12062,"▁compositions":12063,"▁accidentally":12064,"▁inhab":12065,"▁Has":12066,"oba":12067,"▁rand":12068,"▁invaded":12069,"▁450":12070,"▁celebration":12071,"▁Wed":12072,"▁Glas":12073,"▁Magic":12074,"occ":12075,"▁prototype":12076,"▁blend":12077,"▁sav":12078,"ilda":12079,"▁Charlotte":12080,"▁juven":12081,"isan":12082,"▁Personnel":12083,"▁occasional":12084,"mont":12085,"▁warned":12086,"▁ib":12087,"▁maps":12088,"▁Shah":12089,"▁tornado":12090,"▁Mi":12091,"quer":12092,"▁links":12093,"erts":12094,"▁Pete":12095,"▁Heavyweight":12096,"▁Merced":12097,"▁hoping":12098,"▁José":12099,"limin":12100,"▁rains":12101,"▁1864":12102,"▁Liberty":12103,"▁variations":12104,"▁anticipated":12105,"idia":12106,"▁Joint":12107,"▁upcoming":12108,"▁Youth":12109,"icking":12110,"▁Chapel":12111,"▁Laboratory":12112,"▁Affairs":12113,"▁Environment":12114,"ampton":12115,"▁boyfriend":12116,"ovic":12117,"rible":12118,"▁Cornwall":12119,"▁Saw":12120,"▁Kon":12121,"▁Others":12122,"▁AL":12123,"▁bomber":12124,"▁Cryst":12125,"▁laugh":12126,"▁Voice":12127,"▁scandal":12128,"▁separation":12129,"▁Agu":12130,"▁batteries":12131,"bing":12132,"▁dust":12133,"▁dozen":12134,"▁provisions":12135,"▁marking":12136,"▁genu":12137,"▁laboratory":12138,"vo":12139,"▁sinking":12140,"▁rever":12141,"▁impressive":12142,"▁accessible":12143,"▁Freedom":12144,"colm":12145,"▁Cinem":12146,"▁guests":12147,"▁horizont":12148,"fly":12149,"igious":12150,"ulum":12151,"eps":12152,"auc":12153,"▁fires":12154,"▁Sic":12155,"▁Beth":12156,"rior":12157,"▁biological":12158,"▁easier":12159,"▁nose":12160,"▁RO":12161,"icken":12162,"▁Filming":12163,"▁dependent":12164,"▁nickname":12165,"▁Gon":12166,"DI":12167,"hou":12168,"restrial":12169,"▁Hom":12170,"▁supports":12171,"▁politician":12172,"agles":12173,"▁Vo":12174,"▁parliamentary":12175,"▁Friends":12176,"▁random":12177,"▁Chester":12178,"▁indigenous":12179,"▁threats":12180,"▁avoided":12181,"ER":12182,"orf":12183,"▁Term":12184,"ught":12185,"▁afford":12186,"▁consumption":12187,"▁lighter":12188,"▁Bapt":12189,"▁Marines":12190,"▁Leices":12191,"▁Armenian":12192,"held":12193,"▁therm":12194,"▁fed":12195,"rogen":12196,"artime":12197,"▁handle":12198,"enberg":12199,"▁progressed":12200,"▁'B":12201,"▁Duch":12202,"▁formula":12203,"▁eld":12204,"▁Kenneth":12205,"▁Cand":12206,"▁deputy":12207,"atsu":12208,"▁hyper":12209,"▁biography":12210,"▁restrictions":12211,"▁fier":12212,"▁Case":12213,"▁Members":12214,"▁DJ":12215,"ptic":12216,"▁volcanic":12217,"▁corporate":12218,"var":12219,"▁Cinc":12220,"▁Vick":12221,"ailing":12222,"▁Malcolm":12223,"▁Protestant":12224,"▁Oscar":12225,"▁Đ":12226,"amics":12227,"orted":12228,"▁nep":12229,"▁truly":12230,"▁cash":12231,"▁Tree":12232,"▁Bark":12233,"▁LP":12234,"▁imposed":12235,"▁XX":12236,"▁Meteorological":12237,"E.":12238,"▁toxic":12239,"▁Skin":12240,"amine":12241,"▁Bears":12242,"▁Peng":12243,"▁Thr":12244,"▁trunk":12245,"▁Energy":12246,"▁mixing":12247,"gé":12248,"▁fles":12249,"▁da":12250,"▁Mult":12251,"▁Lower":12252,"▁rugby":12253,"▁particles":12254,"▁occurring":12255,"▁Chamberlain":12256,"▁Pedro":12257,"▁Orchestra":12258,"lem":12259,"agg":12260,"▁usage":12261,"▁Boulevard":12262,"▁murdered":12263,"▁Cena":12264,"▁produces":12265,"▁Antar":12266,"▁Isaac":12267,"▁noticed":12268,"▁evacuation":12269,"▁license":12270,"ielder":12271,"etta":12272,"▁customers":12273,"changed":12274,"▁dreadn":12275,"▁wound":12276,"▁ine":12277,"▁por":12278,"▁contracts":12279,"▁defenders":12280,"▁MV":12281,"▁Dublin":12282,"▁Chair":12283,"acht":12284,"▁acre":12285,"racks":12286,"heimer":12287,"▁ERA":12288,"alling":12289,"▁exile":12290,"▁metric":12291,"▁131":12292,"oples":12293,"▁Than":12294,"ded":12295,"osy":12296,"iah":12297,"▁1862":12298,"▁cathedral":12299,"▁Take":12300,"▁Sex":12301,"▁Zero":12302,"▁choir":12303,"▁lawsuit":12304,"▁abb":12305,"▁relation":12306,"▁Athletic":12307,"▁prest":12308,"ju":12309,"▁wake":12310,"▁Action":12311,"▁Break":12312,"▁107":12313,"▁Room":12314,"▁Career":12315,"▁Cyclone":12316,"▁speculation":12317,"▁killer":12318,"▁Guild":12319,"▁ordinary":12320,"▁timber":12321,"▁intellectual":12322,"▁nephew":12323,"▁debris":12324,"▁engineers":12325,"▁hence":12326,"▁plates":12327,"▁Slav":12328,"▁angry":12329,"▁Bradley":12330,"▁depicting":12331,"▁Gabri":12332,"▁disappointed":12333,"▁Watch":12334,"▁Altern":12335,"▁Eddie":12336,"▁cu":12337,"▁aside":12338,"▁eastward":12339,"bach":12340,"▁fab":12341,"▁Glee":12342,"▁developments":12343,"▁threatening":12344,"▁kilog":12345,"▁ignored":12346,"▁conquest":12347,"▁Pel":12348,"emble":12349,"▁industries":12350,"▁Continental":12351,"▁encounters":12352,"▁decrease":12353,"▁Tournament":12354,"hl":12355,"▁lyrical":12356,"overed":12357,"▁territorial":12358,"▁Archbishop":12359,"▁throwing":12360,"▁complicated":12361,"for":12362,"▁Serbia":12363,"▁ward":12364,"▁mit":12365,"▁LS":12366,"▁chrom":12367,"▁Luft":12368,"▁mechanism":12369,"▁undertaken":12370,"▁revolutionary":12371,"▁thunderstorm":12372,"▁une":12373,"▁breast":12374,"▁Alberta":12375,"▁Cincinn":12376,"▁stern":12377,"umbered":12378,"▁vicinity":12379,"alg":12380,"▁mounts":12381,"▁Future":12382,"▁Ord":12383,"▁convicted":12384,"▁elite":12385,"▁strikes":12386,"▁humanity":12387,"▁touchdowns":12388,"▁Mann":12389,"osion":12390,"▁remin":12391,"▁157":12392,"▁132":12393,"▁confident":12394,"▁Tommy":12395,"▁conversation":12396,"▁Springfield":12397,"itol":12398,"▁mos":12399,"ieg":12400,"▁Micha":12401,"▁Metro":12402,"▁championships":12403,"▁exhibit":12404,"icing":12405,"entieth":12406,"aco":12407,"▁Villa":12408,"▁Collection":12409,"▁220":12410,"▁focuses":12411,"onial":12412,"▁penn":12413,"olia":12414,"▁Gates":12415,"▁unt":12416,"▁mammals":12417,"▁inaugural":12418,"▁contacted":12419,"▁Joan":12420,"▁entert":12421,"▁lacking":12422,"▁Tint":12423,"▁gif":12424,"▁realistic":12425,"▁suspension":12426,"▁preserve":12427,"▁boost":12428,"▁farmers":12429,"iture":12430,"itime":12431,"▁Place":12432,"▁Gibral":12433,"▁arose":12434,"encer":12435,"▁Veg":12436,"▁Shep":12437,"▁constantly":12438,"▁facil":12439,"▁Muslims":12440,"etary":12441,"▁metre":12442,"▁helicopter":12443,"▁Pros":12444,"▁stim":12445,"iked":12446,"uka":12447,"▁Studies":12448,"▁diamond":12449,"▁Tir":12450,"▁infection":12451,"▁posts":12452,"▁Yugoslavia":12453,"▁tools":12454,"▁patri":12455,"▁Marshal":12456,"bel":12457,"▁infer":12458,"ocol":12459,"ellers":12460,"▁voters":12461,"▁Canu":12462,"▁Chet":12463,"omed":12464,"▁Kin":12465,"▁feathers":12466,"▁collaborated":12467,"▁predominantly":12468,"▁Malta":12469,"liminary":12470,"▁Uk":12471,"▁asserted":12472,"▁photo":12473,"▁Friedrich":12474,"▁thorough":12475,"▁Wagner":12476,"asp":12477,"▁thro":12478,"▁Jake":12479,"▁desper":12480,"▁Shiva":12481,"iga":12482,"▁Pay":12483,"ortion":12484,"▁Gibraltar":12485,"▁Maine":12486,"▁Rear":12487,"rolled":12488,"▁patient":12489,"▁absorbed":12490,"▁Hood":12491,"▁Kaz":12492,"rank":12493,"▁centered":12494,"enz":12495,"▁releasing":12496,"▁castles":12497,"ischer":12498,"oirs":12499,"quiry":12500,"▁holes":12501,"▁Hull":12502,"▁user":12503,"▁Reed":12504,"▁Robin":12505,"▁tune":12506,"▁mad":12507,"▁Fly":12508,"▁grows":12509,"▁removing":12510,"▁peninsula":12511,"▁Waters":12512,"▁Cincinnati":12513,"▁Comics":12514,"▁Parks":12515,"▁Ancient":12516,"▁Taiwan":12517,"▁Round":12518,"ework":12519,"ubble":12520,"▁illustrated":12521,"▁pig":12522,"▁Angelou":12523,"▁apolog":12524,"▁explanation":12525,"Hg":12526,"▁knows":12527,"▁speeds":12528,"▁sustain":12529,"LA":12530,"▁Dud":12531,"auge":12532,"▁compiled":12533,"assy":12534,"▁resid":12535,"▁126":12536,"▁antib":12537,"WA":12538,"▁Maced":12539,"▁retrie":12540,"▁Hispan":12541,"regular":12542,"▁breeds":12543,"▁Normandy":12544,"▁canceled":12545,"▁isn":12546,"▁situations":12547,"▁bowl":12548,"▁Cort":12549,"ennial":12550,"▁independently":12551,"▁relieved":12552,"▁enorm":12553,"▁encom":12554,"▁Lords":12555,"▁sheep":12556,"ahl":12557,"▁1887":12558,"▁lib":12559,"▁Brid":12560,"▁roadway":12561,"▁Vegas":12562,"▁lover":12563,"ritic":12564,"▁119":12565,"asury":12566,"▁Shield":12567,"▁pleased":12568,"▁Poké":12569,"▁Alliance":12570,"▁Afghanistan":12571,"▁Kill":12572,"▁offshore":12573,"▁Twitter":12574,"enburg":12575,"▁clergy":12576,"▁marched":12577,"▁Madison":12578,"▁Olivia":12579,"▁layers":12580,"rels":12581,"▁VIII":12582,"▁aest":12583,"▁Edmund":12584,"▁1863":12585,"▁locomotives":12586,"music":12587,"▁Esc":12588,"▁outstanding":12589,"▁viewing":12590,"▁1880":12591,"▁prosper":12592,"hall":12593,"oi":12594,"ulates":12595,"▁couldn":12596,"▁1886":12597,"▁Conservative":12598,"▁paying":12599,"icular":12600,"▁Sad":12601,"▁Rush":12602,"▁arena":12603,"▁blast":12604,"▁genres":12605,"▁Burke":12606,"oom":12607,"uber":12608,"▁Eld":12609,"▁expanding":12610,"▁Technology":12611,"▁closure":12612,"▁varying":12613,"▁Lud":12614,"▁backst":12615,"ringe":12616,"▁Gregory":12617,"gus":12618,"▁mild":12619,"▁butter":12620,"overty":12621,"▁Leeds":12622,"found":12623,"▁mask":12624,"▁colored":12625,"instein":12626,"▁sentiment":12627,"▁disappeared":12628,"▁Former":12629,"umberland":12630,"▁Schumacher":12631,"hart":12632,"▁Brooklyn":12633,"▁bapt":12634,"avan":12635,"izard":12636,"▁Revolutionary":12637,"bu":12638,"▁perc":12639,"▁regulations":12640,"▁reporting":12641,"▁suggestion":12642,"▁fant":12643,"▁JNA":12644,"▁atop":12645,"▁spir":12646,"ribution":12647,"▁celebrate":12648,"▁Julian":12649,"gary":12650,"▁Sor":12651,"▁grid":12652,"▁Orton":12653,"▁armoured":12654,"▁Mercury":12655,"▁Cond":12656,"imony":12657,"aneous":12658,"▁Serge":12659,"▁dropping":12660,"▁asc":12661,"issioned":12662,"onnie":12663,"▁fungus":12664,"▁Cou":12665,"▁Cry":12666,"▁conspiracy":12667,"▁inducted":12668,"▁ˈ":12669,"▁Talk":12670,"▁Soph":12671,"▁Burg":12672,"▁Hubb":12673,"ipher":12674,"▁faculty":12675,"▁Princeton":12676,"▁Cut":12677,"acular":12678,"▁Dennis":12679,"ishn":12680,"▁anthem":12681,"▁attraction":12682,"▁Browns":12683,"▁McKinley":12684,"▁Aub":12685,"▁Chem":12686,"▁Hus":12687,"▁Nation":12688,"▁Kra":12689,"▁reporter":12690,"▁Helen":12691,"▁romance":12692,"zes":12693,"▁Rus":12694,"▁flour":12695,"▁nevertheless":12696,"▁companion":12697,"AP":12698,"▁eagle":12699,"▁conced":12700,"▁witnesses":12701,"▁blamed":12702,"gett":12703,"▁Tigers":12704,"feld":12705,"▁tent":12706,"▁af":12707,"leted":12708,"▁Chang":12709,"▁submer":12710,"▁swept":12711,"▁É":12712,"▁103":12713,"▁oxid":12714,"▁Organization":12715,"▁Nathan":12716,"▁organic":12717,"▁fundamental":12718,"▁MLB":12719,"▁pseud":12720,"▁remote":12721,"▁Leo":12722,"▁repris":12723,"▁publicity":12724,"▁stored":12725,"odium":12726,"▁positioned":12727,"▁Historical":12728,"▁submarines":12729,"flow":12730,"inated":12731,"▁whatever":12732,"▁Stal":12733,"▁parking":12734,"▁aqu":12735,"▁sulf":12736,"▁Mut":12737,"▁Vern":12738,"▁Musical":12739,"▁Coal":12740,"▁Ghost":12741,"bie":12742,"▁EC":12743,"▁retreated":12744,"▁annex":12745,"▁mail":12746,"omon":12747,"▁stability":12748,"▁verses":12749,"▁Barcel":12750,"▁Month":12751,"▁lung":12752,"▁1884":12753,"▁fortifications":12754,"▁fract":12755,"▁Lamb":12756,"usters":12757,"▁122":12758,"▁progressive":12759,"▁focusing":12760,"▁targeted":12761,"▁shelter":12762,"▁condemned":12763,"pin":12764,"hend":12765,"▁inHg":12766,"▁Hubbard":12767,"▁noise":12768,"▁Steam":12769,"▁NASA":12770,"▁gentle":12771,"▁swing":12772,"▁Glasgow":12773,"eness":12774,"▁Father":12775,"▁monit":12776,"▁24th":12777,"▁irregular":12778,"▁drunk":12779,"lett":12780,"▁flown":12781,"▁corresponding":12782,"▁Canucks":12783,"rity":12784,"yan":12785,"eda":12786,"▁Tests":12787,"▁recruit":12788,"▁curve":12789,"▁A.V.":12790,"▁resignation":12791,"▁disbanded":12792,"▁Isle":12793,"▁Opera":12794,"▁Devil":12795,"▁fossils":12796,"▁Political":12797,"cell":12798,"▁Pick":12799,"▁Nass":12800,"▁rab":12801,"▁Isab":12802,"▁detected":12803,"▁Nad":12804,"qual":12805,"▁Hey":12806,"▁confused":12807,"▁convince":12808,"▁cruise":12809,"RS":12810,"▁winners":12811,"▁encourag":12812,"▁melod":12813,"▁torpedoes":12814,"▁magnetic":12815,"▁telephone":12816,"▁challenging":12817,"areness":12818,"▁preceding":12819,"▁Mak":12820,"▁roster":12821,"▁Smack":12822,"▁rebounds":12823,"▁Holland":12824,"arded":12825,"▁cha":12826,"▁machines":12827,"▁mentions":12828,"▁quoted":12829,"▁brings":12830,"▁Solar":12831,"▁Phillies":12832,"▁Fifth":12833,"▁rice":12834,"▁Inside":12835,"▁Montana":12836,"▁ferry":12837,"▁bore":12838,"▁Insp":12839,"▁scrap":12840,"▁regiments":12841,"▁studios":12842,"▁insurance":12843,"▁worse":12844,"▁terminal":12845,"▁calculated":12846,"▁fault":12847,"elin":12848,"▁Theodore":12849,"▁directing":12850,"▁Herbert":12851,"▁tourist":12852,"▁concepts":12853,"▁solely":12854,"▁diversity":12855,"▁RI":12856,"▁triumph":12857,"▁creature":12858,"auded":12859,"▁BCE":12860,"▁Celtic":12861,"▁Tintin":12862,"iki":12863,"▁Millennium":12864,"▁Kil":12865,"▁thanks":12866,"roscop":12867,"▁darker":12868,"▁Morning":12869,"ishops":12870,"▁rotation":12871,"▁Westminster":12872,"▁judicial":12873,"▁nice":12874,"igation":12875,"▁Strong":12876,"▁Seb":12877,"▁1877":12878,"isk":12879,"phal":12880,"▁historically":12881,"onso":12882,"▁hide":12883,"▁138":12884,"▁favored":12885,"▁Adventure":12886,"atty":12887,"▁CEO":12888,"▁tap":12889,"▁fo":12890,"▁Nam":12891,"avian":12892,"▁examined":12893,"▁Epis":12894,"▁scholarship":12895,"▁Mercedes":12896,"▁Wel":12897,"▁jersey":12898,"overy":12899,"hentic":12900,"ourable":12901,"inter":12902,"▁Rav":12903,"▁Brah":12904,"▁Denver":12905,"▁myself":12906,"▁Poe":12907,"▁jew":12908,"▁1876":12909,"▁zero":12910,"▁gear":12911,"▁Yard":12912,"▁Austro":12913,"▁config":12914,"▁Barn":12915,"▁Basketball":12916,"▁Mig":12917,"umi":12918,"ewise":12919,"iors":12920,"▁cotton":12921,"▁Athen":12922,"▁Expl":12923,"▁battlefield":12924,"▁Cox":12925,"ampa":12926,"▁116":12927,"▁Albany":12928,"▁prompting":12929,"▁steadily":12930,"ht":12931,"▁wartime":12932,"▁230":12933,"▁Glou":12934,"▁acclaimed":12935,"▁reconstruction":12936,"sis":12937,"▁Bour":12938,"▁sharing":12939,"▁trio":12940,"▁balls":12941,"▁messages":12942,"nda":12943,"▁Occ":12944,"▁rounded":12945,"▁walked":12946,"▁Theater":12947,"▁Percy":12948,"▁measuring":12949,"▁Salv":12950,"▁Ronald":12951,"▁monastery":12952,"▁Sri":12953,"lude":12954,"▁129":12955,"▁spacecraft":12956,"▁ghost":12957,"▁elevated":12958,"▁Gothic":12959,"ör":12960,"▁masc":12961,"works":12962,"▁Additional":12963,"▁Bulgarian":12964,"▁screens":12965,"▁Cany":12966,"▁Led":12967,"▁134":12968,"▁troop":12969,"▁connects":12970,"▁linear":12971,"▁eligible":12972,"acer":12973,"▁Hok":12974,"▁Rivers":12975,"▁agencies":12976,"▁guards":12977,"▁agrees":12978,"atisf":12979,"▁flower":12980,"▁Current":12981,"▁gusts":12982,"▁oct":12983,"▁Bris":12984,"▁Verm":12985,"▁routing":12986,"▁trig":12987,"▁decisive":12988,"▁themed":12989,"▁distinction":12990,"▁refuses":12991,"▁curved":12992,"▁postp":12993,"▁commitment":12994,"rians":12995,"▁presents":12996,"▁Ottawa":12997,"▁Carlos":12998,"Music":12999,"lined":13000,"aton":13001,"arians":13002,"▁exterior":13003,"▁radius":13004,"▁motif":13005,"▁accomplished":13006,"▁Nevada":13007,"▁p.m.":13008,"opard":13009,"aku":13010,"▁kids":13011,"▁Chuck":13012,"▁opined":13013,"▁clouds":13014,"vor":13015,"▁cemetery":13016,"▁stall":13017,"izers":13018,"▁arguments":13019,"▁conducting":13020,"▁revenge":13021,"cont":13022,"▁cosm":13023,"▁tough":13024,"omical":13025,"▁Berm":13026,"▁Pack":13027,"▁convey":13028,"▁comed":13029,"▁incidents":13030,"▁hosp":13031,"▁Squad":13032,"▁poster":13033,"▁physically":13034,"▁walks":13035,"▁Pokémon":13036,"atar":13037,"▁echo":13038,"▁Rosen":13039,"▁Duc":13040,"▁Abra":13041,"▁Territory":13042,"▁proclaimed":13043,"▁Barcelona":13044,"eta":13045,"olan":13046,"▁creatures":13047,"▁loose":13048,"▁kilometers":13049,"▁Caes":13050,"▁Michaels":13051,"istical":13052,"abad":13053,"▁Marl":13054,"aults":13055,"▁participating":13056,"▁consequence":13057,"▁integrated":13058,"▁ritual":13059,"▁encompass":13060,"▁Fun":13061,"iffer":13062,"▁spell":13063,"▁SA":13064,"unge":13065,"▁indirect":13066,"sch":13067,"▁Arc":13068,"▁finest":13069,"▁Mega":13070,"▁rebel":13071,"▁centimet":13072,"▁canon":13073,"ettes":13074,"▁width":13075,"▁1875":13076,"▁Milan":13077,"▁Cardinals":13078,"▁venues":13079,"▁intend":13080,"▁Wis":13081,"▁scout":13082,"▁Enix":13083,"▁runner":13084,"▁touc":13085,"▁chann":13086,"reeks":13087,"▁Metac":13088,"▁theaters":13089,"itars":13090,"▁Hi":13091,"▁complimented":13092,"aba":13093,"▁marg":13094,"▁demographic":13095,"▁lesser":13096,"▁properly":13097,"▁ceremonies":13098,"▁Tas":13099,"▁lakes":13100,"▁spots":13101,"▁unh":13102,"▁enhanced":13103,"▁reminisc":13104,"ighed":13105,"▁prince":13106,"anka":13107,"▁contribute":13108,"▁Churchill":13109,"▁extends":13110,"▁borough":13111,"▁Drake":13112,"▁deliberately":13113,"▁mansion":13114,"ubs":13115,"▁Colin":13116,"▁Parkway":13117,"▁bowled":13118,"arthy":13119,"▁telesc":13120,"▁Foster":13121,"season":13122,"▁contrad":13123,"▁peoples":13124,"▁Paraly":13125,"▁Raymond":13126,"▁martial":13127,"bi":13128,"▁gram":13129,"▁RBI":13130,"▁insuff":13131,"▁varies":13132,"▁1883":13133,"▁Romanian":13134,"▁Archae":13135,"▁preparations":13136,"rium":13137,"▁Hein":13138,"▁remake":13139,"▁heavier":13140,"▁Bod":13141,"▁southwestern":13142,"asia":13143,"▁harsh":13144,"▁Wings":13145,"▁weakness":13146,"▁instructions":13147,"▁intermediate":13148,"▁ministers":13149,"▁Emma":13150,"▁Operations":13151,"▁Manuel":13152,"▁onwards":13153,"▁Computer":13154,"▁transformed":13155,"Down":13156,"▁possessed":13157,"▁1881":13158,"▁playable":13159,"▁coaches":13160,"▁continental":13161,"▁updated":13162,"▁prospect":13163,"herent":13164,"▁hurt":13165,"▁achievements":13166,"▁optim":13167,"lake":13168,"rush":13169,"▁fru":13170,"▁RNA":13171,"▁Speed":13172,"▁Circle":13173,"▁Middles":13174,"▁SmackDown":13175,"GM":13176,"▁Voy":13177,"▁rook":13178,"▁Shin":13179,"▁Sciences":13180,"ashire":13181,"▁Weather":13182,"▁sensitive":13183,"▁initiative":13184,"▁wit":13185,"▁yd":13186,"▁airborne":13187,"▁logo":13188,"HC":13189,"yc":13190,"inus":13191,"▁Alam":13192,"▁outcome":13193,"▁rider":13194,"▁Diamond":13195,"▁transmission":13196,"▁Blair":13197,"▁Belie":13198,"▁Venice":13199,"▁propaganda":13200,"▁aided":13201,"▁Total":13202,"▁critically":13203,"▁Northwest":13204,"▁homosexual":13205,"▁bin":13206,"chw":13207,"▁Richardson":13208,"▁consideration":13209,"▁Jamaica":13210,"▁allied":13211,"▁variable":13212,"▁moist":13213,"▁consciousness":13214,"▁Paralymp":13215,"▁Bass":13216,"ogs":13217,"▁disabled":13218,"▁151":13219,"appa":13220,"▁Powell":13221,"▁vegetation":13222,"▁autobiography":13223,"cht":13224,"▁Unit":13225,"▁1869":13226,"▁orchestral":13227,"agi":13228,"▁Calgary":13229,"▁tourists":13230,"alties":13231,"ironments":13232,"▁emerging":13233,"▁deposits":13234,"▁tom":13235,"▁reh":13236,"assic":13237,"actic":13238,"▁monster":13239,"▁depiction":13240,"▁landmark":13241,"▁Composition":13242,"▁estimate":13243,"▁Contem":13244,"▁Duncan":13245,"▁exercises":13246,"▁Lancashire":13247,"▁spite":13248,"▁128":13249,"▁Ferdin":13250,"▁Arena":13251,"▁Ib":13252,"▁unanim":13253,"▁worker":13254,"▁Body":13255,"▁Fa":13256,"▁punishment":13257,"▁permanently":13258,"▁Henderson":13259,"core":13260,"arus":13261,"▁stom":13262,"▁1866":13263,"▁consistently":13264,"▁municipal":13265,"▁routine":13266,"▁Delta":13267,"▁Floyd":13268,"▁northeastern":13269,"▁comprising":13270,"▁borders":13271,"▁epit":13272,"▁presidency":13273,"▁latest":13274,"▁doctrine":13275,"▁ascend":13276,"▁Isles":13277,"▁amphib":13278,"▁Psych":13279,"▁staged":13280,"▁pref":13281,"rington":13282,"▁damaging":13283,"▁assassination":13284,"▁ion":13285,"▁performers":13286,"atorial":13287,"▁summon":13288,"▁Medic":13289,"▁managing":13290,"▁achievement":13291,"▁environments":13292,"▁journalists":13293,"▁searching":13294,"▁delegates":13295,"▁subtropical":13296,"▁dock":13297,"▁Aqu":13298,"riages":13299,"▁revealing":13300,"▁payment":13301,"▁sailors":13302,"▁Cu":13303,"▁Carn":13304,"▁honors":13305,"▁belonging":13306,"▁Planet":13307,"▁Mills":13308,"▁complement":13309,"▁XI":13310,"▁witnessed":13311,"▁Frances":13312,"▁Berg":13313,"▁mysterious":13314,"▁input":13315,"▁Conserv":13316,"▁Ellen":13317,"▁psychiat":13318,"▁encourage":13319,"▁Crawford":13320,"▁marsh":13321,"▁Range":13322,"rip":13323,"▁Cloud":13324,"▁Using":13325,"▁odd":13326,"▁archaeological":13327,"▁confer":13328,"▁seal":13329,"▁Chan":13330,"▁Springs":13331,"▁milk":13332,"▁priority":13333,"▁750":13334,"▁Rodrig":13335,"▁enlar":13336,"▁reluctant":13337,"▁Canyon":13338,"▁Pon":13339,"▁philosopher":13340,"▁phenomenon":13341,"zig":13342,"▁gates":13343,"▁silent":13344,"▁preventing":13345,"gor":13346,"omys":13347,"▁Dj":13348,"▁dispatched":13349,"▁unsuccessfully":13350,"▁Leicester":13351,"olars":13352,"▁124":13353,"arma":13354,"▁anarch":13355,"iang":13356,"▁actively":13357,"▁argue":13358,"▁venture":13359,"▁Tab":13360,"ido":13361,"▁Vic":13362,"▁versus":13363,"▁belonged":13364,"▁hypothesis":13365,"▁mant":13366,"▁plum":13367,"▁Marqu":13368,"▁Grove":13369,"▁lengths":13370,"▁coaching":13371,"▁Veronica":13372,"▁switched":13373,"▁Crystal":13374,"RC":13375,"▁Food":13376,"▁Telegraph":13377,"▁icon":13378,"▁Palestine":13379,"▁'Brien":13380,"isations":13381,"▁poverty":13382,"▁Tib":13383,"▁gest":13384,"▁Pra":13385,"▁strange":13386,"▁finance":13387,"▁corruption":13388,"▁eighteen":13389,"▁frigate":13390,"▁root":13391,"▁listening":13392,"▁ceiling":13393,"▁disputed":13394,"▁awareness":13395,"▁distinguish":13396,"▁executives":13397,"▁Tucker":13398,"adows":13399,"▁Mile":13400,"idge":13401,"▁Punk":13402,"rained":13403,"▁202":13404,"assed":13405,"▁scientist":13406,"▁SH":13407,"▁introduce":13408,"▁1882":13409,"ijing":13410,"oric":13411,"▁Mull":13412,"▁Fischer":13413,"▁vamp":13414,"▁abst":13415,"▁directions":13416,"▁contributing":13417,"▁mechanics":13418,"▁Headquarters":13419,"▁ov":13420,"stown":13421,"immer":13422,"▁shaft":13423,"▁exploration":13424,"▁Assist":13425,"▁1871":13426,"▁1873":13427,"▁expectations":13428,"asi":13429,"eches":13430,"▁rational":13431,"▁Anat":13432,"▁Films":13433,"▁adjust":13434,"▁honey":13435,"▁Why":13436,"▁Region":13437,"▁procedure":13438,"R.":13439,"Tunes":13440,"lex":13441,"▁whales":13442,"▁metals":13443,"▁internationally":13444,"▁sib":13445,"▁Fur":13446,"▁formations":13447,"▁carved":13448,"▁phosph":13449,"▁Bea":13450,"▁Plat":13451,"rews":13452,"boat":13453,"▁Kepler":13454,"▁molecular":13455,"▁Ply":13456,"▁Flanders":13457,"usty":13458,"nery":13459,"▁surpassed":13460,"▁naturally":13461,"rud":13462,"asaki":13463,"▁mbar":13464,"▁1867":13465,"▁objectives":13466,"▁Intellig":13467,"▁leagues":13468,"▁sheet":13469,"▁Seas":13470,"▁guitars":13471,"▁advocated":13472,"▁improving":13473,"▁dimensional":13474,"▁mystery":13475,"BO":13476,"▁saving":13477,"▁Pine":13478,"▁Truman":13479,"▁tribut":13480,"AL":13481,"▁UB":13482,"▁desired":13483,"▁privile":13484,"▁Hass":13485,"▁accus":13486,"▁shipped":13487,"▁Commons":13488,"▁True":13489,"▁reop":13490,"▁Hil":13491,"ulture":13492,"▁submerged":13493,"▁Syl":13494,"▁unrel":13495,"▁processing":13496,"▁discussing":13497,"▁abundant":13498,"▁Dudley":13499,"▁convert":13500,"istocr":13501,"▁remind":13502,"▁requirement":13503,"▁overwhelming":13504,"▁staying":13505,"ierra":13506,"▁eleph":13507,"▁1878":13508,"▁Standard":13509,"▁cubic":13510,"▁tasks":13511,"erness":13512,"▁137":13513,"▁temples":13514,"▁acceptance":13515,"▁Masters":13516,"ère":13517,"▁reson":13518,"▁associate":13519,"▁Desert":13520,"▁crucial":13521,"waffe":13522,"▁dive":13523,"ouch":13524,"▁horsepower":13525,"▁Watson":13526,"eded":13527,"▁cro":13528,"amation":13529,"▁Mail":13530,"▁Ky":13531,"▁Vlad":13532,"ogg":13533,"▁Newman":13534,"▁Beijing":13535,"▁Deputy":13536,"▁partners":13537,"angered":13538,"▁Commerc":13539,"▁Exped":13540,"▁Malay":13541,"▁Byzant":13542,"CO":13543,"▁Adela":13544,"▁explored":13545,"▁genes":13546,"▁McCarthy":13547,"acking":13548,"▁estates":13549,"▁blockade":13550,"▁comprised":13551,"▁pump":13552,"▁haz":13553,"▁Raid":13554,"▁speculated":13555,"▁authentic":13556,"▁keyboard":13557,"▁refugees":13558,"▁nervous":13559,"▁cameo":13560,"▁composers":13561,"▁opinions":13562,"▁Gibson":13563,"▁channels":13564,"▁unre":13565,"▁jaw":13566,"▁Trinity":13567,"▁collecting":13568,"▁memb":13569,"▁adequ":13570,"▁resemble":13571,"▁fragments":13572,"▁navigation":13573,"GB":13574,"▁Bran":13575,"▁Eagle":13576,"▁perf":13577,"▁loaded":13578,"▁gran":13579,"utely":13580,"▁Rif":13581,"isting":13582,"▁Colomb":13583,"▁suffer":13584,"▁averaged":13585,"▁femin":13586,"▁photos":13587,"▁undertook":13588,"inqu":13589,"imer":13590,"▁Clif":13591,"suing":13592,"▁iTunes":13593,"▁immigrants":13594,"utter":13595,"▁Alpha":13596,"▁republic":13597,"▁genera":13598,"▁Guadal":13599,"heads":13600,"▁Surv":13601,"▁habitats":13602,"▁Culture":13603,"▁Professional":13604,"▁turbines":13605,"▁percussion":13606,"elia":13607,"▁Meyer":13608,"▁Sche":13609,"▁whale":13610,"avil":13611,"▁seeds":13612,"▁posthum":13613,"▁compromise":13614,"▁ants":13615,"▁rushed":13616,"▁faction":13617,"▁complaints":13618,"▁manufactured":13619,"▁bench":13620,"rehensive":13621,"▁Aaron":13622,"▁Mick":13623,"thlete":13624,"opol":13625,"▁assets":13626,"▁Monster":13627,"lia":13628,"rection":13629,"▁sic":13630,"▁bars":13631,"▁metall":13632,"▁Angle":13633,"▁homeless":13634,"▁networks":13635,"▁Mobile":13636,"▁Luther":13637,"▁repet":13638,"▁consequences":13639,"▁lesb":13640,"wyn":13641,"▁stair":13642,"▁manages":13643,"▁underwater":13644,"▁Metacritic":13645,"ho":13646,"orig":13647,"employ":13648,"▁coastline":13649,"▁Wellington":13650,"▁gauge":13651,"▁ensuing":13652,"▁summar":13653,"▁dissolved":13654,"▁Appro":13655,"▁psychological":13656,"▁reconstruct":13657,"▁absolute":13658,"▁Method":13659,"▁Baptist":13660,"▁U2":13661,"amped":13662,"▁buff":13663,"▁symbols":13664,"iggins":13665,"▁eruption":13666,"▁emig":13667,"▁contempor":13668,"▁goddess":13669,"▁honorary":13670,"otypes":13671,"▁Luftwaffe":13672,"mother":13673,"▁Want":13674,"oves":13675,"▁ups":13676,"▁improv":13677,"▁symph":13678,"ographed":13679,"▁Bermuda":13680,"▁consensus":13681,"ugs":13682,"▁lengthy":13683,"▁Timber":13684,"▁Shelley":13685,"iden":13686,"▁relied":13687,"▁ultimate":13688,"yll":13689,"▁cave":13690,"unar":13691,"▁variant":13692,"▁Monroe":13693,"▁lemurs":13694,"▁adds":13695,"▁brut":13696,"▁loyalty":13697,"cour":13698,"di":13699,"fr":13700,"▁ol":13701,"▁fears":13702,"▁Cool":13703,"▁singers":13704,"otto":13705,"▁Urban":13706,"▁Kem":13707,"▁signals":13708,"▁1860":13709,"▁MC":13710,"▁intact":13711,"▁landings":13712,"▁qualities":13713,"▁reserves":13714,"▁RPG":13715,"▁fraud":13716,"▁unveiled":13717,"▁Aguiler":13718,"icus":13719,"olith":13720,"▁Herm":13721,"through":13722,"ylum":13723,"▁1872":13724,"▁disappoint":13725,"▁Machine":13726,"▁eldest":13727,"▁CM":13728,"▁Shar":13729,"ikes":13730,"▁Woods":13731,"▁Selena":13732,"▁teachers":13733,"▁assessment":13734,"ema":13735,"▁aristocr":13736,"▁Shan":13737,"▁rocket":13738,"▁1868":13739,"▁Otto":13740,"▁Aguilera":13741,"▁123":13742,"▁Notable":13743,"▁flesh":13744,"▁duck":13745,"usive":13746,"▁Marx":13747,"▁defenses":13748,"▁ambassador":13749,"▁interactions":13750,"▁doctors":13751,"▁Hat":13752,"ovsky":13753,"▁amid":13754,"▁millions":13755,"▁Henri":13756,"▁Engineering":13757,"▁battlecruisers":13758,"▁Rah":13759,"▁emotions":13760,"▁spectators":13761,"▁Mom":13762,"▁Choice":13763,"▁delight":13764,"▁literally":13765,"▁printing":13766,"▁grossed":13767,"▁Various":13768,"▁batsman":13769,"orge":13770,"eward":13771,"▁sear":13772,"▁comparing":13773,"▁tradem":13774,"▁essay":13775,"▁pounder":13776,"▁Wolver":13777,"ED":13778,"▁owing":13779,"▁gam":13780,"▁weighed":13781,"▁twentieth":13782,"▁songwriting":13783,"igo":13784,"▁Pi":13785,"▁costumes":13786,"▁lifted":13787,"▁Ellis":13788,"▁chlor":13789,"▁clip":13790,"▁Flames":13791,"licted":13792,"▁Female":13793,"▁enormous":13794,"stad":13795,"imity":13796,"▁Esp":13797,"ebe":13798,"auna":13799,"▁Cabinet":13800,"▁stabil":13801,"▁Wool":13802,"▁Stage":13803,"▁engaging":13804,"▁intelligent":13805,"▁explosive":13806,"▁bacteria":13807,"▁Dakota":13808,"cock":13809,"▁rally":13810,"▁interf":13811,"aurus":13812,"▁rent":13813,"edar":13814,"star":13815,"iri":13816,"▁Fab":13817,"▁dealt":13818,"▁Leigh":13819,"▁trips":13820,"▁revived":13821,"▁Wrest":13822,"▁Chin":13823,"▁25th":13824,"▁politically":13825,"▁appealed":13826,"monton":13827,"▁instructed":13828,"▁patrols":13829,"▁Renaissance":13830,"ci":13831,"uits":13832,"▁Money":13833,"▁Pent":13834,"▁Genesis":13835,"issa":13836,"▁strings":13837,"▁insufficient":13838,"▁Expedition":13839,"▁hier":13840,"▁deals":13841,"▁MVP":13842,"dam":13843,"▁tensions":13844,"iche":13845,"▁Mk":13846,"keley":13847,"▁telev":13848,"▁Newport":13849,"▁relating":13850,"▁Nept":13851,"▁reader":13852,"▁instrumentation":13853,"▁horizontal":13854,"▁stroke":13855,"▁Lore":13856,"▁enrolled":13857,"▁Soviets":13858,"▁Drum":13859,"▁Phillips":13860,"▁Chandler":13861,"▁Adelaide":13862,"▁suited":13863,"▁digit":13864,"▁Maxwell":13865,"▁diseases":13866,"▁bitter":13867,"▁graphic":13868,"▁WWF":13869,"orus":13870,"▁cats":13871,"▁Hanc":13872,"bery":13873,"▁subordin":13874,"▁hurricanes":13875,"▁liv":13876,"▁anx":13877,"endar":13878,"▁woods":13879,"hand":13880,"nal":13881,"▁Sans":13882,"▁Riley":13883,"▁Heaven":13884,"▁vocalist":13885,"▁incomple":13886,"▁Curtis":13887,"▁Geoffrey":13888,"zo":13889,"▁Nak":13890,"rav":13891,"▁subd":13892,"▁referee":13893,"force":13894,"▁Mol":13895,"▁clan":13896,"▁widow":13897,"▁Butler":13898,"▁slower":13899,"▁extraordin":13900,"▁Ferdinand":13901,"▁termed":13902,"▁chapters":13903,"▁mushroom":13904,"▁reminiscent":13905,"▁Knights":13906,"▁intersections":13907,"▁Surrey":13908,"▁exhibited":13909,"utonium":13910,"▁Barrett":13911,"▁declaration":13912,"▁missile":13913,"▁allegations":13914,"▁incred":13915,"ologically":13916,"▁Therefore":13917,"▁etc":13918,"▁Abraham":13919,"the":13920,"▁wishes":13921,"ulu":13922,"▁counsel":13923,"▁Essex":13924,"▁overcome":13925,"▁Spencer":13926,"▁Screen":13927,"▁involve":13928,"▁mistake":13929,"▁discipline":13930,"odon":13931,"▁Madrid":13932,"▁tactical":13933,"▁mathematics":13934,"▁Plymouth":13935,"pect":13936,"▁Prison":13937,"▁Right":13938,"▁Capital":13939,"▁disliked":13940,"▁Wald":13941,"▁Fellow":13942,"ichi":13943,"▁Blake":13944,"▁cultures":13945,"▁Metal":13946,"▁1850":13947,"▁Burger":13948,"▁Romans":13949,"▁gallery":13950,"▁Combat":13951,"▁GameSpot":13952,"▁sacrifice":13953,"▁hunt":13954,"▁shirt":13955,"othe":13956,"▁Lie":13957,"▁Heath":13958,"▁interference":13959,"▁modest":13960,"▁athletic":13961,"▁quantities":13962,"▁Franco":13963,"▁joins":13964,"▁Movement":13965,"▁frog":13966,"▁Tall":13967,"▁shar":13968,"▁transit":13969,"▁thickness":13970,"odied":13971,"▁expense":13972,"▁proceeds":13973,"zi":13974,"▁hung":13975,"▁Hond":13976,"ulk":13977,"▁NL":13978,"▁resur":13979,"▁syndrome":13980,"▁Resident":13981,"▁Marcus":13982,"wind":13983,"▁finger":13984,"alid":13985,"▁Come":13986,"enne":13987,"▁Adrian":13988,"▁circles":13989,"▁fights":13990,"▁caliber":13991,"▁nicknamed":13992,"▁Bosnia":13993,"▁bol":13994,"lend":13995,"▁A3":13996,"▁assign":13997,"▁Daniels":13998,"▁supporter":13999,"▁Contemporary":14000,"urers":14001,"▁imported":14002,"▁Poll":14003,"▁machinery":14004,"▁migration":14005,"▁Hancock":14006,"▁Bri":14007,"raine":14008,"▁spores":14009,"▁interviewed":14010,"▁Contin":14011,"kinson":14012,"▁panels":14013,"▁Relations":14014,"▁View":14015,"▁locomotive":14016,"▁Brigadier":14017,"▁nomine":14018,"▁repaired":14019,"▁rifle":14020,"▁fatal":14021,"▁Aviation":14022,"▁washed":14023,"▁gaming":14024,"▁Fergus":14025,"▁fluid":14026,"▁Tales":14027,"▁hect":14028,"▁Gaz":14029,"▁Equ":14030,"▁Spit":14031,"▁continent":14032,"▁Flood":14033,"opsis":14034,"▁Florence":14035,"icity":14036,"▁Brew":14037,"olo":14038,"imir":14039,"▁commentators":14040,"▁custody":14041,"▁fare":14042,"stand":14043,"▁joke":14044,"▁bankrupt":14045,"▁shopping":14046,"▁Nobel":14047,"▁molecules":14048,"▁misc":14049,"▁Publishing":14050,"▁proximity":14051,"▁raw":14052,"▁Reading":14053,"▁Baldwin":14054,"▁Tasman":14055,"▁beer":14056,"▁Kub":14057,"ikh":14058,"▁Agricult":14059,"▁Jeremy":14060,"▁fluor":14061,"▁mim":14062,"otilla":14063,"arted":14064,"▁Admiralty":14065,"▁Usher":14066,"▁currency":14067,"▁redesign":14068,"athetic":14069,"▁Suz":14070,"▁Lead":14071,"▁Norse":14072,"▁Twenty":14073,"cious":14074,"nut":14075,"iday":14076,"▁curves":14077,"▁Hergé":14078,"▁Vienna":14079,"▁Arkansas":14080,"▁pronounced":14081,"pit":14082,"▁lip":14083,"▁Bot":14084,"▁Manning":14085,"▁Romania":14086,"▁acquire":14087,"▁Jennifer":14088,"▁Preston":14089,"▁hatch":14090,"aston":14091,"▁allocated":14092,"▁Ltd":14093,"▁Sib":14094,"▁Laf":14095,"▁Article":14096,"▁floors":14097,"▁puzz":14098,"▁Put":14099,"▁Num":14100,"▁contested":14101,"▁undergo":14102,"▁Leban":14103,"▁successive":14104,"▁knowing":14105,"▁separately":14106,"▁rulers":14107,"▁Banksia":14108,"PS":14109,"xide":14110,"▁tong":14111,"itects":14112,"▁reef":14113,"▁Mam":14114,"urbs":14115,"osity":14116,"▁Stories":14117,"▁unaware":14118,"▁Shadow":14119,"▁demanding":14120,"▁memories":14121,"front":14122,"▁Buch":14123,"umar":14124,"▁Architect":14125,"▁McDonald":14126,"▁aviation":14127,"▁Bent":14128,"elfth":14129,"▁populated":14130,"▁Adri":14131,"▁1879":14132,"▁Motor":14133,"wig":14134,"▁sect":14135,"alysis":14136,"▁JG":14137,"▁disgu":14138,"ashing":14139,"ungle":14140,"▁maneuver":14141,"▁CC":14142,"▁preliminary":14143,"▁discussions":14144,"▁Garc":14145,"▁gathering":14146,"▁Kes":14147,"▁publish":14148,"▁northwestern":14149,"M.":14150,"rez":14151,"▁Suff":14152,"▁interrupted":14153,"▁Newfound":14154,"▁Minogue":14155,"▁comparable":14156,"▁Idol":14157,"▁Pall":14158,"▁ally":14159,"▁Ow":14160,"▁proud":14161,"▁scrapped":14162,"▁Glass":14163,"▁zones":14164,"▁regardless":14165,"▁Electronic":14166,"▁dawn":14167,"▁Chase":14168,"▁McCain":14169,"▁cylind":14170,"▁cylinder":14171,"pes":14172,"▁bills":14173,"asse":14174,"▁golf":14175,"▁Capitol":14176,"▁photographer":14177,"▁screening":14178,"▁farms":14179,"▁Skinner":14180,"▁Allmusic":14181,"▁Orthodox":14182,"▁Character":14183,"▁Bowie":14184,"▁demonstrate":14185,"▁editorial":14186,"▁Bengal":14187,"iary":14188,"lass":14189,"eria":14190,"▁advances":14191,"▁cease":14192,"▁discontinued":14193,"▁chord":14194,"▁subsc":14195,"▁editing":14196,"▁damages":14197,"▁tourism":14198,"▁massacre":14199,"▁installation":14200,"▁Hawaiian":14201,"▁Edmonton":14202,"▁dynamic":14203,"▁nineteenth":14204,"▁paved":14205,"▁Bog":14206,"▁Hous":14207,"▁Nav":14208,"▁Sponge":14209,"guard":14210,"▁Grad":14211,"▁unrest":14212,"▁141":14213,"▁Perth":14214,"▁Industrial":14215,"▁Lancaster":14216,"▁halted":14217,"tz":14218,"istence":14219,"▁Ports":14220,"▁Single":14221,"▁sporting":14222,"mel":14223,"pat":14224,"urse":14225,"▁Ing":14226,"▁subsidi":14227,"▁Newfoundland":14228,"▁sew":14229,"▁Winc":14230,"▁regained":14231,"▁ambitious":14232,"▁licensed":14233,"▁gravity":14234,"SA":14235,"▁therapy":14236,"vern":14237,"▁uprising":14238,"▁Senior":14239,"▁seemingly":14240,"▁neighbouring":14241,"list":14242,"▁grain":14243,"atha":14244,"▁subtle":14245,"▁Spin":14246,"▁Turks":14247,"▁harbor":14248,"▁crowned":14249,"eries":14250,"▁Jur":14251,"▁busy":14252,"▁projected":14253,"▁opted":14254,"▁functional":14255,"▁Sep":14256,"▁Crom":14257,"▁anger":14258,"▁contracted":14259,"▁instruction":14260,"▁protecting":14261,"▁disputes":14262,"▁citizen":14263,"▁administered":14264,"▁Gonz":14265,"DA":14266,"how":14267,"olves":14268,"▁Dh":14269,"▁perpet":14270,"▁regist":14271,"▁creates":14272,"▁lessons":14273,"▁descended":14274,"bus":14275,"ride":14276,"▁Bear":14277,"▁gamb":14278,"▁Jen":14279,"▁deployment":14280,"▁Beautiful":14281,"▁Fras":14282,"▁openly":14283,"▁masses":14284,"▁descendants":14285,"▁Circuit":14286,"▁barely":14287,"irk":14288,"▁joy":14289,"ramid":14290,"▁honest":14291,"▁privately":14292,"onnell":14293,"▁cooperation":14294,"▁overh":14295,"▁coloured":14296,"▁Senators":14297,"▁symmet":14298,"▁accomplish":14299,"▁orient":14300,"▁totally":14301,"▁captivity":14302,"ait":14303,"nan":14304,"▁CN":14305,"▁lux":14306,"▁Hoff":14307,"▁Logan":14308,"ripp":14309,"▁deeper":14310,"▁Chop":14311,"▁generals":14312,"▁corridor":14313,"▁Maxim":14314,"▁northwestward":14315,"tage":14316,"rosse":14317,"▁146":14318,"▁planes":14319,"▁270":14320,"▁collision":14321,"▁volcano":14322,"▁jumping":14323,"▁Buddhist":14324,"▁quit":14325,"▁atmospheric":14326,"zac":14327,"▁file":14328,"▁Make":14329,"▁Mounted":14330,"▁Shank":14331,"▁Caroline":14332,"▁farming":14333,"▁Janet":14334,"▁outdoor":14335,"▁chess":14336,"▁Tiger":14337,"▁rapper":14338,"▁Motion":14339,"isphere":14340,"▁Cos":14341,"▁Store":14342,"lessly":14343,"▁Louise":14344,"▁necessarily":14345,"▁delegation":14346,"▁steady":14347,
[...]
