{"<unk>":0,"!":1,"\"":2,"#":3,"$":4,"%":5,"&":6,"'":7,"(":8,")":9,"*":10,"+":11,",":12,"-":13,".":14,"/":15,"0":16,"1":17,"2":18,"3":19,"4":20,"5":21,"6":22,"7":23,"8":24,"9":25,":":26,";":27,"<":28,"=":29,">":30,"?":31,"@":32,"A":33,"B":34,"C":35,"D":36,"E":37,"F":38,"G":39,"H":40,"I":41,"J":42,"K":43,"L":44,"M":45,"N":46,"O":47,"P":48,"Q":49,"R":50,"S":51,"T":52,"U":53,"V":54,"W":55,"X":56,"Y":57,"Z":58,"[":59,"\\":60,"]":61,"^":62,"_":63,"`":64,"a":65,"b":66,"c":67,"d":68,"e":69,"f":70,"g":71,"h":72,"i":73,"j":74,"k":75,"l":76,"m":77,"n":78,"o":79,"p":80,"q":81,"r":82,"s":83,"t":84,"u":85,"v":86,"w":87,"x":88,"y":89,"z":90,"{":91,"|":92,"}":93,"~":94,"¡":95,"¢":96,"£":97,"¥":98,"§":99,"«":100,"­":101,"®":102,"°":103,"±":104,"·":105,"»":106,"¿":107,"À":108,"Á":109,"Â":110,"Ä":111,"Å":112,"Æ":113,"Ç":114,"È":115,"É":116,"Í":117,"Î":118,"Ó":119,"Ö":120,"×":121,"Ø":122,"Ú":123,"Ü":124,"Þ":125,"ß":126,"à":127,"á":128,"â":129,"ã":130,"ä":131,"å":132,"æ":133,"ç":134,"è":135,"é":136,"ê":137,"ë":138,"ì":139,"í":140,"î":141,"ï":142,"ð":143,"ñ":144,"ò":145,"ó":146,"ô":147,"õ":148,"ö":149,"ø":150,"ù":151,"ú":152,"û":153,"ü":154,"ý":155,"þ":156,"ÿ":157,"Ā":158,"ā":159,"ă":160,"ą":161,"Ć":162,"ć":163,"Č":164,"č":165,"Đ":166,"đ":167,"ē":168,"ė":169,"ę":170,"ě":171,"ğ":172,"ġ":173,"ħ":174,"ĩ":175,"ī":176,"İ":177,"ı":178,"ľ":179,"Ł":180,"ł":181,"ń":182,"ņ":183,"ň":184,"ŋ":185,"Ō":186,"ō":187,"ŏ":188,"ő":189,"Œ":190,"œ":191,"ř":192,"Ś":193,"ś":194,"Ş":195,"ş":196,"Š":197,"š":198,"Ţ":199,"ţ":200,"ť":201,"ũ":202,"ū":203,"ŭ":204,"ů":205,"ų":206,"ŵ":207,"ŷ":208,"ź":209,"Ż":210,"ż":211,"Ž":212,"ž":213,"ƒ":214,"ơ":215,"ư":216,"ǎ":217,"ǐ":218,"ǒ":219,"ǔ":220,"ǫ":221,"Ș":222,"ș":223,"Ț":224,"ț":225,"ɐ":226,"ɑ":227,"ɒ":228,"ɔ":229,"ɕ":230,"ɖ":231,"ə":232,"ɛ":233,"ɜ":234,"ɟ":235,"ɡ":236,"ɣ":237,"ɦ":238,"ɨ":239,"ɪ":240,"ɫ":241,"ɬ":242,"ɯ":243,"ɲ":244,"ɾ":245,"ʀ":246,"ʁ":247,"ʂ":248,"ʃ":249,"ʊ":250,"ʋ":251,"ʌ":252,"ʒ":253,"ʔ":254,"ʕ":255,"ʻ":256,"ʼ":257,"ʾ":258,"ʿ":259,"ˀ":260,"ˈ":261,"ˌ":262,"ː":263,"́":264,"̃":265,"̆":266,"̈":267,"̊":268,"̍":269,"̝":270,"̞":271,"̠":272,"̥":273,"̩":274,"̪":275,"̯":276,"͡":277,"Α":278,"Β":279,"Γ":280,"Δ":281,"Ε":282,"Η":283,"Θ":284,"Ι":285,"Κ":286,"Λ":287,"Μ":288,"Ν":289,"Ο":290,"Π":291,"Ρ":292,"Σ":293,"Τ":294,"Υ":295,"Φ":296,"Χ":297,"Ψ":298,"Ω":299,"ά":300,"έ":301,"ή":302,"ί":303,"α":304,"β":305,"γ":306,"δ":307,"ε":308,"ζ":309,"η":310,"θ":311,"ι":312,"κ":313,"λ":314,"μ":315,"ν":316,"ξ":317,"ο":318,"π":319,"ρ":320,"ς":321,"σ":322,"τ":323,"υ":324,"φ":325,"χ":326,"ψ":327,"ω":328,"ό":329,"ύ":330,"ώ":331,"А":332,"Б":333,"В":334,"Г":335,"Д":336,"Е":337,"З":338,"И":339,"К":340,"Л":341,"М":342,"Н":343,"О":344,"П":345,"Р":346,"С":347,"Т":348,"У":349,"а":350,"б":351,"в":352,"г":353,"д":354,"е":355,"ж":356,"з":357,"и":358,"й":359,"к":360,"л":361,"м":362,"н":363,"о":364,"п":365,"р":366,"с":367,"т":368,"у":369,"ф":370,"х":371,"ц":372,"ч":373,"ш":374,"ъ":375,"ы":376,"ь":377,"э":378,"ю":379,"я":380,"ё":381,"і":382,"ј":383,"ћ":384,"Ա":385,"Հ":386,"Ս":387,"ա":388,"գ":389,"ե":390,"թ":391,"ի":392,"լ":393,"կ":394,"ղ":395,"մ":396,"յ":397,"ն":398,"ո":399,"ս":400,"վ":401,"տ":402,"ր":403,"ց":404,"ւ":405,"ք":406,"ְ":407,"ִ":408,"ֵ":409,"ֶ":410,"ַ":411,"ָ":412,"ֹ":413,"ּ":414,"א":415,"ב":416,"ג":417,"ד":418,"ה":419,"ו":420,"ז":421,"ח":422,"ט":423,"י":424,"כ":425,"ל":426,"ם":427,"מ":428,"ן":429,"נ":430,"ס":431,"ע":432,"פ":433,"צ":434,"ק":435,"ר":436,"ש":437,"ת":438,"ء":439,"أ":440,"إ":441,"ا":442,"ب":443,"ة":444,"ت":445,"ث":446,"ج":447,"ح":448,"خ":449,"د":450,"ذ":451,"ر":452,"ز":453,"س":454,"ش":455,"ص":456,"ض":457,"ط":458,"ع":459,"غ":460,"ف":461,"ق":462,"ك":463,"ل":464,"م":465,"ن":466,"ه":467,"و":468,"ى":469,"ي":470,"َ":471,"ِ":472,"ّ":473,"ْ":474,"ی":475,"ं":476,"अ":477,"क":478,"ग":479,"च":480,"ज":481,"ट":482,"ण":483,"त":484,"द":485,"ध":486,"न":487,"प":488,"ब":489,"भ":490,"म":491,"य":492,"र":493,"ल":494,"व":495,"श":496,"ष":497,"स":498,"ह":499,"ा":500,"ि":501,"ी":502,"ु":503,"ू":504,"ृ":505,"े":506,"ो":507,"्":508,"ক":509,"ল":510,"া":511,"্":512,"க":513,"ம":514,"ர":515,"ா":516,"ி":517,"்":518,"ก":519,"ข":520,"ง":521,"จ":522,"ช":523,"ด":524,"ต":525,"ท":526,"น":527,"บ":528,"ป":529,"พ":530,"ม":531,"ย":532,"ร":533,"ล":534,"ว":535,"ศ":536,"ส":537,"ห":538,"อ":539,"ะ":540,"ั":541,"า":542,"ิ":543,"ี":544,"ุ":545,"ู":546,"เ":547,"แ":548,"่":549,"้":550,"์":551,"་":552,"င":553,"ဆ":554,"န":555,"ပ":556,"ရ":557,"်":558,"ြ":559,"ა":560,"დ":561,"ე":562,"ვ":563,"ი":564,"ლ":565,"მ":566,"რ":567,"ს":568,"უ":569,"ត":570,"ន":571,"ម":572,"រ":573,"ស":574,"ា":575,"្":576,"ᵻ":577,"ḍ":578,"Ḥ":579,"ḥ":580,"ḷ":581,"ḻ":582,"ṃ":583,"ṅ":584,"ṇ":585,"ṛ":586,"ṣ":587,"ṭ":588,"ạ":589,"ả":590,"ấ":591,"ầ":592,"ẩ":593,"ậ":594,"ắ":595,"ẵ":596,"ế":597,"ễ":598,"ệ":599,"ị":600,"ọ":601,"ố":602,"ồ":603,"ổ":604,"ộ":605,"ớ":606,"ờ":607,"ở":608,"ợ":609,"ụ":610,"ủ":611,"ứ":612,"ử":613,"ữ":614,"ự":615,"ỳ":616,"ỹ":617,"ἀ":618,"ἄ":619,"Ἀ":620,"ἐ":621,"ἔ":622,"ἰ":623,"ἱ":624,"ὁ":625,"ὐ":626,"ὑ":627,"ὴ":628,"ὶ":629,"ὸ":630,"ᾶ":631,"ῆ":632,"ῖ":633,"ῦ":634,"ῶ":635,"​":636,"‌":637,"‍":638,"‐":639,"–":640,"—":641,"―":642,"‘":643,"’":644,"“":645,"”":646,"„":647,"†":648,"‡":649,"•":650,"‰":651,"′":652,"⁄":653,"₣":654,"₤":655,"₩":656,"€":657,"₱":658,"₹":659,"→":660,"⇌":661,"∂":662,"∈":663,"∑":664,"−":665,"∗":666,"√":667,"∞":668,"∴":669,"≈":670,"≠":671,"≡":672,"≤":673,"≥":674,"⊕":675,"⊗":676,"⋅":677,"▁":678,"☆":679,"☉":680,"♥":681,"♦":682,"♭":683,"♯":684,"⟨":685,"⟩":686,"ⴰ":687,"、":688,"〈":689,"〉":690,"「":691,"」":692,"〜":693,"あ":694,"い":695,"う":696,"え":697,"お":698,"か":699,"が":700,"き":701,"く":702,"ぐ":703,"け":704,"こ":705,"さ":706,"し":707,"じ":708,"す":709,"せ":710,"た":711,"だ":712,"ち":713,"っ":714,"つ":715,"て":716,"で":717,"と":718,"ど":719,"な":720,"に":721,"の":722,"は":723,"ば":724,"ひ":725,"ふ":726,"へ":727,"ぽ":728,"ま":729,"み":730,"め":731,"も":732,"ゃ":733,"ゆ":734,"よ":735,"ら":736,"り":737,"る":738,"れ":739,"を":740,"ん":741,"ァ":742,"ア":743,"ィ":744,"イ":745,"ウ":746,"ェ":747,"エ":748,"ォ":749,"オ":750,"カ":751,"ガ":752,"キ":753,"ギ":754,"ク":755,"グ":756,"ケ":757,"ゲ":758,"コ":759,"ゴ":760,"サ":761,"ザ":762,"シ":763,"ジ":764,"ス":765,"ズ":766,"セ":767,"ゼ":768,"ソ":769,"タ":770,"ダ":771,"チ":772,"ッ":773,"ツ":774,"テ":775,"デ":776,"ト":777,"ド":778,"ナ":779,"ニ":780,"ネ":781,"ノ":782,"ハ":783,"バ":784,"パ":785,"ヒ":786,"ビ":787,"ピ":788,"フ":789,"ブ":790,"プ":791,"ベ":792,"ペ":793,"ホ":794,"ボ":795,"ポ":796,"マ":797,"ミ":798,"ム":799,"メ":800,"モ":801,"ャ":802,"ヤ":803,"ュ":804,"ユ":805,"ョ":806,"ラ":807,"リ":808,"ル":809,"レ":810,"ロ":811,"ワ":812,"ン":813,"ヴ":814,"・":815,"ー":816,"一":817,"三":818,"上":819,"下":820,"不":821,"世":822,"个":823,"中":824,"丸":825,"主":826,"之":827,"事":828,"二":829,"五":830,"井":831,"京":832,"人":833,"代":834,"会":835,"伝":836,"作":837,"僕":838,"光":839,"八":840,"公":841,"内":842,"写":843,"剣":844,"劉":845,"動":846,"北":847,"十":848,"千":849,"南":850,"原":851,"台":852,"司":853,"合":854,"名":855,"君":856,"周":857,"和":858,"四":859,"国":860,"國":861,"園":862,"地":863,"型":864,"城":865,"場":866,"塊":867,"士":868,"外":869,"夜":870,"夢":871,"大":872,"天":873,"太":874,"女":875,"子":876,"学":877,"守":878,"安":879,"宗":880,"宮":881,"家":882,"寺":883,"小":884,"少":885,"山":886,"島":887,"川":888,"師":889,"平":890,"年":891,"式":892,"張":893,"後":894,"心":895,"恋":896,"愛":897,"成":898,"我":899,"戦":900,"所":901,"手":902,"政":903,"教":904,"文":905,"新":906,"方":907,"旋":908,"日":909,"明":910,"星":911,"春":912,"時":913,"書":914,"月":915,"有":916,"木":917,"本":918,"李":919,"村":920,"東":921,"林":922,"機":923,"歌":924,"正":925,"武":926,"殿":927,"氏":928,"民":929,"水":930,"永":931,"法":932,"海":933,"火":934,"物":935,"王":936,"生":937,"田":938,"界":939,"白":940,"百":941,"的":942,"真":943,"眼":944,"石":945,"社":946,"神":947,"祭":948,"空":949,"第":950,"紅":951,"編":952,"美":953,"者":954,"聖":955,"能":956,"艦":957,"良":958,"花":959,"華":960,"葉":961,"藤":962,"行":963,"術":964,"西":965,"見":966,"記":967,"語":968,"説":969,"議":970,"谷":971,"賦":972,"赤":973,"路":974,"軍":975,"転":976,"遁":977,"道":978,"郎":979,"部":980,"野":981,"金":982,"銀":983,"長":984,"門":985,"院":986,"集":987,"雪":988,"青":989,"風":990,"香":991,"馬":992,"高":993,"鬼":994,"魂":995,"魔":996,"黄":997,"鼓":998,"龍":999,"﻿":1000,"▁t":1001,"he":1002,"▁a":1003,"in":1004,"▁the":1005,"er":1006,"on":1007,"▁,":1008,"re":1009,"▁s":1010,"ed":1011,"▁w":1012,"▁o":1013,"nd":1014,"at":1015,"▁.":1016,"or":1017,"en":1018,"▁c":1019,"it":1020,"▁f":1021,"is":1022,"es":1023,"ar":1024,"▁b":1025,"▁of":1026,"an":1027,"▁in":1028,"al":1029,"ing":1030,"▁p":1031,"as":1032,"▁and":1033,"▁to":1034,"ic":1035,"ro":1036,"▁m":1037,"▁d":1038,"▁h":1039,"ion":1040,"le":1041,"ou":1042,"▁T":1043,"▁re":1044,"▁=":1045,"▁S":1046,"il":1047,"▁A":1048,"ent":1049,"▁\"":1050,"▁1":1051,"▁th":1052,"st":1053,"el":1054,"▁C":1055,"▁l":1056,"▁@":1057,"om":1058,"▁e":1059,"am":1060,"▁n":1061,"ad":1062,"ac":1063,"▁was":1064,"▁M":1065,"▁B":1066,"ec":1067,"▁on":1068,"▁The":1069,"ly":1070,"ur":1071,"▁'":1072,"et":1073,"id":1074,"ol":1075,"▁g":1076,"im":1077,"▁I":1078,"-@":1079,"▁@-@":1080,"▁for":1081,"ir":1082,"ig":1083,"iv":1084,"ot":1085,"ter":1086,"▁H":1087,"ut":1088,"▁as":1089,"us":1090,"ow":1091,"ith":1092,"ay":1093,"▁2":1094,"▁P":1095,"▁st":1096,"▁'s":1097,"▁he":1098,"ver":1099,"ation":1100,"▁with":1101,"▁be":1102,"▁R":1103,"▁that":1104,"▁D":1105,"ce":1106,"un":1107,"em":1108,"▁W":1109,"▁wh":1110,"▁F":1111,"ch":1112,"▁by":1113,"th":1114,"▁al":1115,"▁)":1116,"▁(":1117,"▁L":1118,"ul":1119,"▁G":1120,"▁is":1121,"▁con":1122,"ers":1123,"▁at":1124,"ct":1125,"▁N":1126,"ra":1127,"os":1128,"▁19":1129,"▁an":1130,"▁it":1131,"her":1132,"rom":1133,"and":1134,"um":1135,"▁J":1136,"est":1137,"00":1138,"▁his":1139,"▁E":1140,"ag":1141,"av":1142,"ain":1143,"ri":1144,"od":1145,"▁from":1146,"▁O":1147,"ist":1148,"▁com":1149,"▁v":1150,"▁pro":1151,"op":1152,"ill":1153,"ore":1154,"if":1155,"ld":1156,"up":1157,"▁r":1158,"ew":1159,"ere":1160,"res":1161,"igh":1162,"▁In":1163,"ies":1164,"▁de":1165,"ber":1166,"art":1167,"ard":1168,"ort":1169,"▁se":1170,"ich":1171,"▁were":1172,"ate":1173,"all":1174,"ak":1175,"ant":1176,"oc":1177,"ud":1178,"ap":1179,"▁ex":1180,"qu":1181,"ong":1182,"ab":1183,"▁ch":1184,"▁or":1185,"▁K":1186,"gh":1187,"ear":1188,"ess":1189,"ated":1190,"▁pl":1191,"▁sh":1192,"ity":1193,"ip":1194,"ive":1195,"ame":1196,"▁U":1197,"▁had":1198,"ect":1199,"ack":1200,"▁St":1201,"▁su":1202,"ast":1203,"se":1204,"red":1205,"▁k":1206,"ge":1207,"▁which":1208,"our":1209,"ment":1210,"▁le":1211,"und":1212,"▁are":1213,"ov":1214,"ian":1215,"ial":1216,"▁not":1217,"ell":1218,"▁sp":1219,"ost":1220,"▁y":1221,"ight":1222,"ia":1223,"ord":1224,"ust":1225,"ary":1226,"ine":1227,"ther":1228,"pt":1229,"rit":1230,"▁3":1231,"oun":1232,"pp":1233,"ical":1234,"▁Ch":1235,"ave":1236,"▁un":1237,"▁200":1238,"cc":1239,"▁inc":1240,"fter":1241,"ould":1242,"▁V":1243,"▁but":1244,"irst":1245,"ish":1246,"ous":1247,"te":1248,"ff":1249,"ions":1250,"so":1251,"▁comp":1252,"▁20":1253,"ide":1254,"▁ro":1255,"ure":1256,"▁whe":1257,"ub":1258,"▁ar":1259,"▁cont":1260,"ie":1261,"▁;":1262,"og":1263,"ign":1264,"▁first":1265,"▁cl":1266,"wo":1267,"▁her":1268,"ry":1269,"ue":1270,"▁its":1271,"ass":1272,"▁their":1273,"orm":1274,"▁–":1275,"ok":1276,"ork":1277,"▁int":1278,"▁res":1279,"▁He":1280,"▁:":1281,"ater":1282,"▁also":1283,"▁ab":1284,"ond":1285,"▁ad":1286,"ome":1287,"out":1288,"ran":1289,"mer":1290,"ire":1291,"hed":1292,"ru":1293,"▁us":1294,"age":1295,"du":1296,"▁4":1297,"ime":1298,"low":1299,"▁per":1300,"per":1301,"▁who":1302,"▁5":1303,"▁Th":1304,"▁one":1305,"▁have":1306,"▁sc":1307,"pl":1308,"ally":1309,"own":1310,"ile":1311,"▁rec":1312,"▁18":1313,"ted":1314,".@":1315,"▁@.@":1316,"▁two":1317,"ition":1318,"ugh":1319,"iz":1320,"ree":1321,"ence":1322,"ts":1323,"uring":1324,"port":1325,"▁been":1326,"▁part":1327,"▁bec":1328,"ice":1329,"▁has":1330,"▁Al":1331,"▁ag":1332,"▁app":1333,"▁201":1334,"ough":1335,",@":1336,"▁@,@":1337,"▁j":1338,"▁en":1339,"▁dis":1340,"lud":1341,"ke":1342,"▁over":1343,"▁ser":1344,"▁this":1345,"ory":1346,"ely":1347,"▁year":1348,"ations":1349,"ember":1350,"ren":1351,"ction":1352,"ound":1353,"ach":1354,"▁off":1355,"▁after":1356,"ric":1357,"▁up":1358,"land":1359,"▁play":1360,"▁des":1361,"ace":1362,"▁It":1363,"ark":1364,"over":1365,"ance":1366,"▁out":1367,"▁they":1368,"▁man":1369,"ade":1370,"▁te":1371,"act":1372,"▁other":1373,"ib":1374,"man":1375,"ult":1376,"▁im":1377,"▁Y":1378,"ph":1379,"ress":1380,"▁includ":1381,"ced":1382,"ens":1383,"urn":1384,"wn":1385,"▁would":1386,"ind":1387,"▁time":1388,"one":1389,"▁pre":1390,"▁into":1391,"vel":1392,"▁On":1393,"▁Un":1394,"ward":1395,"we":1396,"▁we":1397,"▁him":1398,"ite":1399,"oin":1400,"ates":1401,"▁6":1402,"▁she":1403,"les":1404,"▁ev":1405,"ilm":1406,"▁att":1407,"ased":1408,"▁ne":1409,"ited":1410,"able":1411,"end":1412,"ied":1413,"ase":1414,"amp":1415,"▁comm":1416,"ors":1417,"▁inter":1418,"are":1419,"rough":1420,"oy":1421,"ons":1422,"ount":1423,"ep":1424,"form":1425,"▁all":1426,"ose":1427,"ood":1428,"ang":1429,"▁more":1430,"ces":1431,"▁work":1432,"▁7":1433,"ail":1434,"old":1435,"aw":1436,"ered":1437,"ings":1438,"ve":1439,"ild":1440,"▁An":1441,"▁new":1442,"▁sec":1443,"▁bet":1444,"▁when":1445,"inal":1446,"▁fe":1447,"▁film":1448,"ick":1449,"vi":1450,"ents":1451,"▁Se":1452,"way":1453,"att":1454,"ft":1455,"iss":1456,"aus":1457,"fer":1458,"▁8":1459,"gan":1460,"▁Mar":1461,"reat":1462,"rib":1463,"▁cons":1464,"▁Ar":1465,"round":1466,"ake":1467,"▁rem":1468,"ved":1469,"▁tr":1470,"▁dec":1471,"ason":1472,"ans":1473,"▁during":1474,"▁und":1475,"orth":1476,"ubl":1477,"▁9":1478,"hip":1479,"▁again":1480,"▁As":1481,"▁most":1482,"▁game":1483,"oth":1484,"▁them":1485,"▁199":1486,"▁only":1487,"▁pr":1488,"ath":1489,"ween":1490,"ix":1491,"▁ear":1492,"ollow":1493,"▁than":1494,"ob":1495,"rop":1496,"▁sup":1497,"ational":1498,"fore":1499,"▁New":1500,"▁about":1501,"▁produ":1502,"ug":1503,"▁cent":1504,"tern":1505,"▁kn":1506,"▁ret":1507,"ey":1508,"▁char":1509,"▁song":1510,"▁can":1511,"outh":1512,"▁between":1513,"▁later":1514,"orn":1515,"▁rele":1516,"▁under":1517,"ict":1518,"▁three":1519,"hn":1520,"ton":1521,"▁col":1522,"ron":1523,"▁act":1524,"▁00":1525,"als":1526,"▁qu":1527,"▁through":1528,"▁En":1529,"orld":1530,"ook":1531,"▁num":1532,"▁so":1533,"▁me":1534,"▁acc":1535,"▁rel":1536,"▁while":1537,"▁ra":1538,"▁end":1539,"meric":1540,"▁Le":1541,"lect":1542,"▁Americ":1543,"▁fl":1544,"ters":1545,"ock":1546,"▁pos":1547,"ral":1548,"▁sub":1549,"ever":1550,"ular":1551,"▁ass":1552,"ating":1553,"▁where":1554,"▁ver":1555,"▁day":1556,"ck":1557,"▁reg":1558,"▁second":1559,"ener":1560,"aid":1561,"▁bu":1562,"▁Com":1563,"▁made":1564,"ames":1565,"ision":1566,"ived":1567,"▁Re":1568,"▁pe":1569,"hes":1570,"▁record":1571,"son":1572,"▁def":1573,"bum":1574,"▁four":1575,"▁gro":1576,"▁follow":1577,"▁season":1578,"▁000":1579,"▁ep":1580,"▁form":1581,"▁some":1582,"▁such":1583,"▁am":1584,"ool":1585,"ished":1586,"▁mov":1587,"▁before":1588,"▁tra":1589,"▁mus":1590,"▁Sp":1591,"▁there":1592,"▁writ":1593,"hen":1594,"ics":1595,"▁Jo":1596,"io":1597,"▁spec":1598,"iel":1599,"▁10":1600,"ike":1601,"▁sy":1602,"▁years":1603,"▁team":1604,"▁At":1605,"ode":1606,"ual":1607,"▁This":1608,"ident":1609,"▁/":1610,"▁lar":1611,"▁album":1612,"▁Sh":1613,"▁ind":1614,"ros":1615,"ily":1616,"owever":1617,"▁ent":1618,"ning":1619,"▁used":1620,"▁call":1621,"ank":1622,"▁sur":1623,"ific":1624,"▁ac":1625,"▁high":1626,"ury":1627,"▁publ":1628,"▁being":1629,"▁epis":1630,"ained":1631,"▁then":1632,"led":1633,"ten":1634,"velop":1635,"aj":1636,"▁do":1637,"▁loc":1638,"▁exp":1639,"ife":1640,"ris":1641,"▁17":1642,"▁against":1643,"▁inv":1644,"▁0":1645,"▁bl":1646,"▁pres":1647,"▁show":1648,"other":1649,"▁number":1650,"▁After":1651,"▁charac":1652,"ious":1653,"▁sever":1654,"▁add":1655,"▁co":1656,"▁set":1657,"ek":1658,"ince":1659,"ject":1660,"ars":1661,"▁became":1662,"▁rece":1663,"▁Brit":1664,"ause":1665,"▁lead":1666,"▁perform":1667,"▁no":1668,"▁including":1669,"▁sing":1670,"ather":1671,"ins":1672,"▁—":1673,"ines":1674,"▁found":1675,"▁United":1676,"rans":1677,"air":1678,"▁well":1679,"ale":1680,"▁mon":1681,"▁rep":1682,"▁Sc":1683,"▁pol":1684,"▁back":1685,"▁both":1686,"ier":1687,"▁cap":1688,"▁198":1689,"▁series":1690,"▁15":1691,"▁12":1692,"ober":1693,"ram":1694,"▁Con":1695,"ik":1696,"ower":1697,"▁ship":1698,"ement":1699,"its":1700,"ert":1701,"ired":1702,"ures":1703,"ley":1704,"▁Wh":1705,"▁She":1706,"ivers":1707,"▁main":1708,"pen":1709,"▁194":1710,"▁min":1711,"iet":1712,"der":1713,"overn":1714,"▁did":1715,"ven":1716,"▁go":1717,"▁cre":1718,"elf":1719,"olog":1720,"▁imp":1721,"▁develop":1722,"▁met":1723,"az":1724,"ities":1725,"▁Eng":1726,"▁long":1727,"iver":1728,"any":1729,"ll":1730,"ised":1731,"erm":1732,"ting":1733,"uch":1734,"ared":1735,"ann":1736,"ane":1737,"ird":1738,"▁em":1739,"▁John":1740,"▁mill":1741,"ful":1742,"▁air":1743,"▁mat":1744,"▁episode":1745,"tend":1746,"irect":1747,"▁said":1748,"▁stud":1749,"▁many":1750,"ute":1751,"▁bro":1752,"ash":1753,"ative":1754,"▁dep":1755,"▁car":1756,"▁16":1757,"▁could":1758,"▁orig":1759,"▁war":1760,"▁contin":1761,"▁Cl":1762,"▁several":1763,"▁American":1764,"though":1765,"▁dif":1766,"▁Ind":1767,"ield":1768,"ah":1769,"▁inst":1770,"▁pop":1771,"ouse":1772,"ise":1773,"emb":1774,"▁known":1775,"▁197":1776,"ty":1777,"ually":1778,"▁196":1779,"▁Aust":1780,"▁11":1781,"▁conc":1782,"til":1783,"iam":1784,"▁War":1785,"view":1786,"erson":1787,"▁ob":1788,"ued":1789,"▁Ger":1790,"▁sm":1791,"▁return":1792,"▁any":1793,"▁began":1794,"▁Z":1795,"ern":1796,"▁comple":1797,"▁design":1798,"▁De":1799,"▁desc":1800,"▁sign":1801,"ople":1802,"chool":1803,"ross":1804,"my":1805,"ism":1806,"oot":1807,"▁est":1808,"0s":1809,"▁trans":1810,"ccess":1811,"▁prov":1812,"aking":1813,"▁feat":1814,"▁Bl":1815,"ided":1816,"▁inf":1817,"anc":1818,"▁run":1819,"▁early":1820,"▁art":1821,"ized":1822,"▁dist":1823,"▁music":1824,"▁own":1825,"▁near":1826,"▁released":1827,"▁until":1828,"▁called":1829,"▁eff":1830,"▁Col":1831,"imes":1832,"▁US":1833,"rid":1834,"ists":1835,"▁resp":1836,"une":1837,"▁bel":1838,"enn":1839,"▁pass":1840,"stem":1841,"ured":1842,"▁fin":1843,"ially":1844,"▁May":1845,"▁ph":1846,"ution":1847,"▁down":1848,"▁disc":1849,"ments":1850,"▁crit":1851,"osed":1852,"xt":1853,"▁direct":1854,"▁gener":1855,"▁along":1856,"ium":1857,"▁ins":1858,"▁million":1859,"ger":1860,"ull":1861,"▁British":1862,"ax":1863,"▁group":1864,"▁offic":1865,"vent":1866,"▁German":1867,"▁13":1868,"▁fam":1869,"eb":1870,"▁these":1871,"ajor":1872,"▁mod":1873,"▁may":1874,"▁$":1875,"cept":1876,"▁Ad":1877,"▁open":1878,"ange":1879,"▁mil":1880,"▁Be":1881,"▁poin":1882,"uc":1883,"gg":1884,"▁land":1885,"▁sim":1886,"▁hist":1887,"▁Aug":1888,"▁govern":1889,"▁Sept":1890,"▁success":1891,"▁September":1892,"▁August":1893,"ets":1894,"▁Ap":1895,"▁World":1896,"▁States":1897,"ible":1898,"ink":1899,"erv":1900,"▁gu":1901,"▁oper":1902,"▁count":1903,"▁attack":1904,"▁use":1905,"▁same":1906,"ys":1907,"wards":1908,"▁describ":1909,"▁people":1910,"▁Is":1911,"▁For":1912,"aced":1913,"▁character":1914,"yp":1915,"amed":1916,"▁because":1917,"▁All":1918,"els":1919,"▁vi":1920,"▁14":1921,"▁like":1922,"▁serv":1923,"▁Ju":1924,"▁Fran":1925,"ged":1926,"▁around":1927,"▁start":1928,"▁though":1929,"▁ed":1930,"▁195":1931,"▁Pl":1932,"▁Q":1933,"ner":1934,"▁win":1935,"▁km":1936,"▁const":1937,"ues":1938,"ring":1939,"▁took":1940,"▁occ":1941,"ruct":1942,"aving":1943,"▁Austral":1944,"▁batt":1945,"▁Oct":1946,"▁ann":1947,"▁support":1948,"ove":1949,"▁Nov":1950,"▁following":1951,"▁six":1952,"▁north":1953,"▁ele":1954,"▁Car":1955,"▁193":1956,"▁However":1957,"▁system":1958,"▁appear":1959,"uss":1960,"▁final":1961,"▁received":1962,"▁class":1963,"ined":1964,"▁October":1965,"▁head":1966,"ives":1967,"▁prom":1968,"▁consid":1969,"ene":1970,"ants":1971,"rad":1972,"ling":1973,"ility":1974,"ically":1975,"▁Dec":1976,"▁Pro":1977,"▁191":1978,"▁ever":1979,"▁state":1980,"▁build":1981,"ret":1982,"▁each":1983,"anu":1984,"▁ext":1985,"▁five":1986,"rist":1987,"▁aut":1988,"rol":1989,"▁York":1990,"▁century":1991,"ina":1992,"▁var":1993,"▁bo":1994,"▁will":1995,"▁area":1996,"▁They":1997,"ately":1998,"▁small":1999,"get":2000,"oss":2001,"▁partic":2002,"▁life":2003,"▁North":2004,"iving":2005,"ril":2006,"▁report":2007,"▁]":2008,"▁Me":2009,"▁[":2010,"tle":2011,"ored":2012,"▁By":2013,"▁June":2014,"ians":2015,"ording":2016,"▁city":2017,"gin":2018,"▁mar":2019,"ped":2020,"▁King":2021,"▁major":2022,"▁week":2023,"▁public":2024,"▁July":2025,"▁%":2026,"ission":2027,"▁conf":2028,"▁Har":2029,"▁band":2030,"ection":2031,"▁ref":2032,"med":2033,"▁November":2034,"inc":2035,"urch":2036,"▁rest":2037,"▁Comm":2038,"▁Will":2039,"▁world":2040,"▁Ph":2041,"▁med":2042,"▁since":2043,"esp":2044,"▁single":2045,"raft":2046,"raph":2047,"por":2048,"▁April":2049,"ble":2050,"▁Mc":2051,"ains":2052,"ried":2053,"lish":2054,"▁det":2055,"▁March":2056,"omet":2057,"▁just":2058,"▁last":2059,"ected":2060,"ural":2061,"..":2062,"ional":2063,"hest":2064,"▁Ed":2065,"aim":2066,"▁turn":2067,"ively":2068,"▁hel":2069,"ilt":2070,"▁allow":2071,"▁po":2072,"▁Can":2073,"cl":2074,"ient":2075,"▁30":2076,"vious":2077,"▁Ge":2078,"▁left":2079,"▁large":2080,"▁line":2081,"ats":2082,"▁differ":2083,"ales":2084,"▁South":2085,"▁care":2086,"▁south":2087,"▁adv":2088,"ified":2089,"▁During":2090,"▁...":2091,"▁dr":2092,"▁str":2093,"▁book":2094,"▁vers":2095,"empt":2096,"▁school":2097,"▁sl":2098,"ague":2099,"▁December":2100,"▁third":2101,"avy":2102,"▁incre":2103,"▁25":2104,"▁month":2105,"▁due":2106,"▁appro":2107,"▁played":2108,"▁much":2109,"▁event":2110,"row":2111,"▁Pr":2112,"▁if":2113,"rote":2114,"▁another":2115,"▁Janu":2116,"▁192":2117,"▁January":2118,"▁included":2119,"▁what":2120,"▁place":2121,"▁based":2122,"▁short":2123,"ne":2124,"▁II":2125,"ony":2126,"▁expl":2127,"▁government":2128,"▁person":2129,"ball":2130,"▁wrote":2131,"▁When":2132,"▁track":2133,"apan":2134,"▁camp":2135,"▁tit":2136,"▁old":2137,"▁Eu":2138,"▁bre":2139,"alf":2140,"▁name":2141,"▁death":2142,"▁port":2143,"▁elect":2144,"ently":2145,"ple":2146,"rent":2147,"▁Japan":2148,"ience":2149,"▁eng":2150,"▁won":2151,"by":2152,"▁Or":2153,"▁child":2154,"▁prot":2155,"▁lit":2156,"▁kill":2157,"▁prog":2158,"oad":2159,"▁story":2160,"ideo":2161,"ages":2162,"▁power":2163,"▁Bro":2164,"▁review":2165,"▁Te":2166,"ody":2167,"▁vis":2168,"ital":2169,"▁home":2170,"ott":2171,"▁led":2172,"ps":2173,"▁described":2174,"eng":2175,"▁requ":2176,"oman":2177,"▁previous":2178,"▁family":2179,"▁gun":2180,"rand":2181,"tain":2182,"▁way":2183,"yl":2184,"▁named":2185,"▁right":2186,"▁now":2187,"▁Mus":2188,"▁dem":2189,"urther":2190,"iod":2191,"iven":2192,"▁men":2193,"ilar":2194,"▁even":2195,"▁make":2196,"embers":2197,"▁organ":2198,"▁Gu":2199,"reen":2200,"ister":2201,"ont":2202,"cy":2203,"iversity":2204,"omin":2205,"▁attempt":2206,"▁best":2207,"itions":2208,"▁100":2209,"▁cour":2210,"▁repl":2211,"ivision":2212,"▁opp":2213,"▁leg":2214,"rench":2215,"▁games":2216,"ior":2217,"ached":2218,"▁term":2219,"▁And":2220,"▁command":2221,"ival":2222,"▁hand":2223,"▁Fl":2224,"▁poss":2225,"mp":2226,"▁'t":2227,"▁belie":2228,"▁dam":2229,"▁very":2230,"ox":2231,"▁His":2232,"▁those":2233,"▁Feb":2234,"▁Europ":2235,"▁par":2236,"▁Febru":2237,"▁February":2238,"sh":2239,"▁iss":2240,"▁still":2241,"▁top":2242,"▁next":2243,"▁species":2244,"▁Christ":2245,"▁effect":2246,"riend":2247,"▁view":2248,"ched":2249,"▁There":2250,"▁National":2251,"oci":2252,"▁original":2253,"aken":2254,"▁We":2255,"ature":2256,"ences":2257,"▁spe":2258,"lu":2259,"▁water":2260,"ness":2261,"▁addition":2262,"▁join":2263,"▁Bar":2264,"▁Europe":2265,"▁list":2266,"au":2267,"▁period":2268,"▁within":2269,"alk":2270,"▁members":2271,"▁mark":2272,"eter":2273,"▁deb":2274,"▁held":2275,"▁built":2276,"▁French":2277,"▁exper":2278,"hor":2279,"af":2280,"▁Am":2281,"▁release":2282,"▁Par":2283,"▁late":2284,"▁although":2285,"▁former":2286,"rew":2287,"▁match":2288,"▁great":2289,"augh":2290,"ridge":2291,"ney":2292,"▁cur":2293,"▁dest":2294,"▁sold":2295,"uted":2296,"▁2010":2297,"tended":2298,"▁video":2299,"▁21":2300,"ards":2301,"▁caus":2302,"▁West":2303,"line":2304,"▁storm":2305,"▁cover":2306,"▁X":2307,"ves":2308,"ech":2309,"▁init":2310,"▁role":2311,"ropical":2312,"▁tri":2313,"▁William":2314,"self":2315,"▁came":2316,"▁estab":2317,"hel":2318,"▁Her":2319,"▁days":2320,"ances":2321,"▁result":2322,"▁mid":2323,"▁present":2324,"na":2325,"lev":2326,"▁control":2327,"aged":2328,"ption":2329,"oon":2330,"ulation":2331,"▁stand":2332,"▁real":2333,"▁polit":2334,"▁however":2335,"▁Min":2336,"itary":2337,"aster":2338,"ham":2339,"▁2008":2340,"▁prop":2341,"let":2342,"ense":2343,"▁2009":2344,"▁Man":2345,"atic":2346,"ides":2347,"▁few":2348,"▁town":2349,"▁24":2350,"▁wind":2351,"▁Geor":2352,"omb":2353,"▁you":2354,"ograph":2355,"▁tw":2356,"▁side":2357,"▁sk":2358,"▁continued":2359,"▁often":2360,"▁equ":2361,"▁post":2362,"▁Ear":2363,"ays":2364,"▁local":2365,"▁2011":2366,"elt":2367,"▁Char":2368,"ator":2369,"▁among":2370,"▁Air":2371,"▁similar":2372,"ruction":2373,"ead":2374,"ches":2375,"▁Mich":2376,"ract":2377,"▁hum":2378,"▁av":2379,"▁claim":2380,"▁No":2381,"estern":2382,"omen":2383,"▁&":2384,"ung":2385,"▁England":2386,"reet":2387,"read":2388,"akes":2389,"▁different":2390,"side":2391,"ese":2392,"ops":2393,"▁my":2394,"▁del":2395,"ler":2396,"▁beh":2397,"▁Rec":2398,"ology":2399,"par":2400,"▁typ":2401,"▁22":2402,"▁further":2403,"▁sent":2404,"esc":2405,"▁Dav":2406,"ots":2407,"ested":2408,"▁level":2409,"urs":2410,"▁fre":2411,"▁considered":2412,"▁take":2413,"▁law":2414,"ery":2415,"▁El":2416,"▁tot":2417,"▁2007":2418,"gy":2419,"▁career":2420,"▁One":2421,"ront":2422,"▁production":2423,"arm":2424,"me":2425,"▁half":2426,"ices":2427,"▁Park":2428,"▁Co":2429,"▁ant":2430,".S":2431,"▁City":2432,"▁having":2433,"ampions":2434,"bo":2435,"▁Acc":2436,"▁English":2437,"▁mag":2438,"▁road":2439,"▁east":2440,"▁moved":2441,"▁dra":2442,"ering":2443,".S.":2444,"▁every":2445,"▁west":2446,"▁without":2447,"▁Although":2448,"rodu":2449,"▁cr":2450,"▁Cent":2451,"▁appe":2452,"▁plan":2453,"▁player":2454,"▁2012":2455,"ining":2456,"▁position":2457,"▁cor":2458,"▁become":2459,"▁arr":2460,"▁history":2461,"▁version":2462,"vers":2463,"▁tro":2464,"▁Cal":2465,"ford":2466,"▁Ang":2467,"ondon":2468,"ones":2469,"▁cast":2470,"▁Count":2471,"▁el":2472,"▁influ":2473,"ize":2474,"▁arm":2475,"▁23":2476,"▁London":2477,"▁house":2478,"yle":2479,"▁sound":2480,"rig":2481,"▁fore":2482,"▁commun":2483,"resent":2484,"irc":2485,"app":2486,"▁Batt":2487,"▁gr":2488,"▁club":2489,"▁sugg":2490,"roy":2491,"aul":2492,"atter":2493,"▁strong":2494,"▁invol":2495,"ai":2496,"▁written":2497,"aining":2498,"▁190":2499,"▁With":2500,"▁bas":2501,"▁stat":2502,"▁less":2503,"oung":2504,"utes":2505,"▁announ":2506,"rest":2507,"▁foot":2508,"▁River":2509,"iqu":2510,"ald":2511,"▁order":2512,"▁refer":2513,"iety":2514,"iment":2515,"▁U.S.":2516,"ges":2517,"▁prof":2518,"craft":2519,"▁Canad":2520,"ae":2521,"▁aff":2522,"▁point":2523,"sequ":2524,"▁tem":2525,"▁given":2526,"▁rad":2527,"▁low":2528,"▁trad":2529,"▁hig":2530,"▁want":2531,"▁Gener":2532,"▁University":2533,"ille":2534,"▁ke":2535,"▁gave":2536,"▁pat":2537,"uck":2538,"isc":2539,"▁import":2540,"▁Pol":2541,"▁never":2542,"aff":2543,"▁While":2544,"▁chang":2545,"▁defe":2546,"ories":2547,"▁soc":2548,"▁returned":2549,"ration":2550,"▁Ab":2551,"▁vict":2552,"▁total":2553,"▁fact":2554,"▁High":2555,"▁good":2556,"ention":2557,"▁Tr":2558,"▁company":2559,"▁fire":2560,"ailed":2561,"▁country":2562,"sp":2563,"▁went":2564,"ison":2565,"▁comb":2566,"cess":2567,"▁friend":2568,"ours":2569,"rick":2570,"▁Ex":2571,"▁capt":2572,"▁published":2573,"aun":2574,"▁produced":2575,"levision":2576,"▁find":2577,"aying":2578,"con":2579,"▁reported":2580,"▁origin":2581,"▁Sm":2582,"▁2006":2583,"aign":2584,"▁lost":2585,"▁stated":2586,"▁common":2587,"▁program":2588,"ington":2589,"▁light":2590,"yn":2591,"▁particular":2592,"ape":2593,"▁ord":2594,"echn":2595,"▁adm":2596,"▁include":2597,"ests":2598,"▁According":2599,"▁larg":2600,"ably":2601,"urric":2602,"▁compet":2603,"▁er":2604,"used":2605,"▁recorded":2606,"ief":2607,"▁building":2608,"▁press":2609,"▁Ste":2610,"▁need":2611,"▁Ne":2612,"▁bus":2613,"▁project":2614,"hing":2615,"▁forces":2616,"ument":2617,"▁nort":2618,"▁27":2619,"▁ships":2620,"▁should":2621,"▁using":2622,"▁eight":2623,"▁28":2624,"▁performance":2625,"iness":2626,"▁Sw":2627,"▁service":2628,"bs":2629,"▁popular":2630,"▁ide":2631,"ploy":2632,"▁These":2633,"▁times":2634,"▁50":2635,"osp":2636,"▁making":2637,"▁ten":2638,"▁aircraft":2639,"▁himself":2640,"oyal":2641,"▁fun":2642,"▁author":2643,"▁2013":2644,"▁father":2645,"atch":2646,"▁military":2647,"▁Australia":2648,"▁Sec":2649,"▁anim":2650,"lear":2651,"▁battle":2652,"ampionship":2653,"▁Jack":2654,"ned":2655,"▁Ass":2656,"▁sit":2657,"▁lim":2658,"▁songs":2659,"▁somet":2660,"▁read":2661,"▁Af":2662,"outher":2663,"▁critic":2664,"ensive":2665,"ither":2666,"ords":2667,"▁development":2668,"▁sw":2669,"▁how":2670,"▁gl":2671,"▁General":2672,"alth":2673,"eth":2674,"▁sol":2675,"itive":2676,"eder":2677,"ases":2678,"quad":2679,"▁26":2680,"▁40":2681,"▁State":2682,"oll":2683,"▁Cor":2684,"outhern":2685,"▁James":2686,"▁cross":2687,"cer":2688,"▁189":2689,"amb":2690,"▁represent":2691,"▁Sy":2692,"▁ground":2693,"▁destroy":2694,"acy":2695,"▁star":2696,"▁ft":2697,"▁remained":2698,"astern":2699,"▁ste":2700,"ks":2701,"rie":2702,"▁characters":2703,"▁Army":2704,"▁national":2705,"▁Pres":2706,"▁get":2707,"ries":2708,"work":2709,"▁months":2710,"▁suff":2711,"▁gen":2712,"▁Bo":2713,"▁died":2714,"aur":2715,"▁ter":2716,"▁Gl":2717,"▁Comp":2718,"ublic":2719,"▁developed":2720,"▁title":2721,"dom":2722,"▁sum":2723,"▁chart":2724,"fic":2725,"▁campaign":2726,"ream":2727,"urricane":2728,"▁force":2729,"▁League":2730,"▁children":2731,"▁introdu":2732,"lands":2733,"ency":2734,"▁pra":2735,"▁tour":2736,"▁promot":2737,"itted":2738,"isted":2739,"ael":2740,"▁son":2741,"▁signific":2742,"▁red":2743,"▁across":2744,"▁away":2745,"ression":2746,"hern":2747,"▁relations":2748,"▁obs":2749,"▁histor":2750,"▁field":2751,"▁official":2752,"▁Division":2753,"▁fav":2754,"▁felt":2755,"ole":2756,"lege":2757,"▁America":2758,"▁noted":2759,"▁fac":2760,"▁Sim":2761,"▁night":2762,"alt":2763,"▁announced":2764,"most":2765,"▁reached":2766,"▁Russ":2767,"▁intern":2768,"▁Sup":2769,"▁created":2770,"▁County":2771,"▁areas":2772,"com":2773,"▁Rep":2774,"▁Mon":2775,"▁television":2776,"▁coun":2777,"▁2005":2778,"▁Road":2779,"▁Japanese":2780,"▁station":2781,"hem":2782,"ressed":2783,"▁successful":2784,"▁Mad":2785,"▁rock":2786,"imately":2787,"▁val":2788,"▁Gr":2789,"▁Reg":2790,"ising":2791,"▁various":2792,"▁’":2793,"▁bar":2794,"▁Street":2795,"▁political":2796,"▁seen":2797,"▁followed":2798,"▁aver":2799,"field":2800,"iber":2801,"iting":2802,"▁too":2803,"▁29":2804,"▁rank":2805,"ett":2806,"▁East":2807,"ope":2808,"▁performed":2809,"cast":2810,"▁Rober":2811,"▁cult":2812,"ization":2813,"▁served":2814,"▁2014":2815,"▁players":2816,"▁front":2817,"reg":2818,"▁rev":2819,"ality":2820,"▁George":2821,"▁cond":2822,"▁full":2823,"▁prim":2824,"▁decl":2825,"▁black":2826,"ination":2827,"elling":2828,"▁begin":2829,"duct":2830,"▁fle":2831,"▁put":2832,"▁Ser":2833,"▁circ":2834,"▁conv":2835,"▁earl":2836,"▁Per":2837,"olution":2838,"▁To":2839,"▁Hen":2840,"▁cost":2841,"abor":2842,"idence":2843,"▁see":2844,"▁process":2845,"▁non":2846,"▁div":2847,"▁style":2848,"ying":2849,"▁look":2850,"▁Phil":2851,"▁seven":2852,"▁vol":2853,"▁aud":2854,"▁killed":2855,"▁Em":2856,"▁cy":2857,"▁help":2858,"rict":2859,"▁let":2860,"lished":2861,"play":2862,"▁throughout":2863,"▁Bill":2864,"▁taken":2865,"▁tropical":2866,"▁able":2867,"ana":2868,"▁fight":2869,"▁discover":2870,"▁agre":2871,"ecut":2872,"ertain":2873,"▁little":2874,"▁wid":2875,"▁becom":2876,"▁fem":2877,"▁age":2878,"urg":2879,"▁significant":2880,"▁Sch":2881,"▁hit":2882,"▁meet":2883,"▁ident":2884,"▁Thom":2885,"ways":2886,"irl":2887,"▁techn":2888,"▁special":2889,"▁cop":2890,"oice":2891,"▁writing":2892,"▁struct":2893,"▁David":2894,"▁thought":2895,"▁established":2896,"▁Part":2897,"▁broad":2898,"▁Act":2899,"enced":2900,"▁Mor":2901,"▁mm":2902,"▁appeared":2903,"▁does":2904,"▁coll":2905,"▁entire":2906,"▁Australian":2907,"aval":2908,"cil":2909,"epend":2910,"▁!":2911,"▁young":2912,"▁coast":2913,"▁points":2914,"▁miles":2915,"ius":2916,"▁body":2917,"▁award":2918,"less":2919,"▁impro":2920,"▁Rich":2921,"▁route":2922,"▁member":2923,"odes":2924,"ought":2925,"▁Med":2926,"ground":2927,"ript":2928,"▁women":2929,"▁activ":2930,"▁range":2931,"ster":2932,"ask":2933,"▁Pe":2934,"ivil":2935,"▁You":2936,"▁caused":2937,"▁started":2938,"▁decided":2939,"iers":2940,"blem":2941,"▁features":2942,"lected":2943,"day":2944,"▁Afric":2945,"▁general":2946,"▁pain":2947,"▁Qu":2948,"▁eventually":2949,"ators":2950,"iron":2951,"iec":2952,"int":2953,"umb":2954,"men":2955,"conom":2956,"oph":2957,"ogn":2958,"uk":2959,"den":2960,"▁Royal":2961,"▁race":2962,"▁arch":2963,"▁vot":2964,"here":2965,"itar":2966,"▁grow":2967,"▁manag":2968,"▁feet":2969,"pped":2970,"rison":2971,"▁toget":2972,"▁together":2973,"ush":2974,"▁added":2975,"▁Hist":2976,"▁House":2977,"▁tre":2978,"▁hold":2979,"bert":2980,"▁cut":2981,"ivid":2982,"▁188":2983,"▁white":2984,"▁once":2985,"▁nov":2986,"ample":2987,"ament":2988,"▁formed":2989,"▁arg":2990,"▁located":2991,"▁stri":2992,"reek":2993,"urb":2994,"▁conn":2995,"▁modern":2996,"off":2997,"▁Black":2998,"▁enc":2999,"▁instead":3000,"dle":3001,"▁Port":3002,"head":3003,"rought":3004,"aces":3005,"▁round":3006,"▁esc":3007,"▁31":3008,"▁ball":3009,"ara":3010,"▁mix":3011,"emy":3012,"▁Intern":3013,"ee":3014,"▁important":3015,"▁pri":3016,"cing":3017,"▁crew":3018,"▁saw":3019,"▁action":3020,"▁completed":3021,"▁redu":3022,"▁Ital":3023,"▁playing":3024,"ects":3025,"▁Indian":3026,"ids":3027,"oney":3028,"cent":3029,"rated":3030,"▁Other":3031,"ells":3032,"▁2004":3033,"ata":3034,"▁insp":3035,"▁base":3036,"▁mater":3037,"▁population":3038,"▁My":3039,"▁mot":3040,"▁surv":3041,"▁Michael":3042,"▁voc":3043,"▁ask":3044,"▁rather":3045,"▁occur":3046,"▁opened":3047,"▁stage":3048,"▁behind":3049,"▁others":3050,"▁186":3051,"ray":3052,"▁fall":3053,"▁ren":3054,"▁guns":3055,"asing":3056,"ceed":3057,"▁brother":3058,"wood":3059,"ements":3060,"igned":3061,"▁comment":3062,"lin":3063,"▁lik":3064,"stit":3065,"▁born":3066,"▁fif":3067,"▁2015":3068,"▁site":3069,"▁live":3070,"▁works":3071,"▁loss":3072,"▁France":3073,"▁bomb":3074,"▁worked":3075,"ficult":3076,"▁heavy":3077,"▁miss":3078,"▁pred":3079,"▁School":3080,"medi":3081,"rap":3082,"▁subsequ":3083,"▁lack":3084,"▁party":3085,"▁problem":3086,"nder":3087,"lection":3088,"▁difficult":3089,"▁close":3090,"▁Wash":3091,"▁construction":3092,"▁know":3093,"▁Nor":3094,"▁Some":3095,"▁relationship":3096,"▁host":3097,"▁weeks":3098,"istic":3099,"▁San":3100,"▁originally":3101,"▁separ":3102,"▁associ":3103,"arch":3104,"co":3105,"▁upon":3106,"▁pract":3107,"▁reb":3108,"▁Henry":3109,"▁leading":3110,"▁appoin":3111,"▁accom":3112,"▁vill":3113,"▁almost":3114,"▁mer":3115,"▁Robert":3116,"orts":3117,"▁peak":3118,"▁Ale":3119,"▁inj":3120,"▁damage":3121,"lic":3122,"unk":3123,"▁scored":3124,"▁fourth":3125,"osition":3126,"▁inform":3127,"▁reve":3128,"▁Music":3129,"aps":3130,"▁provided":3131,"▁Best":3132,"ming":3133,"▁case":3134,"▁Vir":3135,"▁Star":3136,"▁goal":3137,"▁clos":3138,"▁Battle":3139,"board":3140,"▁engine":3141,"▁creat":3142,"▁Red":3143,"▁accept":3144,"▁mi":3145,"▁invest":3146,"ica":3147,"oring":3148,"▁scene":3149,"ellow":3150,"▁Desp":3151,"▁human":3152,"angu":3153,"ule":3154,"ino":3155,"ological":3156,"▁brought":3157,"▁500":3158,"▁free":3159,"▁individ":3160,"▁187":3161,"▁Paul":3162,"▁featured":3163,"ula":3164,"▁mother":3165,"▁President":3166,"▁Rou":3167,"▁king":3168,"▁least":3169,"ama":3170,"▁working":3171,"aut":3172,"▁allowed":3173,"▁laun":3174,"▁resul":3175,"▁Mil":3176,"▁average":3177,"▁Cap":3178,"▁towards":3179,"▁wanted":3180,"▁mult":3181,"▁indust":3182,"▁tradition":3183,"aves":3184,"▁region":3185,"▁business":3186,"▁Washington":3187,"▁Hol":3188,"iding":3189,"azine":3190,"▁Ag":3191,"▁Que":3192,"▁ve":3193,"▁quick":3194,"▁troops":3195,"▁placed":3196,"▁either":3197,"▁ce":3198,"▁respect":3199,"ving":3200,"▁office":3201,"▁critics":3202,"ky":3203,"▁Bel":3204,"▁avail":3205,"▁hon":3206,"antic":3207,"▁reach":3208,"▁profess":3209,"▁example":3210,"▁runs":3211,"▁material":3212,"▁econom":3213,"▁recogn":3214,"▁far":3215,"ened":3216,"▁wife":3217,"ze":3218,"go":3219,"earch":3220,"chie":3221,"▁neg":3222,"to":3223,"▁estim":3224,"ential":3225,"▁army":3226,"▁foc":3227,"right":3228,"▁Despite":3229,"▁sex":3230,"▁2003":3231,"▁interest":3232,"▁Follow":3233,"▁Cour":3234,"▁sour":3235,"ength":3236,"▁generally":3237,"▁mass":3238,"r.":3239,"▁joined":3240,"▁dou":3241,"▁rail":3242,"quadron":3243,"▁Ham":3244,"▁proper":3245,"ills":3246,"▁Angel":3247,"uff":3248,"enes":3249,"▁current":3250,"▁dev":3251,"ourn":3252,"▁Hall":3253,"▁Cup":3254,"▁events":3255,"▁believed":3256,"▁Game":3257,"itch":3258,"of":3259,"▁particip":3260,"▁35":3261,"rey":3262,"be":3263,"▁fig":3264,"▁Following":3265,"▁Ke":3266,"ville":3267,"▁First":3268,"▁Mary":3269,"▁z":3270,"▁victory":3271,"▁replaced":3272,"▁Lou":3273,"▁Great":3274,"artment":3275,"▁designed":3276,"▁mph":3277,"iction":3278,"▁grad":3279,"▁Je":3280,"▁rul":3281,"itte":3282,"▁soon":3283,"▁nomin":3284,"sc":3285,"▁island":3286,"▁Gro":3287,"▁fund":3288,"xic":3289,"▁La":3290,"erous":3291,"oor":3292,"▁hours":3293,"▁European":3294,"▁Two":3295,"▁employ":3296,"▁president":3297,"▁Mal":3298,"▁room":3299,"ification":3300,"▁involved":3301,"aled":3302,"uel":3303,"▁surf":3304,"val":3305,"aper":3306,"▁finished":3307,"merc":3308,"▁stru":3309,"▁Championship":3310,"inn":3311,"inist":3312,"asion":3313,"west":3314,"▁Mart":3315,"inf":3316,"▁Play":3317,"▁break":3318,"rac":3319,"▁Roman":3320,"▁hor":3321,"rain":3322,"aren":3323,"iff":3324,"▁saying":3325,"arn":3326,"emor":3327,"▁court":3328,"▁shot":3329,"▁threat":3330,"▁Ber":3331,"▁score":3332,"▁opening":3333,"▁regular":3334,"▁Dan":3335,"BC":3336,"▁desp":3337,"▁director":3338,"▁length":3339,"▁Met":3340,"▁2000":3341,"▁Mac":3342,"▁Don":3343,"▁indic":3344,"ades":3345,"leg":3346,"cher":3347,"▁Scott":3348,"▁conduct":3349,"▁largest":3350,"▁contrib":3351,"▁travel":3352,"▁hom":3353,"oul":3354,"ki":3355,"▁possible":3356,"ecutive":3357,"▁ill":3358,"ude":3359,"now":3360,"▁minutes":3361,"▁highway":3362,"▁Route":3363,"▁southern":3364,"ishing":3365,"▁dro":3366,"▁Cro":3367,"▁hy":3368,"▁Val":3369,"icle":3370,"▁highest":3371,"▁remov":3372,"▁From":3373,"▁earlier":3374,"▁2001":3375,"▁test":3376,"▁Atl":3377,"▁initially":3378,"▁Sing":3379,"ago":3380,"▁ly":3381,"▁available":3382,"▁particularly":3383,"▁percent":3384,"ander":3385,"antry":3386,"▁hard":3387,"▁Wil":3388,"anned":3389,"▁sequ":3390,"▁training":3391,"▁Republic":3392,"▁forced":3393,"▁must":3394,"▁exist":3395,"ply":3396,"▁Mid":3397,"ipp":3398,"hib":3399,"▁Mag":3400,"▁Kingdom":3401,"▁Charles":3402,"▁Navy":3403,"ography":3404,"asy":3405,"▁°":3406,"▁park":3407,"rian":3408,"bor":3409,"ateg":3410,"▁respons":3411,"▁No.":3412,"▁ended":3413,"▁quar":3414,"▁McC":3415,"▁Off":3416,"▁turned":3417,"▁wall":3418,"▁Thomas":3419,"▁exc":3420,"▁social":3421,"▁International":3422,"uture":3423,"▁But":3424,"▁studio":3425,"▁Pal":3426,"ems":3427,"iforn":3428,"▁Res":3429,"rag":3430,"▁Dep":3431,"ios":3432,"▁change":3433,"▁White":3434,"▁langu":3435,"▁Virgin":3436,"▁praised":3437,"▁passed":3438,"▁super":3439,"▁priv":3440,"rup":3441,"▁bill":3442,"atural":3443,"▁piec":3444,"▁increased":3445,"▁object":3446,"▁Brown":3447,"▁educ":3448,"▁hurricane":3449,"▁regard":3450,"▁northern":3451,"heast":3452,"▁2002":3453,"▁keep":3454,"▁phys":3455,"▁central":3456,"ights":3457,"▁Church":3458,"itor":3459,"▁novel":3460,"▁relig":3461,"▁Canada":3462,"sel":3463,"▁speed":3464,"▁appearance":3465,"▁Californ":3466,"▁units":3467,"▁past":3468,"rem":3469,"ership":3470,"▁Rock":3471,"▁Sl":3472,"key":3473,"▁stop":3474,"▁church":3475,"▁Sen":3476,"ended":3477,"▁cou":3478,"▁immedi":3479,"▁Bay":3480,"uter":3481,"▁sym":3482,"ston":3483,"▁Mo":3484,"▁Smith":3485,"ocr":3486,"▁disp":3487,"▁meas":3488,"▁ordered":3489,"aughter":3490,"▁Mer":3491,"▁treat":3492,"ique":3493,"▁Sam":3494,"▁taking":3495,"ference":3496,"▁Richard":3497,"rying":3498,"ittee":3499,"▁independ":3500,"▁love":3501,"▁Alex":3502,"▁signed":3503,"▁move":3504,"ilities":3505,"▁California":3506,"▁achie":3507,"etwork":3508,"▁better":3509,"▁pers":3510,"ump":3511,"▁Union":3512,"itz":3513,"aker":3514,"▁God":3515,"▁ap":3516,"▁Govern":3517,"ecess":3518,"arily":3519,"▁inn":3520,"▁winds":3521,"▁Island":3522,"▁commerc":3523,"▁enough":3524,"▁wat":3525,"▁positive":3526,"ears":3527,"nel":3528,"ume":3529,"▁Court":3530,"▁according":3531,"▁hous":3532,"▁spent":3533,"elled":3534,"▁going":3535,"▁pot":3536,"▁above":3537,"▁Bra":3538,"▁slow":3539,"anks":3540,"▁outside":3541,"▁films":3542,"apt":3543,"▁Tom":3544,"▁Vict":3545,"▁Up":3546,"▁Cong":3547,"▁feel":3548,"▁told":3549,"▁football":3550,"ma":3551,"▁Award":3552,"berg":3553,"quare":3554,"▁clear":3555,"▁previously":3556,"uation":3557,"▁quest":3558,"▁states":3559,"▁recording":3560,"▁mean":3561,"anding":3562,"▁Associ":3563,"▁Ac":3564,"▁nine":3565,"het":3566,"▁pur":3567,"usion":3568,"▁subject":3569,"▁Art":3570,"▁failed":3571,"atin":3572,"ows":3573,"▁assist":3574,"▁come":3575,"▁Company":3576,"▁required":3577,"osing":3578,"▁45":3579,"reng":3580,"▁elements":3581,"▁prob":3582,"van":3583,"▁ey":3584,"ida":3585,"▁Stud":3586,"▁cru":3587,"alion":3588,"▁India":3589,"▁lower":3590,"▁Germany":3591,"▁reviews":3592,"▁interview":3593,"edy":3594,"▁phot":3595,"▁parts":3596,"▁Mark":3597,"▁Peter":3598,"▁Gold":3599,"▁itself":3600,"▁Christian":3601,"▁sil":3602,"▁nar":3603,"▁think":3604,"nes":3605,"ranch":3606,"ship":3607,"▁directed":3608,"▁abs":3609,"isl":3610,"▁esp":3611,"▁flow":3612,"ibility":3613,"▁despite":3614,"▁cred":3615,"amer":3616,"▁contract":3617,"▁185":3618,"oke":3619,"▁NY":3620,"▁60":3621,"▁That":3622,"▁debut":3623,"▁?":3624,"▁Times":3625,"▁£":3626,"▁Pat":3627,"erved":3628,"▁access":3629,"ready":3630,"leb":3631,"▁Cast":3632,"▁beginning":3633,"oid":3634,"▁bi":3635,"▁groups":3636,"▁College":3637,"▁viol":3638,"onna":3639,"▁Hill":3640,"▁section":3641,"▁UK":3642,"▁Sov":3643,"ability":3644,"hester":3645,"▁whose":3646,"▁Br":3647,"asons":3648,"▁claimed":3649,"▁Western":3650,"▁international":3651,"▁asked":3652,"▁lines":3653,"▁transfer":3654,"▁prevent":3655,"▁Dem":3656,"▁streng":3657,"▁screen":3658,"▁give":3659,"airs":3660,"▁che":3661,"▁Soviet":3662,"onse":3663,"rief":3664,"▁unc":3665,"▁beg":3666,"▁key":3667,"▁additional":3668,"▁future":3669,"▁Film":3670,"mar":3671,"▁Grand":3672,"▁Mexic":3673,"▁league":3674,"▁whom":3675,"▁Frank":3676,"▁op":3677,"▁Do":3678,"▁gold":3679,"▁Span":3680,"▁poor":3681,"▁Ben":3682,"▁Awards":3683,"▁fort":3684,"lying":3685,"▁introduced":3686,"▁evidence":3687,"▁don":3688,"▁prem":3689,"ites":3690,"onst":3691,"▁sea":3692,"▁idea":3693,"ex":3694,"▁quickly":3695,"▁cal":3696,"atory":3697,"▁already":3698,"▁Soc":3699,"▁32":3700,"▁center":3701,"▁bridge":3702,"▁frequ":3703,"▁Force":3704,"usp":3705,"▁Most":3706,"▁election":3707,"▁product":3708,"▁occup":3709,"eck":3710,"▁pil":3711,"▁except":3712,"▁Coun":3713,"back":3714,"unt":3715,"▁deal":3716,"irth":3717,"eum":3718,"ecially":3719,"▁pen":3720,"▁usually":3721,"▁musical":3722,"▁emb":3723,"▁western":3724,"▁arrived":3725,"aring":3726,"▁Rob":3727,"▁block":3728,"eal":3729,"▁radio":3730,"▁St.":3731,"▁Britain":3732,"▁civil":3733,"liam":3734,"▁cycl":3735,"ergy":3736,"ully":3737,"▁Over":3738,"▁female":3739,"▁sometimes":3740,"▁Day":3741,"▁study":3742,"▁food":3743,"▁response":3744,"▁decision":3745,"▁money":3746,"▁Pac":3747,"▁magazine":3748,"▁especially":3749,"▁Hot":3750,"▁issue":3751,"▁Later":3752,"asc":3753,"liament":3754,"▁Victor":3755,"▁Im":3756,"▁lab":3757,"▁surface":3758,"▁-":3759,"▁liter":3760,"gen":3761,"rack":3762,"▁flood":3763,"▁might":3764,"aint":3765,"▁Chic":3766,"▁env":3767,"▁Tra":3768,"▁guitar":3769,"▁carried":3770,"▁Bur":3771,"▁shows":3772,"▁community":3773,"▁construct":3774,"ena":3775,"iter":3776,"▁estimated":3777,"▁arran":3778,"▁remain":3779,"aries":3780,"▁Mill":3781,"▁1999":3782,"▁remaining":3783,"▁eastern":3784,"ha":3785,"▁minor":3786,"▁defeated":3787,"▁determ":3788,"▁Rh":3789,"inent":3790,"ession":3791,"▁Virginia":3792,"▁Early":3793,"▁approx":3794,"igan":3795,"▁larger":3796,"raw":3797,"ulf":3798,"▁becoming":3799,"▁rap":3800,"▁wood":3801,"▁complete":3802,"▁Mount":3803,"▁36":3804,"rab":3805,"ror":3806,"▁police":3807,"▁suggested":3808,"porary":3809,"▁media":3810,"▁pressure":3811,"▁entered":3812,"▁shoot":3813,"▁teams":3814,"rics":3815,"▁Los":3816,"▁Just":3817,"▁commercial":3818,"▁anal":3819,"▁Inf":3820,"▁doc":3821,"▁latter":3822,"ands":3823,"NA":3824,"▁market":3825,"erve":3826,"▁lo":3827,"▁consider":3828,"▁students":3829,"ises":3830,"▁surround":3831,"▁investig":3832,"▁brief":3833,"▁concern":3834,"▁personal":3835,"▁Second":3836,"inct":3837,"▁bur":3838,"▁If":3839,"▁Tex":3840,"▁certain":3841,"▁prison":3842,"▁acqu":3843,"▁discuss":3844,"▁Fle":3845,"▁Jackson":3846,"▁effects":3847,"▁complet":3848,"▁hop":3849,"▁appointed":3850,"alled":3851,"▁der":3852,"▁summer":3853,"▁episodes":3854,"▁Cont":3855,"▁prior":3856,"ederal":3857,"incip":3858,"▁Flor":3859,"▁sat":3860,"▁tar":3861,"change":3862,"▁emer":3863,"▁staff":3864,"enth":3865,"lymp":3866,"▁size":3867,"▁Louis":3868,"ores":3869,"▁changes":3870,"ulated":3871,"▁commission":3872,"sy":3873,"omm":3874,"tt":3875,"imate":3876,"▁winning":3877,"▁limited":3878,"▁scenes":3879,"▁Olymp":3880,"▁river":3881,"▁fleet":3882,"▁leaving":3883,"▁destroyed":3884,"iser":3885,"▁deg":3886,"▁draw":3887,"▁pay":3888,"II":3889,"▁Club":3890,"▁den":3891,"▁rid":3892,"lo":3893,"que":3894,"▁Spanish":3895,"▁75":3896,"▁self":3897,"ga":3898,"su":3899,"▁rights":3900,"ournal":3901,"▁provide":3902,"▁writer":3903,"ires":3904,"rigade":3905,"▁polic":3906,"sen":3907,"▁type":3908,"idents":3909,"▁fail":3910,"ari":3911,"ension":3912,"▁date":3913,"▁trib":3914,"▁territ":3915,"oms":3916,"▁Kh":3917,"▁girl":3918,"▁proposed":3919,"rd":3920,"▁influence":3921,"ties":3922,"▁Green":3923,"▁Party":3924,"▁overall":3925,"▁tax":3926,"▁184":3927,"▁kil":3928,"▁transport":3929,"▁structure":3930,"▁Ter":3931,"▁contro":3932,"▁equip":3933,"▁Du":3934,"▁300":3935,"▁division":3936,"▁script":3937,"▁br":3938,"iral":3939,"inese":3940,"▁Association":3941,"▁agreed":3942,"▁anti":3943,"▁intended":3944,"▁Pri":3945,"▁jud":3946,"▁bow":3947,"▁Edward":3948,"▁80":3949,"▁running":3950,"ift":3951,"ending":3952,"icles":3953,"▁Chicago":3954,"▁daughter":3955,"▁big":3956,"▁broadcast":3957,"▁purch":3958,"▁nearly":3959,"▁supported":3960,"▁Many":3961,"atives":3962,"AF":3963,"▁Adm":3964,"▁deep":3965,"▁di":3966,"▁research":3967,"▁wide":3968,"imum":3969,"▁establish":3970,"▁Ro":3971,"▁helped":3972,"▁married":3973,"▁1998":3974,"▁movement":3975,"▁Chinese":3976,"▁awarded":3977,"▁multip":3978,"▁Song":3979,"▁Ir":3980,"▁Council":3981,"ili":3982,"▁Oper":3983,"iles":3984,"atively":3985,"acing":3986,"irm":3987,"▁create":3988,"▁favor":3989,"▁intens":3990,"▁diss":3991,"▁bird":3992,"▁Sal":3993,"▁Enter":3994,"▁dark":3995,"▁susp":3996,"pris":3997,"omer":3998,"ny":3999,"teen":4000,"▁stars":4001,"che":4002,"▁longer":4003,"▁language":4004,"▁higher":4005,"▁cat":4006,"▁Ev":4007,"▁planned":4008,"mon":4009,"▁compared":4010,"▁captured":4011,"▁increasing":4012,"▁fans":4013,"▁A.":4014,"▁conclud":4015,"▁course":4016,"uz":4017,"▁changed":4018,"▁Serv":4019,"▁Super":4020,"▁Emp":4021,"▁Johnson":4022,"▁33":4023,"ounds":4024,"▁experience":4025,"▁approximately":4026,"▁related":4027,"selves":4028,"▁done":4029,"▁feature":4030,"▁fifth":4031,"▁living":4032,"enty":4033,"▁Kore":4034,"▁themselves":4035,"abit":4036,"▁History":4037,"▁producer":4038,"bers":4039,"itt":4040,"tained":4041,"arent":4042,"▁temper":4043,"▁space":4044,"▁tracks":4045,"▁mostly":4046,"▁Pacific":4047,"isions":4048,"▁withd":4049,"ss":4050,"▁Inter":4051,"▁Back":4052,"uth":4053,"anced":4054,"olic":4055,"▁Billboard":4056,"ij":4057,"▁thus":4058,"▁App":4059,"▁Bet":4060,"▁Not":4061,"can":4062,"▁woman":4063,"▁dead":4064,"umn":4065,"▁Mont":4066,"▁operations":4067,"▁imm":4068,"▁remains":4069,"▁syn":4070,"▁bring":4071,"▁quarter":4072,"thing":4073,"▁our":4074,"▁natural":4075,"▁whether":4076,"imin":4077,"vin":4078,"▁ult":4079,"oint":4080,"▁concept":4081,"▁weap":4082,"▁dram":4083,"▁Final":4084,"▁Scot":4085,"anded":4086,"▁probably":4087,"▁soldiers":4088,"▁ran":4089,"rast":4090,"▁copies":4091,"▁Sun":4092,"bour":4093,"▁buildings":4094,"▁leader":4095,"▁voice":4096,"▁1997":4097,"▁face":4098,"▁boy":4099,"▁extended":4100,"▁Since":4101,"▁lyrics":4102,"▁forward":4103,"▁depart":4104,"▁Kn":4105,"▁complex":4106,"▁board":4107,"▁Atlantic":4108,"▁react":4109,"iring":4110,"▁battles":4111,"vey":4112,"▁issued":4113,"▁heav":4114,"▁chall":4115,"riage":4116,"ging":4117,"▁really":4118,"▁countries":4119,"ospital":4120,"▁37":4121,"rate":4122,"▁suffered":4123,"▁Lake":4124,"▁Congress":4125,"▁cm":4126,"▁Love":4127,"▁Fort":4128,"▁Franc":4129,"▁goals":4130,"▁Florida":4131,"urt":4132,"▁Sever":4133,"▁includes":4134,"▁immediately":4135,"▁meth":4136,"▁Both":4137,"▁attend":4138,"▁Big":4139,"hood":4140,"▁breed":4141,"▁capital":4142,"▁manager":4143,"▁70":4144,"▁mixed":4145,"▁private":4146,"iant":4147,"▁Jim":4148,"▁Jew":4149,"▁officers":4150,"▁likely":4151,"▁Old":4152,"▁cann":4153,"▁distrib":4154,"hold":4155,"▁Ant":4156,"ien":4157,"▁mach":4158,"▁Queen":4159,"de":4160,"bury":4161,"▁removed":4162,"▁Texas":4163,"▁plant":4164,"▁initial":4165,"▁celeb":4166,"▁Sea":4167,"▁increase":4168,"venue":4169,"▁Town":4170,"▁health":4171,"▁subsequently":4172,"▁Dist":4173,"▁leave":4174,"▁plans":4175,"ria":4176,"▁always":4177,"▁focus":4178,"▁coin":4179,"▁Law":4180,"▁network":4181,"ections":4182,"▁services":4183,"▁mount":4184,"▁via":4185,"▁status":4186,"▁compan":4187,"▁Trans":4188,"▁Tor":4189,"rial":4190,"▁Pet":4191,"▁China":4192,"▁visit":4193,"▁location":4194,"order":4195,"ams":4196,"▁Another":4197,"iation":4198,"▁flag":4199,"▁problems":4200,"▁Lord":4201,"▁Camp":4202,"▁How":4203,"▁Earth":4204,"▁offered":4205,"▁instr":4206,"well":4207,"ously":4208,"aily":4209,"▁model":4210,"▁terms":4211,"▁norm":4212,"etic":4213,"▁mur":4214,"▁Const":4215,"▁colon":4216,"▁approach":4217,"▁something":4218,"▁village":4219,"▁administ":4220,"▁tons":4221,"▁fell":4222,"ounted":4223,"▁Wood":4224,"wer":4225,"▁Boy":4226,"ctor":4227,"▁Ol":4228,"▁tor":4229,"ironment":4230,"▁sch":4231,"▁majority":4232,"▁Tur":4233,"▁professional":4234,"orning":4235,"▁counter":4236,"▁183":4237,"▁Canadian":4238,"▁Its":4239,"adium":4240,"▁Rail":4241,"▁got":4242,"ibr":4243,"▁Africa":4244,"▁cause":4245,"▁Mur":4246,"▁consist":4247,"burg":4248,"aches":4249,"uries":4250,"▁inters":4251,"▁damaged":4252,"▁meeting":4253,"▁Gre":4254,"▁job":4255,"▁appears":4256,"▁adop":4257,"▁minute":4258,"▁ranked":4259,"olk":4260,"▁lay":4261,"▁Center":4262,"uf":4263,"▁individual":4264,"oes":4265,"▁composed":4266,"cean":4267,"▁revealed":4268,"▁Squadron":4269,"▁Highway":4270,"ify":4271,"▁ang":4272,"ste":4273,"▁flight":4274,"▁attacks":4275,"▁Russian":4276,"itect":4277,"▁plot":4278,"▁discovered":4279,"▁raised":4280,"lor":4281,"reak":4282,"umed":4283,"▁financ":4284,"▁Rad":4285,"▁Mel":4286,"▁respectively":4287,"▁makes":4288,"pan":4289,"▁Kent":4290,"▁Carol":4291,"▁Martin":4292,"▁Central":4293,"▁Sir":4294,"▁numerous":4295,"▁III":4296,"▁1995":4297,"▁associated":4298,"▁altern":4299,"gar":4300,"▁takes":4301,"▁Angeles":4302,"▁domin":4303,"▁needed":4304,"▁inspired":4305,"▁Bow":4306,"▁anc":4307,"▁lived":4308,"▁34":4309,"oe":4310,"ault":4311,"▁grand":4312,"▁launched":4313,"▁yet":4314,"ription":4315,"▁cand":4316,"▁nature":4317,"▁pow":4318,"▁amb":4319,"▁dig":4320,"▁coach":4321,"▁occurred":4322,"▁contains":4323,"▁DV":4324,"▁veh":4325,"estival":4326,"▁bene":4327,"▁shown":4328,"▁attempted":4329,"uals":4330,"▁attacked":4331,"▁Des":4332,"uments":4333,"▁moving":4334,"▁conditions":4335,"▁upper":4336,"▁hour":4337,"▁TV":4338,"ka":4339,"iest":4340,"down":4341,"imb":4342,"ken":4343,"▁sales":4344,"▁gra":4345,"ective":4346,"▁38":4347,"▁Group":4348,"▁Miss":4349,"joy":4350,"▁Year":4351,"▁collect":4352,"▁2016":4353,"▁Del":4354,"aught":4355,"▁Tour":4356,"▁1996":4357,"orce":4358,"▁issues":4359,"▁birth":4360,"▁Rev":4361,"▁whole":4362,"▁i":4363,"▁sal":4364,"izing":4365,"▁exam":4366,"▁cer":4367,"▁information":4368,"▁yards":4369,"▁farm":4370,"▁slight":4371,"▁Empire":4372,"▁Out":4373,"▁box":4374,"urity":4375,"▁mom":4376,"win":4377,"vert":4378,"▁referred":4379,"uing":4380,"▁critical":4381,"oly":4382,"▁19th":4383,"▁incor":4384,"reme":4385,"▁Under":4386,"▁Penn":4387,"▁Gar":4388,"▁numbers":4389,"▁finally":4390,"▁smaller":4391,"▁elected":4392,"▁selected":4393,"▁defeat":4394,"▁resulted":4395,"▁sen":4396,"▁scient":4397,"▁stay":4398,"▁bad":4399,"▁grant":4400,"▁qual":4401,"▁active":4402,"▁princip":4403,"▁singer":4404,"kin":4405,"▁standard":4406,"▁secret":4407,"▁pit":4408,"itation":4409,"▁Italian":4410,"uated":4411,"▁mission":4412,"▁industry":4413,"▁90":4414,"▁1994":4415,"enant":4416,"▁largely":4417,"▁ens":4418,"▁operation":4419,"▁sem":4420,"andon":4421,"▁Jose":4422,"▁prec":4423,"▁link":4424,"ortun":4425,"onic":4426,"oura":4427,"▁assigned":4428,"use":4429,"▁saf":4430,"▁legisl":4431,"▁earned":4432,"▁thr":4433,"▁commented":4434,"itude":4435,"▁J.":4436,"▁male":4437,"▁expected":4438,"▁DVD":4439,"▁Corps":4440,"iled":4441,"▁Dis":4442,"▁roy":4443,"▁audience":4444,"▁listed":4445,"▁suggest":4446,"▁gre":4447,"oud":4448,"▁Crit":4449,"▁Arm":4450,"▁covered":4451,"▁purp":4452,"▁unable":4453,"irection":4454,"▁sched":4455,"▁heart":4456,"▁traditional":4457,"▁Cr":4458,"▁education":4459,"▁trade":4460,"gr":4461,"▁artist":4462,"▁newsp":4463,"ya":4464,"▁double":4465,"▁friends":4466,"▁closed":4467,"▁Viet":4468,"▁underst":4469,"▁refused":4470,"▁aw":4471,"agon":4472,"▁recover":4473,"▁attention":4474,"ounts":4475,"▁method":4476,"▁primary":4477,"ighter":4478,"▁sister":4479,"ogue":4480,"▁kind":4481,"▁talk":4482,"▁Michigan":4483,"▁Pre":4484,"tered":4485,"▁reason":4486,"ffic":4487,"▁officer":4488,"▁plat":4489,"▁below":4490,"▁contem":4491,"hips":4492,"▁Wales":4493,"▁enjoy":4494,"▁ability":4495,"▁depression":4496,"▁meant":4497,"▁Mass":4498,"▁performances":4499,"▁declared":4500,"oo":4501,"▁walk":4502,"▁Nort":4503,"▁49":4504,"▁blood":4505,"isher":4506,"▁More":4507,"▁giving":4508,"▁Cath":4509,"▁letter":4510,"▁compl":4511,"▁word":4512,"undred":4513,"ples":4514,"▁fighting":4515,"▁180":4516,"▁middle":4517,"▁Cle":4518,"▁commander":4519,"▁religious":4520,"▁books":4521,"▁theat":4522,"▁max":4523,"▁hot":4524,"▁sett":4525,"▁rate":4526,"▁Ox":4527,"▁Arch":4528,"▁Step":4529,"▁Long":4530,"▁records":4531,"ils":4532,"▁matches":4533,"▁constit":4534,"▁Acad":4535,"▁names":4536,"ona":4537,"aped":4538,"▁Bec":4539,"▁Test":4540,"▁Democr":4541,"▁produce":4542,"▁question":4543,"▁Fer":4544,"▁Care":4545,"antasy":4546,"▁competition":4547,"utch":4548,"▁centre":4549,"▁serious":4550,"▁unit":4551,"ux":4552,"▁Team":4553,"odies":4554,"▁disapp":4555,"▁touch":4556,"▁vocals":4557,"ims":4558,"▁Minister":4559,"irt":4560,"▁Several":4561,"iences":4562,"▁mention":4563,"▁Zeal":4564,"osh":4565,"ounded":4566,"▁1992":4567,"▁ri":4568,"▁Major":4569,"ector":4570,"▁Cons":4571,"▁41":4572,"▁account":4573,"▁document":4574,"▁abandon":4575,"▁Wal":4576,"road":4577,"icted":4578,"▁rapid":4579,"▁energy":4580,"▁necess":4581,"ares":4582,"▁mor":4583,"quar":4584,"▁kilomet":4585,"▁Kenn":4586,"ervation":4587,"echan":4588,"▁Fore":4589,"▁dut":4590,"▁constructed":4591,"ening":4592,"▁theme":4593,"▁ris":4594,"rug":4595,"oses":4596,"▁1st":4597,"rier":4598,"▁Fox":4599,"▁Sum":4600,"▁Time":4601,"ette":4602,"▁royal":4603,"▁pick":4604,"ishop":4605,"▁stra":4606,"▁nearby":4607,"▁highly":4608,"▁separate":4609,"▁Zealand":4610,"yr":4611,"▁Er":4612,"▁continue":4613,"vention":4614,"▁prep":4615,"▁So":4616,"▁chief":4617,"▁drum":4618,"ails":4619,"▁effort":4620,"▁cas":4621,"▁presented":4622,"edic":4623,"▁Haw":4624,"▁tur":4625,"▁Sar":4626,"▁combat":4627,"▁Mexico":4628,"oper":4629,"▁positions":4630,"▁African":4631,"▁reduced":4632,"▁annual":4633,"▁Bu":4634,"ether":4635,"▁400":4636,"ibly":4637,"▁controvers":4638,"▁Chris":4639,"▁Matt":4640,"▁directly":4641,"ieut":4642,"▁Ma":4643,"▁Four":4644,"▁levels":4645,"cel":4646,"▁means":4647,"▁cle":4648,"▁neigh":4649,"▁Wall":4650,"▁notes":4651,"▁attended":4652,"▁sevent":4653,"▁practice":4654,"▁tried":4655,"shire":4656,"▁compos":4657,"▁forest":4658,"uit":4659,"emorial":4660,"▁55":4661,"▁fast":4662,"▁har":4663,"▁nuc":4664,"▁edition":4665,"▁train":4666,"▁Lit":4667,"▁Brad":4668,"▁Dar":4669,"acher":4670,"ado":4671,"▁Chart":4672,"▁Tre":4673,"▁Bob":4674,"arents":4675,"▁twenty":4676,"vement":4677,"▁metal":4678,"▁1993":4679,"▁Madonna":4680,"▁accepted":4681,"osen":4682,"▁watch":4683,"▁20th":4684,"▁stating":4685,"▁1991":4686,"▁movie":4687,"▁architect":4688,"▁text":4689,"rical":4690,"▁Hel":4691,"▁repe":4692,"▁candid":4693,"isation":4694,"track":4695,"▁concert":4696,"▁Scotland":4697,"▁advance":4698,"stitute":4699,"▁179":4700,"▁pair":4701,"▁Jones":4702,"▁portray":4703,"▁direction":4704,"irmed":4705,"house":4706,"▁fr":4707,"ersey":4708,"▁seem":4709,"▁dism":4710,"▁Their":4711,"▁schools":4712,"▁legal":4713,"▁Ann":4714,"ani":4715,"▁reject":4716,"eway":4717,"lict":4718,"inem":4719,"ih":4720,"wide":4721,"▁asp":4722,"▁Manc":4723,"icip":4724,"fall":4725,"▁ge":4726,"▁horse":4727,"▁Cross":4728,"▁thick":4729,"▁marriage":4730,"illery":4731,"▁+":4732,"aging":4733,"▁recomm":4734,"▁Greek":4735,"▁Department":4736,"light":4737,"▁efforts":4738,"▁managed":4739,"▁college":4740,"▁Dou":4741,"awn":4742,"▁39":4743,"▁purs":4744,"like":4745,"icient":4746,"▁Go":4747,"▁wing":4748,"utions":4749,"hy":4750,"▁resulting":4751,"▁ending":4752,"irit":4753,"ieutenant":4754,"▁Three":4755,"band":4756,"▁showed":4757,"▁dropped":4758,"▁responsible":4759,"▁Mic":4760,"▁Post":4761,"MS":4762,"▁Infantry":4763,"▁182":4764,"▁nation":4765,"▁display":4766,"▁inside":4767,"illed":4768,"▁Foot":4769,"ita":4770,"▁cases":4771,"▁kept":4772,"▁cust":4773,"▁environment":4774,"▁Lad":4775,"▁Bost":4776,"▁48":4777,"▁culture":4778,"▁rare":4779,"▁meaning":4780,"▁rat":4781,"▁Leg":4782,"▁cyclone":4783,"olf":4784,"▁dom":4785,"▁incorpor":4786,"▁begins":4787,"▁42":4788,"▁variety":4789,"ceeded":4790,"▁morning":4791,"pe":4792,"▁subst":4793,"▁cerem":4794,"pass":4795,"▁houses":4796,"▁Stone":4797,"▁forms":4798,"▁championship":4799,"▁Service":4800,"▁words":4801,"rane":4802,"▁arrest":4803,"▁schol":4804,"▁Creek":4805,"▁yard":4806,"peror":4807,"▁Williams":4808,"▁Hung":4809,"▁oil":4810,"▁B.":4811,"▁Records":4812,"▁Secret":4813,"▁marked":4814,"▁inches":4815,"cend":4816,"▁continues":4817,"▁spl":4818,"ini":4819,"▁science":4820,"▁BC":4821,"▁perm":4822,"▁181":4823,"▁symb":4824,"gl":4825,"▁News":4826,"gypt":4827,"ecting":4828,"ols":4829,"▁bank":4830,"▁Hal":4831,"▁Stan":4832,"▁Parliament":4833,"▁uses":4834,"▁economic":4835,"▁Sur":4836,"writ":4837,"cle":4838,"▁source":4839,"▁Games":4840,"thel":4841,"bed":4842,"ras":4843,"▁Fin":4844,"▁Tro":4845,"▁quality":4846,"▁defend":4847,"▁Pan":4848,"▁Tri":4849,"ulations":4850,"▁lear":4851,"▁hundred":4852,"▁C.":4853,"▁settle":4854,"▁impact":4855,"▁starting":4856,"▁conducted":4857,"▁Book":4858,"thur":4859,"▁specific":4860,"wh":4861,"▁strugg":4862,"▁allowing":4863,"▁Egypt":4864,"▁Dr":4865,"▁Society":4866,"▁beat":4867,"▁1942":4868,"▁presence":4869,"▁Sol":4870,"▁amount":4871,"▁du":4872,"▁Jer":4873,"▁sides":4874,"▁Oh":4875,"▁viewers":4876,"▁captain":4877,"sych":4878,"een":4879,"▁dance":4880,"▁metres":4881,"ingu":4882,"▁chap":4883,"▁univers":4884,"▁suppl":4885,"▁Lu":4886,"▁exhib":4887,"▁rule":4888,"▁ple":4889,"▁Prince":4890,"▁Southern":4891,"▁Ver":4892,"▁Stephen":4893,"▁distinct":4894,"▁multiple":4895,"▁Georg":4896,"▁Sat":4897,"ding":4898,"▁transferred":4899,"▁potential":4900,"▁Committee":4901,"▁foreign":4902,"▁47":4903,"▁Latin":4904,"▁contrast":4905,"▁Oxford":4906,"▁65":4907,"▁peaked":4908,"inet":4909,"itiz":4910,"▁enemy":4911,"▁your":4912,"arian":4913,"▁Sil":4914,"▁traffic":4915,"▁becomes":4916,"▁mess":4917,"▁Spec":4918,"ping":4919,"▁D.":4920,"▁owned":4921,"▁things":4922,"▁founded":4923,"▁greater":4924,"▁Joseph":4925,"▁Like":4926,"▁vocal":4927,"▁Admiral":4928,"▁opt":4929,"▁concluded":4930,"▁portion":4931,"very":4932,"▁castle":4933,"▁scoring":4934,"▁Camb":4935,"ider":4936,"▁respond":4937,"ym":4938,"▁stories":4939,"▁property":4940,"iance":4941,"▁attempts":4942,"▁encoun":4943,"▁Boston":4944,"rong":4945,"anes":4946,"▁relatively":4947,"kn":4948,"▁Tw":4949,"▁Chief":4950,"▁Manchester":4951,"▁primarily":4952,"▁demonst":4953,"▁Harrison":4954,"▁Jeff":4955,"▁financial":4956,"▁federal":4957,"ograp":4958,"▁Class":4959,"ressive":4960,"ellig":4961,"▁Form":4962,"▁Captain":4963,"▁Because":4964,"▁Before":4965,"▁actually":4966,"▁animals":4967,"▁Swed":4968,"▁observed":4969,"▁Hurricane":4970,"▁tourn":4971,"▁lif":4972,"▁Win":4973,"▁collection":4974,"▁Tim":4975,"▁opportun":4976,"fect":4977,"▁Vietn":4978,"▁Bat":4979,"▁titled":4980,"▁52":4981,"▁Den":4982,"▁featuring":4983,"istics":4984,"▁writers":4985,"▁46":4986,"▁write":4987,"▁1944":4988,"▁Def":4989,"▁journal":4990,"eds":4991,"▁wa":4992,"▁Bridge":4993,"ees":4994,"▁Fred":4995,"▁strength":4996,"▁wor":4997,"umber":4998,"▁inch":4999,"▁mechan":5000,"▁weaken":5001,"▁situation":5002,"▁Ott":5003,"▁spot":5004,"▁paid":5005,"▁distance":5006,"▁premi":5007,"▁parents":5008,"▁Commission":5009,"▁independent":5010,"▁Battalion":5011,"▁figure":5012,"▁share":5013,"mas":5014,"rel":5015,"▁mel":5016,"▁actor":5017,"▁64":5018,"▁acting":5019,"▁companies":5020,"▁divided":5021,"▁Little":5022,"▁Paris":5023,"▁mind":5024,"▁43":5025,"stein":5026,"▁onto":5027,"▁Produ":5028,"astic":5029,"▁Luc":5030,"▁collabor":5031,"▁Life":5032,"▁Columb":5033,"▁Carl":5034,"▁target":5035,"anna":5036,"▁slightly":5037,"▁function":5038,"▁piece":5039,"▁Series":5040,"▁reform":5041,"▁Mod":5042,"▁selling":5043,"▁44":5044,"perial":5045,"▁Entertain":5046,"aud":5047,"ricket":5048,"▁powerful":5049,"▁Gra":5050,"▁torped":5051,"▁concent":5052,"chest":5053,"▁innings":5054,"▁rating":5055,"▁Max":5056,"thlet":5057,"oration":5058,"▁BBC":5059,"▁plays":5060,"istry":5061,"▁rough":5062,"▁lot":5063,"▁today":5064,"lam":5065,"▁broke":5066,"uge":5067,"▁cho":5068,"▁era":5069,"osaur":5070,"▁Pop":5071,"annel":5072,"▁1990":5073,"▁Croat":5074,"▁actions":5075,"▁waters":5076,"▁ultimately":5077,"▁Os":5078,"▁Histor":5079,"▁trial":5080,"▁square":5081,"▁maximum":5082,"rown":5083,"ada":5084,"▁dise":5085,"▁tend":5086,"itan":5087,"▁pilot":5088,"load":5089,"▁bound":5090,"▁log":5091,"illa":5092,"▁interp":5093,"rupt":5094,"▁completely":5095,"▁Academy":5096,"▁blue":5097,"under":5098,"▁sought":5099,"▁gar":5100,"oti":5101,"▁1945":5102,"▁S.":5103,"mond":5104,"▁'m":5105,"▁scale":5106,"mark":5107,"▁society":5108,"▁Line":5109,"▁ess":5110,"▁behav":5111,"▁hus":5112,"▁Museum":5113,"▁Saint":5114,"▁mainly":5115,"▁Sk":5116,"ota":5117,"alle":5118,"▁designated":5119,"▁1941":5120,"za":5121,"▁Hor":5122,"omy":5123,"▁conver":5124,"▁officials":5125,"▁Van":5126,"▁struck":5127,"▁transl":5128,"cers":5129,"▁150":5130,"ylvan":5131,"▁activity":5132,"▁policy":5133,"▁combined":5134,"▁say":5135,"▁Way":5136,"▁influenced":5137,"▁wear":5138,"olved":5139,"▁corn":5140,"iano":5141,"▁search":5142,"AS":5143,"▁Entertainment":5144,"▁Arab":5145,"▁vess":5146,"▁Italy":5147,"ented":5148,"▁thous":5149,"▁calling":5150,"racted":5151,"▁alongside":5152,"▁northeast":5153,"▁seconds":5154,"▁batter":5155,"ala":5156,"▁Brigade":5157,"▁sout":5158,"▁Wind":5159,"orses":5160,"while":5161,"▁Americans":5162,"▁winter":5163,"▁Conf":5164,"▁sources":5165,"▁Lee":5166,"▁seg":5167,"▁background":5168,"phy":5169,"▁Ire":5170,"▁webs":5171,"aine":5172,"▁ice":5173,"▁news":5174,"udd":5175,"▁thir":5176,"▁Tod":5177,"▁theory":5178,"rative":5179,"▁recent":5180,"▁Alb":5181,"▁suc":5182,"TV":5183,"▁mem":5184,"▁crow":5185,"▁gained":5186,"▁nominated":5187,"▁platform":5188,"HL":5189,"onn":5190,"▁artists":5191,"adel":5192,"▁Regiment":5193,"▁widely":5194,"▁naval":5195,"quarters":5196,"▁systems":5197,"▁promoted":5198,"▁electric":5199,"▁confirmed":5200,"ube":5201,"▁Ireland":5202,"pson":5203,"▁reaching":5204,"▁proved":5205,"▁results":5206,"▁Avenue":5207,"▁passing":5208,"ibrary":5209,"▁Fleet":5210,"▁albums":5211,"▁Good":5212,"▁Ell":5213,"▁explained":5214,"▁subsequent":5215,"▁conflict":5216,"▁greatest":5217,"ero":5218,"▁2nd":5219,"▁wick":5220,"▁content":5221,"▁invasion":5222,"▁ir":5223,"▁sn":5224,"▁Aut":5225,"▁Ray":5226,"▁1989":5227,"▁coming":5228,"▁charge":5229,"▁hero":5230,"▁peace":5231,"▁resist":5232,"▁sixth":5233,"hew":5234,"▁northwest":5235,"▁weather":5236,"oured":5237,"▁county":5238,"▁adj":5239,"▁Orig":5240,"▁shortly":5241,"grad":5242,"▁1943":5243,"town":5244,"aga":5245,"▁Bus":5246,"▁versions":5247,"▁Sub":5248,"▁path":5249,"aling":5250,"▁serve":5251,"▁causing":5252,"▁says":5253,"▁sust":5254,"▁Lo":5255,"▁51":5256,"▁expressed":5257,"iced":5258,"▁reception":5259,"▁seek":5260,"▁Victoria":5261,"▁Sant":5262,"▁burn":5263,"itness":5264,"▁Catholic":5265,"▁residents":5266,"▁emot":5267,"bon":5268,"▁border":5269,"▁Norm":5270,"▁Charl":5271,"▁Tropical":5272,"▁Work":5273,"▁chem":5274,"▁soundtrack":5275,"ansion":5276,"▁Valley":5277,"▁cities":5278,"▁Add":5279,"▁Mat":5280,"ips":5281,"▁green":5282,"▁seasons":5283,"▁M.":5284,"tation":5285,"▁Nin":5286,"ategory":5287,"▁appearances":5288,"▁sense":5289,"▁Di":5290,"▁Light":5291,"▁sexual":5292,"▁hospital":5293,"▁require":5294,"AA":5295,"▁Dr.":5296,"infall":5297,"▁Middle":5298,"▁pun":5299,"▁physical":5300,"▁identified":5301,"▁older":5302,"ighth":5303,"▁hands":5304,"▁Live":5305,"arden":5306,"▁iron":5307,"▁Ram":5308,"▁Dun":5309,"▁Though":5310,"▁true":5311,"▁tells":5312,"▁offer":5313,"▁Liber":5314,"▁dedic":5315,"▁'re":5316,"▁kg":5317,"▁Ry":5318,"unction":5319,"▁Commun":5320,"ysis":5321,"▁artillery":5322,"ancy":5323,"▁Show":5324,"▁represented":5325,"▁Top":5326,"▁weapons":5327,"▁Vol":5328,"▁extra":5329,"▁gas":5330,"▁Football":5331,"▁ahead":5332,"▁Through":5333,"eption":5334,"▁pal":5335,"aded":5336,"▁Men":5337,"ronic":5338,"ylvania":5339,"▁eas":5340,"▁Kar":5341,"▁Jul":5342,"▁heavily":5343,"▁Bey":5344,"▁Upon":5345,"▁Young":5346,"▁supp":5347,"▁Direct":5348,"abeth":5349,"▁1980s":5350,"itable":5351,"▁Tay":5352,"▁1940":5353,"▁avoid":5354,"▁Dutch":5355,"lers":5356,"▁defense":5357,"▁challen":5358,"▁student":5359,"▁agg":5360,"▁Week":5361,"▁alone":5362,"▁image":5363,"▁spread":5364,"▁apparent":5365,"▁studies":5366,"▁officially":5367,"▁Eliz":5368,"▁husband":5369,"known":5370,"▁district":5371,"▁Ill":5372,"▁executive":5373,"▁bit":5374,"▁instit":5375,"▁Albert":5376,"▁Fre":5377,"bur":5378,"essions":5379,"▁debuted":5380,"▁wild":5381,"▁prominent":5382,"▁capture":5383,"▁pack":5384,"▁send":5385,"▁consisted":5386,"▁instrument":5387,"▁injury":5388,"▁fired":5389,"▁organization":5390,"▁equipment":5391,"▁Rog":5392,"ports":5393,"▁resc":5394,"▁stone":5395,"pool":5396,"▁pattern":5397,"▁Far":5398,"▁prepar":5399,"▁Bre":5400,"▁argued":5401,"▁Dam":5402,"▁aired":5403,"▁figures":5404,"▁Bond":5405,"▁surpris":5406,"▁exped":5407,"urban":5408,"▁growth":5409,"▁eth":5410,"▁pict":5411,"acity":5412,"▁Civil":5413,"▁Homer":5414,"▁bud":5415,"▁hun":5416,"▁couple":5417,"▁graph":5418,"▁doing":5419,"▁returning":5420,"▁magn":5421,"▁ring":5422,"▁contemporary":5423,"ushed":5424,"▁poet":5425,"▁cert":5426,"lines":5427,"rog":5428,"▁pan":5429,"▁weight":5430,"▁1970s":5431,"▁ox":5432,"▁laid":5433,"▁doub":5434,"▁habit":5435,"▁earth":5436,"▁leaders":5437,"▁step":5438,"▁floor":5439,"▁matter":5440,"▁affected":5441,"▁Northern":5442,"▁Gal":5443,"▁pieces":5444,"▁tun":5445,"▁600":5446,"appen":5447,"amber":5448,"▁propos":5449,"▁Storm":5450,"ias":5451,"▁maintained":5452,"▁1960s":5453,"inson":5454,"▁rang":5455,"▁occasion":5456,"▁shell":5457,"▁Hard":5458,"▁here":5459,"ifying":5460,"▁visited":5461,"▁Ha":5462,"▁maintain":5463,"ental":5464,"▁communic":5465,"▁Daniel":5466,"▁comes":5467,"▁speech":5468,"▁termin":5469,"▁criticized":5470,"emic":5471,"▁hyd":5472,"▁activities":5473,"stone":5474,"▁rain":5475,"rat":5476,"▁Jon":5477,"▁Carolina":5478,"ockey":5479,"▁exec":5480,"▁attract":5481,"acement":5482,"▁hall":5483,"ola":5484,"▁citiz":5485,"▁tournament":5486,"▁reign":5487,"▁emph":5488,"▁toward":5489,"ocked":5490,"▁singles":5491,"uls":5492,"▁drug":5493,"▁trees":5494,"eed":5495,"▁reference":5496,"ners":5497,"▁Scottish":5498,"▁crowd":5499,"▁Tem":5500,"▁senior":5501,"▁formation":5502,"elve":5503,"▁53":5504,"▁adapt":5505,"▁1987":5506,"▁surre":5507,"▁Rom":5508,"▁Marsh":5509,"▁setting":5510,"▁medical":5511,"ivity":5512,"▁worldwide":5513,"▁System":5514,"▁territory":5515,"▁trying":5516,"▁Government":5517,"estic":5518,"▁Holly":5519,"▁1988":5520,"uct":5521,"▁appl":5522,"▁stations":5523,"orne":5524,"ruit":5525,"▁dog":5526,"▁bul":5527,"▁negoti":5528,"▁birds":5529,"▁Writ":5530,"▁Fantasy":5531,"▁god":5532,"▁Ocean":5533,"gian":5534,"▁Operation":5535,"eller":5536,"▁doll":5537,"▁Background":5538,"▁Field":5539,"▁machine":5540,"▁fellow":5541,"▁Governor":5542,"▁murder":5543,"embly":5544,"▁Rod":5545,"▁claims":5546,"▁District":5547,"▁Home":5548,"▁cell":5549,"▁displ":5550,"▁85":5551,"▁Dev":5552,"▁historian":5553,"▁Guard":5554,"▁rainfall":5555,"▁risk":5556,"▁Che":5557,"omers":5558,"▁accident":5559,"▁Penns":5560,"▁fully":5561,"▁Colon":5562,"▁load":5563,"uled":5564,"▁value":5565,"▁therefore":5566,"ote":5567,"▁split":5568,"bit":5569,"resh":5570,"▁Duke":5571,"▁chosen":5572,"▁treatment":5573,"▁university":5574,"▁guest":5575,"▁Short":5576,"velopment":5577,"rael":5578,"▁sens":5579,"▁twice":5580,"▁Studios":5581,"▁frequently":5582,"▁Girl":5583,"▁supply":5584,"agn":5585,"▁Polish":5586,"▁Lew":5587,"▁reports":5588,"ordin":5589,"stitution":5590,"▁leaves":5591,"▁Beat":5592,"▁governor":5593,"illy":5594,"ayer":5595,"▁paper":5596,"gu":5597,"▁ut":5598,"▁Senate":5599,"▁remark":5600,"aly":5601,"▁H.":5602,"▁dyn":5603,"ampion":5604,"▁Eastern":5605,"ledge":5606,"▁label":5607,"izes":5608,"▁faced":5609,"▁MD":5610,"azz":5611,"▁opin":5612,"▁walls":5613,"▁follows":5614,"▁Corn":5615,"▁billion":5616,"▁operated":5617,"▁Bart":5618,"▁grew":5619,"antine":5620,"▁Ros":5621,"ufact":5622,"▁surrounding":5623,"▁planet":5624,"▁Mean":5625,"▁swe":5626,"rect":5627,"▁Andrew":5628,"orter":5629,"antly":5630,"▁contained":5631,"onents":5632,"gend":5633,"▁condition":5634,"resp":5635,"▁degree":5636,"▁bal":5637,"▁herself":5638,"▁horses":5639,"min":5640,"▁manufact":5641,"▁Christmas":5642,"▁Night":5643,"ety":5644,"▁color":5645,"isco":5646,"▁Jud":5647,"▁sle":5648,"▁accompan":5649,"▁wounded":5650,"rance":5651,"▁typically":5652,"▁escape":5653,"▁Allied":5654,"▁54":5655,"▁passes":5656,"▁unf":5657,"▁master":5658,"▁simply":5659,"▁Wilson":5660,"▁brown":5661,"▁fuel":5662,"isters":5663,"▁reinf":5664,"utation":5665,"▁railway":5666,"▁Inst":5667,"▁element":5668,"▁draft":5669,"▁dang":5670,"▁Taylor":5671,"aming":5672,"▁editor":5673,"▁lives":5674,"la":5675,"▁1986":5676,"▁orders":5677,"▁arms":5678,"▁Elizabeth":5679,"▁phil":5680,"fully":5681,"mit":5682,"more":5683,"▁serving":5684,"▁nothing":5685,"ographer":5686,"▁camer":5687,"▁Hum":5688,"▁Alexander":5689,"uous":5690,"▁authority":5691,"▁chose":5692,"▁Mike":5693,"▁opposed":5694,"▁workers":5695,"▁vote":5696,"▁moment":5697,"▁Gi":5698,"▁consecutive":5699,"▁cannot":5700,"ricult":5701,"▁Pen":5702,"▁Each":5703,"▁newly":5704,"▁95":5705,"▁Joe":5706,"tar":5707,"▁Of":5708,"▁native":5709,"▁Jac":5710,"▁56":5711,"▁fan":5712,"▁experiment":5713,"ucky":5714,"▁unknown":5715,"▁97":5716,"isf":5717,"▁participated":5718,"ager":5719,"rich":5720,"▁growing":5721,"▁Pers":5722,"▁website":5723,"▁casual":5724,"▁emphas":5725,"▁psych":5726,"▁attrib":5727,"ancing":5728,"▁Det":5729,"▁producers":5730,"▁bass":5731,"ef":5732,"▁newspaper":5733,"▁fair":5734,"▁Castle":5735,"▁benef":5736,"▁losing":5737,"▁Exp":5738,"▁Festival":5739,"▁Land":5740,"▁advanced":5741,"▁adopted":5742,"ilies":5743,"▁filming":5744,"imens":5745,"▁Sound":5746,"▁heard":5747,"▁spirit":5748,"▁feed":5749,"▁severe":5750,"▁Pennsylvania":5751,"pton":5752,"▁offensive":5753,"▁firm":5754,"▁opposition":5755,"then":5756,"▁fiction":5757,"ype":5758,"▁Ret":5759,"▁extend":5760,"▁What":5761,"▁guard":5762,"▁Wat":5763,"▁capacity":5764,"▁rom":5765,"▁Head":5766,"orship":5767,"▁Islands":5768,"▁basis":5769,"▁council":5770,"▁sequence":5771,"▁actors":5772,"▁Card":5773,"▁WW":5774,"zy":5775,"▁ends":5776,"▁177":5777,"▁ast":5778,"▁Reception":5779,"▁Hy":5780,"TC":5781,"anda":5782,"▁weak":5783,"▁squadron":5784,"uses":5785,"▁Gall":5786,"▁Blue":5787,"▁prin":5788,"▁compar":5789,"▁advant":5790,"▁rear":5791,"▁abandoned":5792,"ura":5793,"aven":5794,"▁Irish":5795,"▁Further":5796,"▁rival":5797,"isers":5798,"▁Tech":5799,"▁SS":5800,"ables":5801,"iated":5802,"▁prompt":5803,"▁Bab":5804,"▁kick":5805,"▁honor":5806,"▁flying":5807,"lement":5808,"▁elev":5809,"▁enter":5810,"▁coal":5811,"▁Mr.":5812,"▁bey":5813,"▁creating":5814,"ocated":5815,"▁Fam":5816,"▁Jersey":5817,"onc":5818,"▁Spain":5819,"▁launch":5820,"▁filmed":5821,"▁Harry":5822,"▁poll":5823,"BA":5824,"▁regarded":5825,"▁happen":5826,"▁normal":5827,"▁expansion":5828,"▁P.":5829,"▁criticism":5830,"▁individuals":5831,"▁homes":5832,"▁1990s":5833,"▁Cat":5834,"▁agreement":5835,"▁beyond":5836,"eld":5837,"ounger":5838,"▁Us":5839,"▁incident":5840,"▁178":5841,"▁spect":5842,"▁76":5843,"FA":5844,"▁spring":5845,"▁Square":5846,"▁delay":5847,"▁failure":5848,"apers":5849,"▁Ca":5850,"▁liber":5851,"▁Coast":5852,"▁evac":5853,"▁deploy":5854,"▁eye":5855,"▁dismiss":5856,"▁chair":5857,"▁sports":5858,"▁Lind":5859,"▁famous":5860,"iner":5861,"▁inte":5862,"▁vo":5863,"▁sail":5864,"▁Fe":5865,"▁measure":5866,"▁1939":5867,"▁Are":5868,"▁Sand":5869,"▁possibly":5870,"▁boat":5871,"imet":5872,"▁historical":5873,"▁negative":5874,"▁R.":5875,"▁bodies":5876,"▁CD":5877,"ima":5878,"▁'ve":5879,"▁Ul":5880,"▁achieved":5881,"▁mob":5882,"▁contact":5883,"▁Bul":5884,"▁Wild":5885,"▁progress":5886,"▁strike":5887,"▁silver":5888,"ifications":5889,"▁believe":5890,"ico":5891,"▁Mul":5892,"▁Public":5893,"▁End":5894,"▁Elect":5895,"▁roles":5896,"▁Broad":5897,"▁ur":5898,"iny":5899,"▁Production":5900,"▁narrow":5901,"▁Cy":5902,"▁killing":5903,"▁Ven":5904,"▁retired":5905,"▁ideas":5906,"▁Institute":5907,"▁Ly":5908,"▁Israel":5909,"ienced":5910,"▁drive":5911,"onent":5912,"▁disease":5913,"mosp":5914,"iana":5915,"hol":5916,"▁pet":5917,"▁torpedo":5918,"war":5919,"▁imag":5920,"▁briefly":5921,"kins":5922,"▁61":5923,"▁diam":5924,"▁Arthur":5925,"▁Liver":5926,"▁Revolution":5927,"imal":5928,"▁Due":5929,"▁1968":5930,"▁1985":5931,"▁task":5932,"▁effective":5933,"▁tree":5934,"▁armed":5935,"▁applic":5936,"▁arrang":5937,"edom":5938,"▁tower":5939,"▁Ash":5940,"▁66":5941,"▁Cub":5942,"▁budget":5943,"▁perman":5944,"▁receive":5945,"▁repeated":5946,"▁administration":5947,"▁granted":5948,"▁necessary":5949,"▁personnel":5950,"▁roads":5951,"▁Sund":5952,"ocks":5953,"▁rejected":5954,"▁Meanwhile":5955,"enger":5956,"▁table":5957,"▁Person":5958,"▁Republican":5959,"▁twelve":5960,"▁Clark":5961,"▁kilometres":5962,"▁inh":5963,"▁Doctor":5964,"▁gross":5965,"▁improved":5966,"▁leadership":5967,"kes":5968,"▁Album":5969,"▁column":5970,"worth":5971,"▁interchange":5972,"▁yellow":5973,"avalry":5974,"▁extensive":5975,"aved":5976,"▁data":5977,"▁1970":5978,"▁Mir":5979,"▁Ohio":5980,"▁Ty":5981,"iments":5982,"ourney":5983,"▁straight":5984,"▁turns":5985,"▁lands":5986,"▁plants":5987,"▁infantry":5988,"▁purpose":5989,"zil":5990,"▁paralle":5991,"▁Les":5992,"▁management":5993,"▁Bell":5994,"▁express":5995,"▁defin":5996,"▁Board":5997,"ić":5998,"▁seat":5999,"▁landing":6000,"och":6001,"oln":6002,"▁describes":6003,"▁expanded":6004,"▁Secretary":6005,"▁solo":6006,"▁franch":6007,"oma":6008,"▁choice":6009,"▁successfully":6010,"lusion":6011,"▁mile":6012,"▁broken":6013,"adelph":6014,"▁learn":6015,"set":6016,"▁tru":6017,"▁crossing":6018,"▁didn":6019,"▁intellig":6020,"▁animal":6021,"uate":6022,"▁1984":6023,"▁deliver":6024,"▁Sa":6025,"▁Ep":6026,"▁explos":6027,"▁Philadelph":6028,"▁fought":6029,"gers":6030,"▁chor":6031,"▁excl":6032,"▁Prot":6033,"▁Bru":6034,"▁RA":6035,"▁organized":6036,"▁caught":6037,"▁E.":6038,"▁800":6039,"erc":6040,"▁vehicles":6041,"▁commissioned":6042,"▁suggests":6043,"▁Burn":6044,"▁roof":6045,"▁glob":6046,"▁Even":6047,"▁acquired":6048,"haps":6049,"stream":6050,"etball":6051,"▁places":6052,"▁committee":6053,"▁Never":6054,"rif":6055,"▁ancient":6056,"▁drama":6057,"ev":6058,"▁IS":6059,"▁Hit":6060,"▁Georgia":6061,"▁creation":6062,"▁Sher":6063,"▁Mov":6064,"▁Cambridge":6065,"▁types":6066,"▁fat":6067,"appy":6068,"▁57":6069,"▁gives":6070,"▁Lar":6071,"▁Philadelphia":6072,"▁article":6073,"▁comedy":6074,"▁seventh":6075,"▁prefer":6076,"▁nuclear":6077,"akers":6078,"▁soft":6079,"zer":6080,"▁unsu":6081,"▁wave":6082,"ii":6083,"ms":6084,"▁120":6085,"aith":6086,"etts":6087,"▁SR":6088,"▁W.":6089,"▁authorities":6090,"▁contain":6091,"▁headquarters":6092,"▁Rel":6093,"▁Also":6094,"▁1967":6095,"▁centuries":6096,"▁commonly":6097,"▁determined":6098,"rin":6099,"▁islands":6100,"▁genus":6101,"ns":6102,"▁roll":6103,"▁Addition":6104,"▁mentioned":6105,"attle":6106,"▁Russia":6107,"▁Mah":6108,"▁bott":6109,"▁recently":6110,"▁street":6111,"▁trav":6112,"oted":6113,"umes":6114,"▁Wars":6115,"▁beaut":6116,"▁encoura":6117,"▁looking":6118,"▁Gil":6119,"▁controlled":6120,"amin":6121,"▁favour":6122,"ipl":6123,"restling":6124,"uan":6125,"▁Common":6126,"▁1980":6127,"arts":6128,"oles":6129,"▁Arg":6130,"▁sets":6131,"▁families":6132,"▁Among":6133,"▁household":6134,"▁security":6135,"▁Liverpool":6136,"▁aim":6137,"▁finds":6138,"▁62":6139,"▁advert":6140,"▁sand":6141,"▁decre":6142,"▁Nintend":6143,"▁drop":6144,"▁suppor":6145,"▁acad":6146,"▁standing":6147,"va":6148,"▁la":6149,"▁illust":6150,"ishes":6151,"▁Linc":6152,"▁unp":6153,"uting":6154,"▁Nintendo":6155,"outs":6156,"gn":6157,"▁Chap":6158,"▁singing":6159,"▁withdraw":6160,"▁Ka":6161,"▁Earl":6162,"▁fish":6163,"▁Hay":6164,"▁dial":6165,"▁ven":6166,"▁battalion":6167,"▁reflect":6168,"▁Jenn":6169,"▁Prime":6170,"▁Columbia":6171,"▁sac":6172,"▁Bad":6173,"▁unique":6174,"itled":6175,"▁deck":6176,"▁height":6177,"▁containing":6178,"▁cultural":6179,"▁entirely":6180,"▁orchest":6181,"▁protect":6182,"water":6183,"▁finish":6184,"▁Lincoln":6185,"oh":6186,"▁touchdown":6187,"▁mist":6188,"▁Singap":6189,"illing":6190,"▁contributed":6191,"▁Asia":6192,"▁try":6193,"▁themes":6194,"▁Development":6195,"▁Korean":6196,"▁younger":6197,"▁provides":6198,"▁defence":6199,"▁flooding":6200,"▁Lieutenant":6201,"▁Brazil":6202,"▁1983":6203,"pping":6204,"▁atmosp":6205,"▁58":6206,"▁Child":6207,"▁74":6208,"▁awards":6209,"room":6210,"▁titles":6211,"▁mis":6212,"ulate":6213,"▁purchased":6214,".com":6215,"▁Jewish":6216,"▁powers":6217,"inity":6218,"▁arrival":6219,"▁Hun":6220,"▁convers":6221,"▁scheduled":6222,"▁defensive":6223,"▁Francisco":6224,"respond":6225,"▁resemb":6226,"▁Rol":6227,"▁Singapore":6228,"▁thing":6229,"▁accompanied":6230,"wall":6231,"▁ceremony":6232,"icial":6233,"▁unus":6234,"▁quite":6235,"▁perfect":6236,"▁1964":6237,"▁expedition":6238,"▁People":6239,"▁worth":6240,"▁Six":6241,"wick":6242,"▁1969":6243,"atures":6244,"▁locations":6245,"▁existing":6246,"▁Dark":6247,"▁Hon":6248,"▁interact":6249,"▁advantage":6250,"▁performing":6251,"▁Pot":6252,"▁Carey":6253,"▁philos":6254,"▁Office":6255,"rons":6256,"▁dedicated":6257,"▁computer":6258,"▁Lis":6259,"▁72":6260,"▁bat":6261,"acted":6262,"ker":6263,"▁Bor":6264,"▁Disney":6265,"▁extrem":6266,"▁request":6267,"C.":6268,"laim":6269,"▁intensity":6270,"Station":6271,"▁Tam":6272,"▁Key":6273,"▁store":6274,"▁occupied":6275,"▁1914":6276,"dy":6277,"agan":6278,"▁why":6279,"▁squad":6280,"▁1918":6281,"▁PlayStation":6282,"▁fresh":6283,"▁HMS":6284,"▁carry":6285,"▁mounted":6286,"iling":6287,"▁Order":6288,"usc":6289,"▁Kel":6290,"ashion":6291,"▁nob":6292,"▁1982":6293,"▁Turn":6294,"ta":6295,"▁fix":6296,"▁tail":6297,"▁1971":6298,"▁mouth":6299,"▁Anderson":6300,"▁Brook":6301,"▁Balt":6302,"▁cricket":6303,"▁mic":6304,"fort":6305,"▁Mot":6306,"▁Steve":6307,"▁closely":6308,"rations":6309,"▁consists":6310,"▁currently":6311,"▁Lewis":6312,"mann":6313,"▁Miller":6314,"▁lic":6315,"▁session":6316,"▁1966":6317,"hens":6318,"▁Byz":6319,"▁1972":6320,"▁Radio":6321,"▁Die":6322,"▁Conference":6323,"yles":6324,"▁tim":6325,"▁1979":6326,"▁industrial":6327,"mouth":6328,"▁egg":6329,"▁Bas":6330,"▁simple":6331,"ava":6332,"▁59":6333,"▁elimin":6334,"pper":6335,"▁vari":6336,"▁piano":6337,"▁Once":6338,"▁facilities":6339,"▁cold":6340,"ilton":6341,"▁supporting":6342,"▁drawn":6343,"▁Grant":6344,"▁Olympic":6345,"▁ty":6346,"ware":6347,"▁trains":6348,"▁Conn":6349,"▁belong":6350,"▁Pu":6351,"▁Shak":6352,"▁protection":6353,"▁boats":6354,"▁Brian":6355,"▁rated":6356,"▁rise":6357,"▁defined":6358,"▁selection":6359,"▁steam":6360,"▁harm":6361,"▁row":6362,"otic":6363,"▁1965":6364,"▁regions":6365,"iro":6366,"▁Su":6367,"awa":6368,"▁Barb":6369,"▁submar":6370,"▁Railway":6371,"▁protected":6372,"▁calls":6373,"▁pros":6374,"▁hair":6375,"▁NHL":6376,"▁#":6377,"▁comic":6378,"▁Emperor":6379,"▁motion":6380,"gest":6381,"verse":6382,"▁structures":6383,"▁throw":6384,"▁lap":6385,"▁aid":6386,"▁shark":6387,"▁Att":6388,"▁labor":6389,"▁Mu":6390,"▁focused":6391,"▁opportunity":6392,"▁99":6393,"▁1975":6394,"▁engaged":6395,"▁receiving":6396,"ingly":6397,"iration":6398,"▁correspond":6399,"▁shooting":6400,"▁analysis":6401,"▁sport":6402,"▁citizens":6403,"▁motor":6404,"ba":6405,"▁observ":6406,"▁strengthen":6407,"▁Gulf":6408,"osa":6409,"▁notable":6410,"▁3rd":6411,"sey":6412,"▁adap":6413,"▁Av":6414,"▁Summer":6415,"uzz":6416,"▁Press":6417,"▁Water":6418,"▁experienced":6419,"▁Germans":6420,"▁Hollywood":6421,"ults":6422,"▁Serb":6423,"ua":6424,"▁conference":6425,"▁providing":6426,"▁holding":6427,"▁Walter":6428,"▁Inc":6429,"inger":6430,"▁visual":6431,"▁mountain":6432,"▁eyes":6433,"▁Han":6434,"▁Only":6435,"▁1974":6436,"▁resident":6437,"olid":6438,"▁18th":6439,"▁Davis":6440,"ading":6441,"▁southeast":6442,"▁mut":6443,"▁Lab":6444,"▁hired":6445,"▁charts":6446,"unior":6447,"▁viewed":6448,"FL":6449,"▁merch":6450,"▁branch":6451,"heim":6452,"ifically":6453,"inth":6454,"▁rapidly":6455,"burgh":6456,"▁rob":6457,"▁recognized":6458,"iler":6459,"▁1973":6460,"▁Gib":6461,"▁volume":6462,"▁vac":6463,"opher":6464,"▁transform":6465,"▁alle":6466,"▁Democratic":6467,"▁Review":6468,"▁prote":6469,"▁scholars":6470,"▁63":6471,"▁sites":6472,"essed":6473,"▁gain":6474,"▁77":6475,"▁Special":6476,"▁L.":6477,"▁casualties":6478,"▁teach":6479,"▁hyp":6480,"▁shared":6481,"▁concer":6482,"▁parallel":6483,"▁UN":6484,"▁73":6485,"▁Jean":6486,"▁Between":6487,"▁publication":6488,"▁Down":6489,"▁cart":6490,"▁temperature":6491,"▁digital":6492,"▁Fall":6493,"▁1976":6494,"▁moder":6495,"▁economy":6496,"▁Rome":6497,"▁Bank":6498,"▁Kir":6499,"▁developing":6500,"▁steel":6501,"▁reaction":6502,"▁edge":6503,"box":6504,"friend":6505,"standing":6506,"▁cool":6507,"roll":6508,"▁Princ":6509,"▁intersection":6510,"▁symbol":6511,"ali":6512,"zen":6513,"▁Lady":6514,"yer":6515,"▁approved":6516,"oncé":6517,"▁secondary":6518,"▁chance":6519,"▁Nap":6520,"▁Prov":6521,"▁Gord":6522,"▁Ob":6523,"▁von":6524,"▁hydro":6525,"omew":6526,"▁losses":6527,"▁myth":6528,"▁contest":6529,"rant":6530,"▁rac":6531,"rence":6532,"▁prepared":6533,"▁substant":6534,"▁Mas":6535,"▁belief":6536,"itors":6537,"▁Daily":6538,"▁Ten":6539,"▁enl":6540,"▁Musl":6541,"iful":6542,"▁letters":6543,"án":6544,"ologist":6545,"s.":6546,"ographic":6547,"▁Women":6548,"▁significantly":6549,"▁witness":6550,"▁bands":6551,"▁sort":6552,"onder":6553,"▁card":6554,"▁save":6555,"▁Naz":6556,"▁domestic":6557,"▁Syd":6558,"▁250":6559,"▁franchise":6560,"▁knew":6561,"ryst":6562,"▁goes":6563,"▁literature":6564,"▁Beyoncé":6565,"eral":6566,"▁unsuccess":6567,"▁instruct":6568,"▁heads":6569,"achus":6570,"▁southwest":6571,"▁actress":6572,"▁technology":6573,"▁semi":6574,"▁67":6575,"▁advent":6576,"break":6577,"▁descend":6578,"▁roughly":6579,"ora":6580,"range":6581,"▁urban":6582,"▁cab":6583,"asty":6584,"▁Command":6585,"▁Bern":6586,"aka":6587,"unte":6588,"▁Plan":6589,"theless":6590,"▁painting":6591,"▁adult":6592,"▁lb":6593,"▁Main":6594,"▁anything":6595,"▁cars":6596,"▁pitch":6597,"enc":6598,"▁projects":6599,"▁assault":6600,"▁Indust":6601,"▁Colonel":6602,"▁exact":6603,"ella":6604,"▁brothers":6605,"ients":6606,"▁resistance":6607,"▁gameplay":6608,"▁Point":6609,"▁core":6610,"▁Nick":6611,"▁shape":6612,"▁storyline":6613,"▁Whit":6614,"▁Supreme":6615,"▁reasons":6616,"▁Fair":6617,"▁rules":6618,"iminal":6619,"▁ign":6620,"▁employed":6621,"▁tank":6622,"▁IV":6623,"ropri":6624,"▁Var":6625,"▁Kentucky":6626,"▁daily":6627,"▁Station":6628,"▁shall":6629,"▁injured":6630,"▁1946":6631,"▁Spring":6632,"▁watched":6633,"▁1981":6634,"ati":6635,"▁agent":6636,"onym":6637,"▁popularity":6638,"▁composition":6639,"▁−":6640,"▁96":6641,"ira":6642,"▁Cur":6643,"▁perhaps":6644,"▁fit":6645,"▁isol":6646,"▁adding":6647,"▁enjoyed":6648,"▁renamed":6649,"▁opinion":6650,"▁1950s":6651,"▁Independ":6652,"▁getting":6653,"omic":6654,"▁declined":6655,"▁calc":6656,"▁Norway":6657,"oz":6658,"agement":6659,"▁Ross":6660,"▁compris":6661,"▁68":6662,"▁reputation":6663,"▁82":6664,"▁lov":6665,"▁nor":6666,"osl":6667,"inking":6668,"▁Theat":6669,"▁Prem":6670,"▁shaped":6671,"▁estate":6672,"▁connected":6673,"▁undert":6674,"▁rend":6675,"▁retire":6676,"▁drew":6677,"▁1917":6678,"▁museum":6679,"▁poem":6680,"▁regarding":6681,"bound":6682,"▁Olympics":6683,"oir":6684,"▁Mos":6685,"▁stages":6686,"ulpt":6687,"▁Philipp":6688,"▁converted":6689,"▁views":6690,"▁dry":6691,"ceived":6692,"amm":6693,"▁Golden":6694,"▁Massachus":6695,"gal":6696,"han":6697,"▁Walk":6698,"iform":6699,"▁Base":6700,"▁agricult":6701,"▁allows":6702,"▁sun":6703,"▁Sel":6704,"▁distingu":6705,"▁nick":6706,"ads":6707,"▁alternative":6708,"▁Massachusetts":6709,"▁Ball":6710,"vest":6711,"▁Abb":6712,"rets":6713,"▁bed":6714,"▁Imp":6715,"▁headed":6716,"igg":6717,"▁journey":6718,"▁87":6719,"▁Sus":6720,"▁Dream":6721,"athan":6722,"▁depth":6723,"ules":6724,"▁missing":6725,"▁cited":6726,"ato":6727,"▁increasingly":6728,"▁F.":6729,"eper":6730,"ko":6731,"▁Let":6732,"osis":6733,"▁stadium":6734,"▁Ron":6735,"▁approached":6736,"▁160":6737,"▁Airport":6738,"▁turning":6739,"▁Hart":6740,"▁responded":6741,"▁planning":6742,"▁knowledge":6743,"▁exerc":6744,"▁Vi":6745,"▁easily":6746,"▁wealth":6747,"▁1948":6748,"▁overl":6749,"▁cells":6750,"ilding":6751,"▁fashion":6752,"▁equal":6753,"▁escort":6754,"olt":6755,"▁700":6756,"▁flu":6757,"▁About":6758,"▁1960":6759,"▁collected":6760,"▁succeeded":6761,"psons":6762,"▁constitution":6763,"mod":6764,"eman":6765,"▁Ken":6766,"▁safety":6767,"▁Bal":6768,"▁rebu":6769,"▁existence":6770,"unicip":6771,"▁trip":6772,"▁pul":6773,"▁Run":6774,"wise":6775,"ignment":6776,"▁Simpsons":6777,"▁introduction":6778,"▁occas":6779,"▁auth":6780,"▁models":6781,"▁learned":6782,"▁Init":6783,"▁colle":6784,"▁sustained":6785,"rett":6786,"hi":6787,"▁tall":6788,"▁promotion":6789,"▁operating":6790,"▁69":6791,"▁1978":6792,"uration":6793,"mitted":6794,"▁McG":6795,"▁baseball":6796,"▁carrying":6797,"▁limit":6798,"▁Songs":6799,"▁exchange":6800,"▁showing":6801,"iger":6802,"▁youth":6803,"onia":6804,"▁Imperial":6805,"▁buried":6806,"engers":6807,"▁Vietnam":6808,"▁91":6809,"▁humans":6810,"eg":6811,"▁credited":6812,"▁78":6813,"come":6814,"▁depend":6815,"leton":6816,"▁arranged":6817,"▁Ottoman":6818,"▁Loc":6819,"▁improve":6820,"▁impl":6821,"▁seems":6822,"▁Jay":6823,"▁weakened":6824,"▁Cape":6825,"▁designs":6826,"▁1915":6827,"inary":6828,"▁van":6829,"▁joint":6830,"▁Shortly":6831,"▁paint":6832,"▁athlet":6833,"state":6834,"istan":6835,"▁rhy":6836,"▁producing":6837,"▁proceed":6838,"▁Poland":6839,"eler":6840,"acts":6841,"▁shel":6842,"▁Sydney":6843,"▁freeway":6844,"▁Moore":6845,"oli":6846,"▁1977":6847,"▁earliest":6848,"▁flat":6849,"▁Who":6850,"▁lasted":6851,"▁Maryland":6852,"▁landfall":6853,"▁settlement":6854,"put":6855,"▁Pict":6856,"▁note":6857,"▁Roy":6858,"▁description":6859,"▁retained":6860,"▁acres":6861,"▁ton":6862,"▁brand":6863,"▁Stew":6864,"▁94":6865,"▁1950":6866,"▁Rem":6867,"▁Naval":6868,"▁MTV":6869,"▁AD":6870,"▁laws":6871,"▁appoint":6872,"▁Cra":6873,"ivalent":6874,"▁genre":6875,"▁programs":6876,"▁consc":6877,"ources":6878,"▁assistant":6879,"rell":6880,"▁playoff":6881,"ivered":6882,"▁Jes":6883,"▁replace":6884,"ader":6885,"▁install":6886,"bell":6887,"▁reserve":6888,"issance":6889,"▁statement":6890,"▁virt":6891,"▁applied":6892,"▁catch":6893,"▁trust":6894,"▁1963":6895,"▁violence":6896,"▁neut":6897,"▁scientific":6898,"insula":6899,"▁81":6900,"▁Arts":6901,"▁entrance":6902,"▁coastal":6903,"othes":6904,"▁Pass":6905,"▁tick":6906,"iege":6907,"▁hits":6908,"tical":6909,"▁consequ":6910,"avig":6911,"▁98":6912,"▁exclus":6913,"▁synt":6914,"▁Greg":6915,"▁sculpt":6916,"▁patrol":6917,"▁battery":6918,"▁Fire":6919,"math":6920,"▁items":6921,"▁Ari":6922,"▁candidate":6923,"▁towns":6924,"lee":6925,"▁indicated":6926,"▁Bowl":6927,"▁uns":6928,"▁gradually":6929,"▁distribution":6930,"time":6931,"▁1916":6932,"▁Edu":6933,"▁politics":6934,"lan":6935,"▁Rid":6936,"▁delivered":6937,"oard":6938,"▁stopped":6939,"▁filled":6940,"▁ban":6941,"▁independence":6942,"▁tact":6943,"izations":6944,"eke":6945,"▁sections":6946,"▁details":6947,"pet":6948,"▁Jan":6949,"▁IG":6950,"▁Confeder":6951,"▁Mulder":6952,"eless":6953,"▁cinem":6954,"▁select":6955,"▁combination":6956,"▁71":6957,"▁emp":6958,"▁supplies":6959,"▁ways":6960,"▁glass":6961,"▁parties":6962,"ender":6963,"▁stream":6964,"▁engines":6965,"ushing":6966,"▁prisoners":6967,"▁camera":6968,"▁Gordon":6969,"▁appeal":6970,"▁Stadium":6971,"▁AC":6972,"▁Band":6973,"▁1919":6974,"▁register":6975,"▁Rhodes":6976,"▁campus":6977,"▁bask":6978,"emies":6979,"▁Well":6980,"▁1962":6981,"▁acts":6982,"▁mig":6983,"▁Bon":6984,"▁extremely":6985,"▁89":6986,"▁entitled":6987,"▁secure":6988,"reets":6989,"rec":6990,"ela":6991,"▁Ra":6992,"▁finding":6993,"AT":6994,"▁online":6995,"▁decade":6996,"inois":6997,"▁Univers":6998,"▁tal":6999,"▁Prof":7000,"poration":7001,"iques":7002,"▁Theatre":7003,"acter":7004,"▁winner":7005,"▁Staff":7006,"iversary":7007,"▁arc":7008,"ropol":7009,"▁evening":7010,"▁Cop":7011,"▁regiment":7012,"▁1938":7013,"▁Kim":7014,"▁investigation":7015,"▁88":7016,"▁threatened":7017,"▁bought":7018,"▁message":7019,"▁adapted":7020,"ja":7021,"▁somew":7022,"▁survived":7023,"▁knots":7024,"▁consum":7025,"▁studied":7026,"▁Bir":7027,"▁Anth":7028,"▁proposal":7029,"ador":7030,"▁writes":7031,"▁address":7032,"ashed":7033,"▁Vill":7034,"▁deaths":7035,"▁Justice":7036,"iat":7037,"▁routes":7038,"▁wars":7039,"▁download":7040,"▁ruled":7041,"▁fear":7042,"▁Nic":7043,"▁Instead":7044,"▁relief":7045,"▁religion":7046,"▁males":7047,"▁reduce":7048,"▁voted":7049,"BS":7050,"ighters":7051,"ieval":7052,"ano":7053,"▁revolution":7054,"▁specifically":7055,"▁spons":7056,"▁crown":7057,"▁phase":7058,"▁duty":7059,"met":7060,"▁fict":7061,"phoon":7062,"▁kingdom":7063,"▁Age":7064,"▁recalled":7065,"bourne":7066,"▁ec":7067,"▁portrayed":7068,"▁soul":7069,"▁implement":7070,"ctions":7071,"▁Circ":7072,"▁controversy":7073,"▁emerg":7074,"▁Here":7075,"▁Memorial":7076,"hat":7077,"▁et":7078,"▁causes":7079,"BN":7080,"▁Ast":7081,"ervative":7082,"▁ble":7083,"mun":7084,"▁1956":7085,"▁everything":7086,"▁breeding":7087,"apes":7088,"adow":7089,"chers":7090,"aug":7091,"▁sell":7092,"▁stret":7093,"▁references":7094,"▁175":7095,"ician":7096,"▁bottom":7097,"▁ago":7098,"▁capable":7099,"▁T.":7100,"▁Tony":7101,"▁convin":7102,"▁teacher":7103,"▁importance":7104,"▁Po":7105,"▁Coll":7106,"▁entry":7107,"▁meters":7108,"▁McK":7109,"▁offers":7110,"▁Singles":7111,"▁Id":7112,"▁Nel":7113,"▁Kong":7114,"▁tanks":7115,"▁Od":7116,"▁79":7117,"senal":7118,"▁Power":7119,"▁1930s":7120,"bro":7121,"▁Ur":7122,"▁sufficient":7123,"▁Director":7124,"entially":7125,"▁owner":7126,"▁internal":7127,"▁arrested":7128,"▁opera":7129,"ridges":7130,"▁Adams":7131,"▁admitted":7132,"▁nomination":7133,"arp":7134,"▁Ok":7135,"▁corner":7136,"▁bor":7137,"▁Jord":7138,"▁Moon":7139,"▁copy":7140,"▁Alan":7141,"▁1936":7142,"▁FA":7143,"▁crossed":7144,"▁climb":7145,"▁products":7146,"▁Dougl":7147,"wich":7148,"uro":7149,"▁Critical":7150,"bar":7151,"▁installed":7152,"▁equipped":7153,"▁Beach":7154,"▁Alf":7155,"▁IGN":7156,"▁preced":7157,"▁concerns":7158,"aki":7159,"▁mort":7160,"▁overse":7161,"▁autom":7162,"▁Hamilton":7163,"▁invited":7164,"▁Simon":7165,"▁Maria":7166,"▁Engine":7167,"▁convoy":7168,"▁ones":7169,"▁conqu":7170,"▁interested":7171,"▁fly":7172,"▁Adam":7173,"▁starts":7174,"▁crime":7175,"▁principal":7176,"▁Gram":7177,"hr":7178,"▁acid":7179,"▁130":7180,"ranean":7181,"▁tell":7182,"▁Your":7183,"▁recommended":7184,"▁alt":7185,"andy":7186,"▁Jane":7187,"▁unl":7188,"ructure":7189,"▁Plot":7190,"▁remainder":7191,"▁medal":7192,"▁shut":7193,"ansas":7194,"▁actual":7195,"ca":7196,"▁snow":7197,"▁retreat":7198,"▁UTC":7199,"▁92":7200,"▁stock":7201,"▁vent":7202,"▁upgrad":7203,"espread":7204,"▁1920":7205,"▁charged":7206,"▁VII":7207,"▁solid":7208,"▁apart":7209,"▁Bos":7210,"▁price":7211,"▁objects":7212,"▁Cart":7213,"▁funds":7214,"▁door":7215,"▁Track":7216,"▁1961":7217,"▁Forest":7218,"osaurus":7219,"ilation":7220,"▁composer":7221,"vis":7222,"▁84":7223,"▁females":7224,"▁Video":7225,"▁consisting":7226,"▁gall":7227,"aked":7228,"▁promote":7229,"▁Death":7230,"▁page":7231,"▁milit":7232,"iy":7233,"▁NBA":7234,"▁Indones":7235,"▁considerable":7236,"mb":7237,"▁Found":7238,"▁Prog":7239,"▁dates":7240,"▁poly":7241,"▁Int":7242,"iller":7243,"hus":7244,"▁Nether":7245,"▁Gen":7246,"▁1953":7247,"▁typical":7248,"▁grounds":7249,"▁Kennedy":7250,"erted":7251,"▁Gun":7252,"▁correct":7253,"▁Today":7254,"▁duties":7255,"▁extension":7256,"▁blow":7257,"cks":7258,"rete":7259,"▁evolution":7260,"▁93":7261,"▁someone":7262,"▁Transport":7263,"▁cong":7264,"▁rural":7265,"▁penal":7266,"▁'d":7267,"▁Military":7268,"▁Sunday":7269,"▁eighth":7270,"BI":7271,"vements":7272,"▁Indiana":7273,"▁spin":7274,"▁sole":7275,"▁Project":7276,"▁hotel":7277,"▁Howard":7278,"osite":7279,"▁decades":7280,"▁Norwe":7281,"king":7282,"▁images":7283,"▁Pit":7284,"▁driving":7285,"▁reading":7286,"▁identity":7287,"▁Scully":7288,"▁Hou":7289,"▁zone":7290,"▁Marc":7291,"add":7292,"▁occurs":7293,"▁1930":7294,"hetic":7295,"▁Leon":7296,"▁manner":7297,"▁Bry":7298,"▁subs":7299,"▁skin":7300,"▁challenge":7301,"▁Hitler":7302,"▁lane":7303,"▁remix":7304,"▁tow":7305,"▁Kat":7306,"▁aspects":7307,"▁permanent":7308,"▁aer":7309,"▁Tar":7310,"▁17th":7311,"▁brigade":7312,"▁Ta":7313,"▁frag":7314,"▁1947":7315,"▁volcan":7316,"▁dated":7317,"▁ham":7318,"▁1958":7319,"▁Cult":7320,"▁Five":7321,"▁Gill":7322,"▁vir":7323,"▁Portug":7324,"▁noting":7325,"▁restaur":7326,"ez":7327,"▁Brist":7328,"▁colour":7329,"after":7330,"ione":7331,"▁Drag":7332,"ubb":7333,"▁supporters":7334,"▁WWE":7335,"▁slowly":7336,"▁clean":7337,"▁Ba":7338,"▁posted":7339,"▁Pear":7340,"▁86":7341,"ensus":7342,"▁Turk":7343,"ivals":7344,"▁Rose":7345,"iley":7346,"▁1957":7347,"veland":7348,"cknow":7349,"▁Science":7350,"▁describing":7351,"▁Research":7352,"▁G.":7353,"▁involving":7354,"▁speak":7355,"▁vessels":7356,"▁entering":7357,"▁enemies":7358,"▁1937":7359,"▁Assembly":7360,"▁dress":7361,"▁equivalent":7362,"▁Mr":7363,"aware":7364,"▁Ryan":7365,"▁Hug":7366,"▁classes":7367,"▁bra":7368,"▁debate":7369,"▁settled":7370,"nic":7371,"▁din":7372,"▁Ak":7373,"▁department":7374,"▁obtained":7375,"▁Constitution":7376,"regon":7377,"▁accur":7378,"▁armor":7379,"▁parliament":7380,"▁Rolling":7381,"▁Disc":7382,"erto":7383,"▁Magazine":7384,"▁tele":7385,"▁Mountain":7386,"▁Argent":7387,"▁songwrit":7388,"▁basic":7389,"risis":7390,"▁purchase":7391,"agues":7392,"fl":7393,"▁pup":7394,"▁folk":7395,"▁nest":7396,"▁oldest":7397,"▁Cleveland":7398,"▁faith":7399,"▁Space":7400,"▁Pier":7401,"▁Lenn":7402,"▁concerned":7403,"▁departure":7404,"▁widespread":7405,"▁decline":7406,"▁formal":7407,"▁connection":7408,"▁Illinois":7409,"cation":7410,"ophy":7411,"▁income":7412,"▁attached":7413,"hered":7414,"▁recognition":7415,"▁Now":7416,"▁integ":7417,"▁Douglas":7418,"▁memorial":7419,"▁outer":7420,"▁Throughout":7421,"▁certified":7422,"heastern":7423,"▁deleg":7424,"▁accused":7425,"▁<":7426,"▁sequel":7427,"orney":7428,"▁Weekly":7429,"▁derived":7430,"▁decor":7431,"▁Sav":7432,"rates":7433,"▁mode":7434,"▁Ira":7435,"▁ha":7436,"▁Stand":7437,"▁Rele":7438,"aret":7439,"▁Andy":7440,"▁wearing":7441,"▁Jordan":7442,"icit":7443,"▁hip":7444,"▁assumed":7445,"▁disturb":7446,"▁swim":7447,"western":7448,"▁wed":7449,"▁Oregon":7450,"▁1959":7451,"▁acknow":7452,"▁4th":7453,"▁Stanley":7454,"▁torn":7455,"▁Freder":7456,"▁”":7457,"▁acclaim":7458,"▁110":7459,"ooth":7460,"▁survey":7461,"▁committed":7462,"iot":7463,"▁foss":7464,"▁Arsenal":7465,"▁Media":7466,"▁Feder":7467,"▁hosted":7468,"RA":7469,"▁Third":7470,"▁returns":7471,"▁valley":7472,"▁segment":7473,"▁Roger":7474,"▁sessions":7475,"ekend":7476,"▁Dal":7477,"▁populations":7478,"▁Philip":7479,"agonist":7480,"▁denied":7481,"▁fine":7482,"▁Mediter":7483,"▁Treat":7484,"▁Recording":7485,"▁temple":7486,"▁Family":7487,"▁hang":7488,"wan":7489,"▁champion":7490,"▁flo":7491,"▁Beatles":7492,"▁charges":7493,"▁Tenn":7494,"▁Low":7495,"▁literary":7496,"▁Bruce":7497,"▁Kevin":7498,"▁canc":7499,"▁regional":7500,"▁thousands":7501,"▁Norwegian":7502,"▁1954":7503,"▁terminus":7504,"▁transition":7505,"▁1955":7506,"▁Mediterranean":7507,"▁circum":7508,"iva":7509,"▁supposed":7510,"▁warm":7511,"▁wickets":7512,"▁Bristol":7513,"▁“":7514,"▁demand":7515,"▁Es":7516,"▁Az":7517,"▁Dig":7518,"▁ans":7519,"▁shots":7520,"hedral":7521,"▁ISBN":7522,"▁Rain":7523,"udden":7524,"▁strongly":7525,"heme":7526,"achel":7527,"▁circulation":7528,"▁Bush":7529,"▁intelligence":7530,"▁sailed":7531,"▁passengers":7532,"▁possibility":7533,"▁generation":7534,"IA":7535,"▁hope":7536,"▁fictional":7537,"emed":7538,"▁animated":7539,"▁thirty":7540,"▁freedom":7541,"▁downtown":7542,"▁Channel":7543,"organ":7544,"▁Ho":7545,"▁Federal":7546,"eing":7547,"ito":7548,"▁hill":7549,"▁rich":7550,"▁minister":7551,"▁behavior":7552,"▁cloud":7553,"▁Mexican":7554,"rage":7555,"▁×":7556,"CA":7557,"▁assistance":7558,"▁replacement":7559,"▁begun":7560,"▁Pur":7561,"▁fruit":7562,"ami":7563,"▁commanded":7564,"▁Web":7565,"▁destruction":7566,"atinum":7567,"▁moves":7568,"mes":7569,"▁Bol":7570,"▁criminal":7571,"char":7572,"▁missed":7573,"▁missions":7574,"▁Conc":7575,"▁exception":7576,"▁costs":7577,"▁Der":7578,"▁crash":7579,"orced":7580,"▁Row":7581,"upt":7582,"▁highlight":7583,"▁bringing":7584,"▁tied":7585,"▁Master":7586,"▁Cas":7587,"lig":7588,"▁Eric":7589,"▁commit":7590,"isms":7591,"▁Korea":7592,"▁Within":7593,"▁intention":7594,"▁feeling":7595,"▁Bah":7596,"onto":7597,"▁speaking":7598,"▁unusual":7599,"▁Lisa":7600,"oral":7601,"elsh":7602,"▁Additionally":7603,"▁Fame":7604,"▁intercept":7605,"▁finishing":7606,"▁alleged":7607,"lets":7608,"▁Nar":7609,"▁demol":7610,"▁properties":7611,"▁incorporated":7612,"▁opposite":7613,"▁stayed":7614,"▁Sab":7615,"▁attributed":7616,"▁shop":7617,"▁Phill":7618,"▁volunte":7619,"▁recovered":7620,"borne":7621,"▁sons":7622,"▁Color":7623,"▁breaking":7624,"▁emerged":7625,"▁83":7626,"▁serves":7627,"▁1952":7628,"▁atmosphere":7629,"▁Morgan":7630,"▁Morris":7631,"▁dipl":7632,"▁chorus":7633,"▁theatre":7634,"▁Norman":7635,"▁occasionally":7636,"rating":7637,"▁driven":7638,"othing":7639,"olec":7640,"▁Scient":7641,"aire":7642,"▁Ele":7643,"▁strateg":7644,"▁Robinson":7645,"▁Kr":7646,"enses":7647,"umin":7648,"▁Ever":7649,"riers":7650,"▁classic":7651,"▁spok":7652,"▁ready":7653,"▁Prior":7654,"▁effectively":7655,"▁regularly":7656,"aza":7657,"▁cavalry":7658,"▁establishment":7659,"▁Sky":7660,"▁prey":7661,"▁courts":7662,"▁Raj":7663,"▁methods":7664,"thm":7665,"▁vary":7666,"▁1933":7667,"▁sounds":7668,"oslav":7669,"▁Hawai":7670,"▁divers":7671,"ogen":7672,"▁Television":7673,"▁superv":7674,"▁Similar":7675,"▁176":7676,"pective":7677,"▁dream":7678,"▁Around":7679,"▁completion":7680,"don":7681,"▁shore":7682,"▁Unlike":7683,"▁materials":7684,"▁CE":7685,"▁Construction":7686,"▁Gh":7687,"uty":7688,"▁responsibility":7689,"▁dissip":7690,"▁warning":7691,"▁USA":7692,"▁accommod":7693,"wen":7694,"▁Cab":7695,"▁Finn":7696,"▁heat":7697,"▁attracted":7698,"▁fields":7699,"▁surviving":7700,"▁province":7701,"▁entertain":7702,"▁persu":7703,"▁Nelson":7704,"▁Iron":7705,"rim":7706,"▁global":7707,"nold":7708,"ece":7709,"▁Nich":7710,"▁Francis":7711,"▁mo":7712,"▁quant":7713,"▁classified":7714,"▁kid":7715,"sole":7716,"▁differences":7717,"▁Premier":7718,"▁DE":7719,"▁Lanc":7720,"icks":7721,"▁divisions":7722,"▁technical":7723,"vens":7724,"▁Sweden":7725,"▁interpret":7726,"▁brain":7727,"▁1935":7728,"ban":7729,"▁Ford":7730,"▁Techn":7731,"▁1910":7732,"▁cruiser":7733,"▁Patrick":7734,"▁Budd":7735,"ipe":7736,"▁passage":7737,"emeter":7738,"abled":7739,"▁Anton":7740,"▁aboard":7741,"▁none":7742,"▁Mit":7743,"inton":7744,"▁sam":7745,"oyd":7746,"▁PA":7747,"▁Temple":7748,"weight":7749,"▁clubs":7750,"▁stood":7751,"▁association":7752,"▁ratings":7753,"▁neither":7754,"▁eleven":7755,"ji":7756,"▁musicians":7757,"▁rooms":7758,"nce":7759,"▁1951":7760,"▁1949":7761,"▁medic":7762,"▁reinforce":7763,"idden":7764,"omot":7765,"▁Hell":7766,"▁desire":7767,"nings":7768,"▁hal":7769,"▁separated":7770,"▁Toronto":7771,"▁Welsh":7772,"▁climate":7773,"▁Anne":7774,"agle":7775,"▁squ":7776,"▁Nations":7777,"▁shif":7778,"▁outbreak":7779,"▁classification":7780,"▁ancest":7781,"▁Dog":7782,"ón":7783,"▁vehicle":7784,"▁Marg":7785,"▁reality":7786,"▁predecess":7787,"▁seemed":7788,"▁Byzantine":7789,"▁chemical":7790,"▁votes":7791,"▁picture":7792,"teenth":7793,"▁Allen":7794,"▁battleships":7795,"▁rose":7796,"▁Chron":7797,"▁3D":7798,"▁13th":7799,"▁memory":7800,"▁hoped":7801,"ici":7802,"▁Profess":7803,"▁movements":7804,"▁ment":7805,"▁requested":7806,"▁Open":7807,"▁Netherlands":7808,"▁Journal":7809,"▁16th":7810,"▁Belg":7811,"▁Sn":7812,"ogy":7813,"▁raise":7814,"▁historians":7815,"▁ille":7816,"▁Every":7817,"▁Matthew":7818,"▁Pow":7819,"burn":7820,"▁map":7821,"▁difficulty":7822,"reck":7823,"▁basketball":7824,"inder":7825,"▁Whe":7826,"ewhere":7827,"ige":7828,"▁expect":7829,"▁vide":7830,"abil":7831,"▁communities":7832,"▁restored":7833,"▁raid":7834,"▁teen":7835,"▁remember":7836,"▁Bang":7837,"▁Sports":7838,"▁programme":7839,"▁Jews":7840,"▁premiere":7841,"▁pure":7842,"▁Dean":7843,"har":7844,"▁fal":7845,"▁delayed":7846,"▁Jacob":7847,"▁fer":7848,"▁relative":7849,"▁inspiration":7850,"▁Sax":7851,"▁discovery":7852,"▁gal":7853,"▁otherwise":7854,"▁greatly":7855,"▁USS":7856,"▁anniversary":7857,"▁injuries":7858,"▁Design":7859,"▁Again":7860,"▁neighbor":7861,"▁satisf":7862,"▁accounts":7863,"hire":7864,"▁funding":7865,"▁surrounded":7866,"▁flank":7867,"▁Domin":7868,"▁depict":7869,"▁praise":7870,"▁Ult":7871,"▁penalty":7872,"▁spoke":7873,"ilers":7874,"▁batting":7875,"▁needs":7876,"▁1900":7877,"▁Iraq":7878,"iate":7879,"▁dens":7880,"▁strate":7881,"▁die":7882,"▁partner":7883,"▁crop":7884,"▁Wright":7885,"▁Marine":7886,"▁massive":7887,"▁weapon":7888,"▁photograph":7889,"▁I.":7890,"▁recru":7891,"▁claiming":7892,"▁cra":7893,"▁Dor":7894,"▁7th":7895,"anth":7896,"▁Bishop":7897,"▁suit":7898,"▁assemb":7899,"▁lat":7900,"▁astron":7901,"▁tries":7902,"▁forming":7903,"▁strategy":7904,"▁wrong":7905,"real":7906,"▁legend":7907,"▁Oak":7908,"▁accompl":7909,"▁documentary":7910,"▁Armen":7911,"▁fled":7912,"▁crosses":7913,"▁Glob":7914,"▁worst":7915,"▁Hop":7916,"▁Croatian":7917,"▁Heart":7918,"▁Da":7919,"▁stands":7920,"gets":7921,"▁Thompson":7922,"▁architecture":7923,"▁ash":7924,"▁Last":7925,"uther":7926,"▁temporary":7927,"▁Jam":7928,"▁girls":7929,"uble":7930,"▁determine":7931,"▁chairman":7932,"▁Dick":7933,"▁Russell":7934,"▁dismissed":7935,"aired":7936,"▁Islam":7937,"▁involvement":7938,"▁Stra":7939,"▁bombard":7940,"▁sale":7941,"▁category":7942,"▁Trib":7943,"▁rot":7944,"formula":7945,"▁plane":7946,"▁5th":7947,"▁Centre":7948,"▁inner":7949,"▁remn":7950,"▁adaptation":7951,"▁<formula":7952,"▁<formula>":7953,"▁Mars":7954,"▁hear":7955,"rum":7956,"going":7957,"▁ensure":7958,"▁convinced":7959,"onds":7960,"▁sight":7961,"▁enf":7962,"lyn":7963,"▁NC":7964,"▁cul":7965,"▁weekend":7966,"▁06":7967,"▁Holy":7968,"▁NFL":7969,"▁Puerto":7970,"▁Front":7971,"▁resources":7972,"▁somewhat":7973,"▁reserv":7974,"▁Carter":7975,"▁interests":7976,"▁Winter":7977,"▁Rick":7978,"wing":7979,"▁scheme":7980,"▁medieval":7981,"▁immediate":7982,"▁Kelly":7983,"▁Hend":7984,"▁streets":7985,"agre":7986,"▁presidential":7987,"▁Modern":7988,"▁library":7989,"▁Ker":7990,"▁ray":7991,"oster":7992,"▁carbon":7993,"▁absor":7994,"▁consp":7995,"▁Cooper":7996,"body":7997,"▁ic":7998,"▁Spe":7999,"itzer":8000,"po":8001,"▁falling":8002,"▁colonial":8003,"▁Dra":8004,"▁Along":8005,"▁techniques":8006,"▁ori":8007,"▁classical":8008,"▁sed":8009,"▁fighter":8010,"▁ninth":8011,"▁Niel":8012,"▁Rang":8013,"▁appropri":8014,"▁throne":8015,"▁Gard":8016,"▁starred":8017,"▁Brother":8018,"▁academic":8019,"▁eggs":8020,"▁Free":8021,"▁Network":8022,"▁races":8023,"▁bright":8024,"icide":8025,"aya":8026,"▁adults":8027,"▁'ll":8028,"▁Pak":8029,"▁convent":8030,"▁commemor":8031,"▁passenger":8032,"▁surviv":8033,"▁loyal":8034,"▁Hungarian":8035,"▁Nob":8036,"▁6th":8037,"▁meets":8038,"▁lake":8039,"night":8040,"▁Wy":8041,"▁Gri":8042,"▁reviewer":8043,"ester":8044,"▁alien":8045,"▁Thus":8046,"▁1913":8047,"▁premiered":8048,"▁submarine":8049,"rine":8050,"▁Bou":8051,"▁absence":8052,"▁Batman":8053,"bec":8054,"wealth":8055,"▁seeing":8056,"▁renew":8057,"▁fitted":8058,"▁Labor":8059,"▁else":8060,"▁superior":8061,"osure":8062,"▁interior":8063,"arsh":8064,"▁favorite":8065,"▁Parker":8066,"▁engineer":8067,"ronze":8068,"▁dub":8069,"PA":8070,"▁Est":8071,"▁airport":8072,"▁partn":8073,"▁Tok":8074,"▁deemed":8075,"▁attacking":8076,"▁Harris":8077,"omp":8078,"▁conclusion":8079,"▁appearing":8080,"acent":8081,"▁visible":8082,"▁1926":8083,"▁dating":8084,"ivan":8085,"▁synthes":8086,"▁Bi":8087,"using":8088,"▁characteristics":8089,"▁romantic":8090,"▁x":8091,"▁leads":8092,"▁elections":8093,"▁rum":8094,"▁operate":8095}